{"<pad>":0,"<unk>":1,"<s>":2,"</s>":3,"!":4,"\"":5,"#":6,"$":7,"%":8,"&":9,"'":10,"(":11,")":12,"*":13,"+":14,",":15,"-":16,".":17,"/":18,"0":19,"1":20,"2":21,"3":22,"4":23,"5":24,"6":25,"7":26,"8":27,"9":28,":":29,";":30,"<":31,"=":32,">":33,"?":34,"@":35,"A":36,"B":37,"C":38,"D":39,"E":40,"F":41,"G":42,"H":43,"I":44,"J":45,"K":46,"L":47,"M":48,"N":49,"O":50,"P":51,"Q":52,"R":53,"S":54,"T":55,"U":56,"V":57,"W":58,"X":59,"Y":60,"Z":61,"[":62,"\\":63,"]":64,"^":65,"_":66,"`":67,"a":68,"b":69,"c":70,"d":71,"e":72,"f":73,"g":74,"h":75,"i":76,"j":77,"k":78,"l":79,"m":80,"n":81,"o":82,"p":83,"q":84,"r":85,"s":86,"t":87,"u":88,"v":89,"w":90,"x":91,"y":92,"z":93,"{":94,"|":95,"}":96,"~":97,"¡":98,"¢":99,"£":100,"¤":101,"¥":102,"¦":103,"§":104,"¨":105,"©":106,"ª":107,"«":108,"¬":109,"®":110,"¯":111,"°":112,"±":113,"²":114,"³":115,"´":116,"µ":117,"¶":118,"·":119,"¸":120,"¹":121,"º":122,"»":123,"¼":124,"½":125,"¾":126,"¿":127,"À":128,"Á":129,"Â":130,"Ã":131,"Ä":132,"Å":133,"Æ":134,"Ç":135,"È":136,"É":137,"Ê":138,"Ë":139,"Ì":140,"Í":141,"Î":142,"Ï":143,"Ð":144,"Ñ":145,"Ò":146,"Ó":147,"Ô":148,"Õ":149,"Ö":150,"×":151,"Ø":152,"Ù":153,"Ú":154,"Û":155,"Ü":156,"Ý":157,"Þ":158,"ß":159,"à":160,"á":161,"â":162,"ã":163,"ä":164,"å":165,"æ":166,"ç":167,"è":168,"é":169,"ê":170,"ë":171,"ì":172,"í":173,"î":174,"ï":175,"ð":176,"ñ":177,"ò":178,"ó":179,"ô":180,"õ":181,"ö":182,"÷":183,"ø":184,"ù":185,"ú":186,"û":187,"ü":188,"ý":189,"þ":190,"ÿ":191,"Ā":192,"ā":193,"Ă":194,"ă":195,"Ą":196,"ą":197,"Ć":198,"ć":199,"Ĉ":200,"ĉ":201,"Ċ":202,"ċ":203,"Č":204,"č":205,"Ď":206,"ď":207,"Đ":208,"đ":209,"Ē":210,"ē":211,"Ĕ":212,"ĕ":213,"Ė":214,"ė":215,"Ę":216,"ę":217,"Ě":218,"ě":219,"Ĝ":220,"ĝ":221,"Ğ":222,"ğ":223,"Ġ":224,"ġ":225,"Ģ":226,"ģ":227,"Ĥ":228,"ĥ":229,"Ħ":230,"ħ":231,"Ĩ":232,"ĩ":233,"Ī":234,"ī":235,"Ĭ":236,"ĭ":237,"Į":238,"į":239,"İ":240,"ı":241,"Ĳ":242,"ĳ":243,"Ĵ":244,"ĵ":245,"Ķ":246,"ķ":247,"ĸ":248,"Ĺ":249,"ĺ":250,"Ļ":251,"ļ":252,"Ľ":253,"ľ":254,"Ŀ":255,"ŀ":256,"Ł":257,"ł":258,"Ń":259,"Ġt":260,"he":261,"Ġa":262,"in":263,"er":264,"Ġs":265,"Ġthe":266,"on":267,"re":268,"Ġw":269,"ed":270,"en":271,"Ġc":272,"or":273,"at":274,"Ġb":275,"an":276,"Ġf":277,"Ġo":278,"is":279,"ing":280,"it":281,"es":282,"Ġh":283,"ar":284,"Ġto":285,"Ġp":286,"Ġin":287,"nd":288,"ou":289,"as":290,"al":291,"Ġm":292,"Ġof":293,"Ġd":294,"ic":295,"Ġand":296,"le":297,"Ġ.":298,"om":299,"il":300,"Ġth":301,"id":302,"ion":303,"ent":304,"Ġl":305,"Ġbe":306,"Ġn":307,"Ġhe":308,"Ġre":309,"st":310,"ve":311,"ĠT":312,"ay":313,"ot":314,"ĠS":315,"Ġg":316,"ol":317,"ut":318,"Ġon":319,"ad":320,"am":321,"ĠA":322,"ac":323,"ĠM":324,"Ġe":325,"ow":326,"ly":327,"ur":328,"ĠC":329,"Ġfor":330,"im":331,"ter":332,"ig":333,"ir":334,"Ġwas":335,"el":336,"ver":337,"ĠI":338,"et":339,"Ġst":340,"ro":341,"Ġis":342,"us":343,"ĠB":344,"Ġthat":345,"'s":346,"Ġwh":347,"ec":348,"âĢ":349,"ith":350,"ĠThe":351,"Ġwith":352,"ill":353,"Ġat":354,"ld":355,"Ġsa":356,"ĠH":357,"ri":358,"Ġ'":359,"ĠP":360,"Ġit":361,"Ġas":362,"un":363,"ce":364,"Ġan":365,"ation":366,"Ġsaid":367,"Ġal":368,"Ġy":369,"ers":370,"her":371,"ear":372,"Ġhis":373,"os":374,"ra":375,"Ġha":376,"and":377,"ch":378,"ĠW":379,"ĠD":380,"ul":381,"ts":382,"op":383,"igh":384,"th":385,"ĠL":386,"rom":387,"ĠR":388,"ag":389,"ke":390,"em":391,"Ġcon":392,"ĠF":393,"Ġ2":394,"est":395,"ore":396,"Ġ1":397,"if":398,"pp":399,"âĢĻ":400,"Ġhave":401,"Ġfrom":402,"Ġr":403,"ĠN":404,"Ġhas":405,"our":406,"ĠE":407,"Ġare":408,"ĠG":409,"Ġby":410,"Ġsh":411,"ain":412,"Ġher":413,"ew":414,"Ġch":415,"ted":416,"Ġcom":417,"Ġv":418,"res":419,"ĠJ":420,"od":421,"Ġ\"":422,"ate":423,"00":424,"ould":425,"Ġde":426,"Ġle":427,"up":428,"end":429,"Ġwe":430,"ct":431,"ast":432,"ess":433,"Ġnot":434,"ack":435,"um":436,"Ġse":437,"ight":438,"gh":439,"ust":440,"all":441,"Ġex":442,"Ġj":443,"ĠO":444,"ab":445,"ity":446,"Ġwho":447,"Ġpro":448,"Ġaf":449,"ist":450,"se":451,"Ġhad":452,"ard":453,"ive":454,"Ġsp":455,"Ġwhe":456,"ĠU":457,"ice":458,"art":459,"ere":460,"ak":461,"oc":462,"Ġ-":463,"ĠâĢ":464,"ment":465,"ok":466,"Ġshe":467,"rou":468,"Ġsu":469,"Ġpl":470,"ome":471,"ies":472,"red":473,"ort":474,"Ġab":475,"oun":476,"iv":477,"Ġbeen":478,"Ġthey":479,"Ġwere":480,"ud":481,"Ġafter":482,"Ġk":483,"out":484,"ge":485,"Ġtheir":486,"qu":487,"ich":488,"ost":489,"Ġbut":490,"Ġgo":491,"Ġwor":492,"ĠK":493,"ide":494,"ant":495,"ell":496,"Ġor":497,"Ġout":498,"Ġwill":499,"Ġoff":500,"Ġthis":501,"Ġcl":502,"ial":503,"ry":504,"Ġyear":505,"ie":506,"ber":507,"own":508,"ap":509,"one":510,"ep":511,"day":512,"ia":513,"ong":514,"ĠâĢĺ":515,"Ġup":516,"ine":517,"ff":518,"ren":519,"cc":520,"ous":521,"Ġdo":522,"Ġag":523,"ays":524,"Ġad":525,"ans":526,"Ġun":527,"ord":528,"Ġ20":529,"ime":530,"Ġwhich":531,"und":532,"Ġcan":533,"Ġne":534,"old":535,"mer":536,"ĠSt":537,"ub":538,"ict":539,"Ġ(":540,"Ġint":541,"Ġus":542,"ect":543,"ace":544,"ĠCh":545,"ame":546,"ary":547,"ated":548,"Ġone":549,"ther":550,"Ġwhen":551,"ally":552,"ue":553,"Ġabout":554,"Ġall":555,"wo":556,"age":557,"ail":558,"Ġman":559,"so":560,"Ġres":561,"Ġpe":562,"pl":563,"Ġmore":564,"ake":565,"ĠHe":566,"ure":567,"Ġyou":568,"Ġwould":569,"ile":570,"ĠIn":571,"Ġme":572,"Ġinc":573,"The":574,"Ġhim":575,"'t":576,"ions":577,"ople":578,"ond":579,"av":580,"Ġover":581,".'":582,"oll":583,"very":584,"ook":585,"ild":586,"Ġcont":587,"ian":588,"ence":589,"ound":590,"ident":591,"Ġar":592,"Ġalso":593,"Ġ201":594,"ite":595,"ose":596,"ass":597,"ire":598,"ign":599,"ind":600,"og":601,"Ġdis":602,"Ġso":603,"ip":604,"Ġrep":605,"Ġpeople":606,"ree":607,"Ġim":608,"ks":609,"ru":610,"Ġpol":611,"Ġpr":612,",\"":613,"ress":614,"Ġsc":615,"ike":616,"Ġbec":617,"other":618,"ĠTh":619,"Ġtwo":620,"ne":621,"Ġatt":622,"ish":623,"Ġthan":624,"aus":625,"are":626,"man":627,"Ġacc":628,"per":629,"Ġev":630,"Ġcomp":631,"ĠV":632,"ount":633,"hed":634,"Ġfir":635,"Ġinto":636,"ft":637,"Ġapp":638,"oy":639,"ib":640,"ick":641,"Ġnew":642,"Ġen":643,"rit":644,"Ġper":645,"ĠIt":646,"ough":647,"Ġjust":648,"Ġrec":649,"Ġthem":650,"Ġte":651,"Ġ--":652,"ved":653,"ĠMr":654,"act":655,"ors":656,"Ġtold":657,"Ġtime":658,"Ġcould":659,"ark":660,"Ġkn":661,"Ġ3":662,"reat":663,"Ġwork":664,"Ġother":665,"Ġyears":666,"uc":667,"ations":668,"Ġlast":669,"ach":670,"Ġpart":671,"ade":672,"Ġthere":673,"iss":674,".\"":675,"ning":676,"pt":677,"Ġfirst":678,"Ġits":679,"ife":680,"aw":681,"ob":682,"ĠY":683,"ged":684,"iz":685,"Âł":686,"fore":687,"ance":688,"Ġtr":689,"ied":690,"able":691,"ove":692,"ase":693,"Ġlike":694,"anc":695,"ath":696,"Ġmy":697,"ens":698,"ily":699,"Ġbl":700,"ood":701,"amp":702,"round":703,"Ġro":704,"ause":705,"Ġback":706,"Ġsome":707,"Ġfam":708,"Ġ19":709,"Ġget":710,"land":711,"Ġpre":712,"ĠBut":713,"Ġbefore":714,"Ġqu":715,"ater":716,"ical":717,"Ġplay":718,"ned":719,"ting":720,"Ġagain":721,"ek":722,"orm":723,"Ġfl":724,"Ġwhat":725,"Ġany":726,"Ġdown":727,"Ġinv":728,"Ġbeing":729,"ool":730,"ink":731,"ious":732,"Ġno":733,"ang":734,"Ġshow":735,"under":736,"we":737,"Ġnow":738,",'":739,"Ġcar":740,"Ġsec":741,"ons":742,"Ġtra":743,"uring":744,"000":745,"Ġchild":746,"Ġmon":747,"Ġcr":748,"ents":749,"ult":750,"Ġoffic":751,"ĠUn":752,"Ġser":753,"Ġinter":754,"ition":755,"Ġsay":756,"ates":757,"Ġdes":758,"year":759,"Ġhome":760,"Ġdid":761,"ĠAl":762,"Ġdec":763,"vel":764,"oin":765,"Ġsays":766,"ings":767,"Ġam":768,"rough":769,"lic":770,"lud":771,"ory":772,"enc":773,"ĠÂ":774,"Ġact":775,"Ġunder":776,"ĠNew":777,"ited":778,"Ġ4":779,"over":780,"Ġbr":781,"Ġfound":782,"Ġcall":783,"ters":784,"au":785,"Ġpolice":786,"wn":787,"Ġif":788,"Ġwhere":789,"Ġfe":790,"Ġph":791,"ving":792,"ash":793,"ĠAn":794,"Ġadd":795,"ĠShe":796,"ince":797,"Ġbecause":798,"ton":799,"iver":800,"ured":801,"als":802,"Ġrem":803,"illion":804,"oot":805,"ier":806,"ĠÂ£":807,"Ġthree":808,"Ġwom":809,"Ġ200":810,"Ġinclud":811,"aking":812,"Ġonly":813,"ock":814,"ather":815,"ss":816,"Ġlook":817,"Ġbel":818,"Ġra":819,"Ġmonth":820,"Ġhow":821,"Ġchar":822,"Ġcomm":823,"Ġsur":824,"fer":825,"Ġfamily":826,"ĠLe":827,"air":828,"NN":829,"ational":830,"Ġhel":831,"Ġcent":832,"Ġimp":833,"Ġmade":834,"Ġ5":835,"Ġexp":836,"Ġcount":837,"Ġbet":838,"riend":839,"Ġgr":840,"son":841,"rib":842,"ating":843,"Ġour":844,"Ġwhile":845,"Ġagainst":846,"ourt":847,"oss":848,"ues":849,"ered":850,"ublic":851,"aim":852,"Ġduring":853,"ise":854,"Ġweek":855,"led":856,"ty":857,"Ġmost":858,"ouse":859,"It":860,"ĠAnd":861,"Ġhelp":862,"ph":863,"Ġthen":864,"Ġac":865,"elf":866,"ĠMar":867,"te":868,"Ġthrough":869,"Ġaw":870,"ful":871,"Ġins":872,"ital":873,"Ġear":874,"ities":875,"Ġclaim":876,"ven":877,"We":878,"ix":879,"hn":880,"Ġday":881,"Ġfin":882,"Ġleft":883,"Ġrepor":884,"ĠFr":885,"ember":886,"resident":887,"Ġkill":888,"atch":889,"hen":890,"Ġmin":891,"ope":892,"Ġsupp":893,"urn":894,".âĢĻ":895,"Ġeven":896,"Ġlead":897,"Ġevery":898,"Ġdef":899,"ased":900,"ĠSc":901,"chool":902,"Ġmake":903,"orn":904,"ug":905,"tle":906,"Ġrel":907,"augh":908,"uch":909,"Ġvery":910,"Ġworld":911,"Ġem":912,"Ġknow":913,"Ġcons":914,"Ġaround":915,"ording":916,"Ġ6":917,"ared":918,"Ġtri":919,"ĠAf":920,"ov":921,"irl":922,"Ġlife":923,"ah":924,"ĠSp":925,"ger":926,"les":927,"lect":928,"Ġstar":929,"alk":930,"nment":931,"ĠBrit":932,"med":933,"Ġke":934,"Ġret":935,"Ġneed":936,"meric":937,"Ġown":938,"hes":939,"Ġsm":940,"hing":941,"get":942,"ĠWh":943,"ork":944,"Ġchildren":945,"Ġbelie":946,"Ġ$":947,"iew":948,"Ġtake":949,"Ġdon":950,"Ġteam":951,"Ġfour":952,"sh":953,"Ġsee":954,"der":955,"Ġbu":956,"ĠEn":957,"ures":958,"ected":959,"ĠAr":960,"Ġinf":961,"Ġreg":962,"xt":963,"ollow":964,"erson":965,"roup":966,"Ġend":967,"Ġass":968,"outh":969,"Ġset":970,"ody":971,"Ġway":972,"ble":973,"Ġmany":974,"Ġlong":975,"Ġattack":976,"Ġshould":977,"Ġind":978,"ric":979,"Ġgover":980,"gan":981,"ement":982,"Ġwar":983,"Ġsince":984,"ĠBr":985,"ull":986,"ave":987,"Ġthink":988,"ual":989,"Ġlaw":990,"ale":991,"az":992,"Ġhead":993,"ward":994,"Ġhand":995,"ced":996,"ives":997,"ĠAmeric":998,"Ġinvest":999,"Ġwell":1000,"ists":1001,"Ġmay":1002,"Ġmed":1003,"Ġwin":1004,"alth":1005,"Ġstill":1006,"oth":1007,"aren":1008,"Ġstud":1009,"Ġmil":1010,"Ġdeath":1011,"osp":1012,"iel":1013,"imes":1014,"ont":1015,"Ġgoing":1016,"Ġplan":1017,"Ġyour":1018,"ĠSh":1019,"Ġthose":1020,"Ġhapp":1021,"ene":1022,"uss":1023,"Ġfriend":1024,"ason":1025,"ney":1026,"Ġco":1027,"ĠJo":1028,"ised":1029,"cer":1030,"uth":1031,"ED":1032,"Ġpict":1033,"ama":1034,"Ġhigh":1035,"Ġter":1036,"ling":1037,"ĠRe":1038,"Ġthough":1039,"ner":1040,"Ġnear":1041,"Ġgu":1042,"ank":1043,"Ġconf":1044,"ST":1045,"Ġfollow":1046,"Ġvide":1047,"..":1048,"any":1049,"Ġofficial":1050,"ames":1051,"Ġgroup":1052,"Ġschool":1053,"Ġresp":1054,"Ġop":1055,"Ġcountry":1056,"ĠWe":1057,"Ġright":1058,"ll":1059,"gg":1060,"ister":1061,"ween":1062,"Ġcap":1063,"Ġtak":1064,"ves":1065,"Ġmother":1066,"ady":1067,"Ġbo":1068,"ible":1069,"Ġsign":1070,"ross":1071,"ĠUnited":1072,"its":1073,"Ġnight":1074,"ley":1075,"Ġused":1076,"Ġ10":1077,"ĠEST":1078,"Ġgovernment":1079,"ular":1080,"Ġbetween":1081,"Ġdif":1082,"ck":1083,"Ġdisc":1084,"ms":1085,"Ġincluding":1086,"Ġsuch":1087,"Ġ7":1088,"Ġmar":1089,"Ġput":1090,"br":1091,"tain":1092,"Ġmuch":1093,"Ġformer":1094,"io":1095,"Ġcourt":1096,"ange":1097,"ants":1098,"ott":1099,"Ġrun":1100,"ĠâĢĵ":1101,"ury":1102,"Ġcol":1103,"ina":1104,"Ġpublic":1105,"bs":1106,"tern":1107,"Ġwant":1108,"ĠThey":1109,"Ġleg":1110,"ham":1111,"rest":1112,"ened":1113,"ax":1114,"olog":1115,"ral":1116,"Ġche":1117,"Ġsecond":1118,"Ġpass":1119,"He":1120,"urs":1121,"ster":1122,"ecut":1123,"Ġprot":1124,"Ġsl":1125,"Ġdri":1126,"ower":1127,"ĠIs":1128,"ĠEng":1129,"ĠCl":1130,"Ġtook":1131,"Ġvideo":1132,"Ġyoun":1133,"Ġnum":1134,"Ġinvestig":1135,"Ġcalled":1136,"Ġ2013":1137,"Ġgood":1138,"Ġfr":1139,"ret":1140,"ness":1141,"Ġask":1142,"orth":1143,"Ġsent":1144,"Ġwomen":1145,"gr":1146,"ever":1147,"Ġaccording":1148,"ision":1149,"ics":1150,"ines":1151,"Ġstr":1152,"ins":1153,"Ġnext":1154,"ĠPol":1155,"app":1156,"ĠCNN":1157,"ute":1158,"side":1159,"ondon":1160,"Ġcare":1161,"Ġext":1162,"ospital":1163,"ĠChr":1164,"eral":1165,"Ġperson":1166,"ote":1167,"Ġwr":1168,"ple":1169,"Ġdays":1170,"Ġsy":1171,"Ġalle":1172,"Ġvict":1173,"Ġfive":1174,"Ġgirl":1175,"self":1176,"Ġcond":1177,"Ġstat":1178,"Ġlater":1179,"ison":1180,"Ġent":1181,"oney":1182,"ours":1183,"used":1184,"ets":1185,"Ġanother":1186,"bers":1187,"Ġcle":1188,"ĠLondon":1189,"rem":1190,"By":1191,"Ġref":1192,"Ġloc":1193,"Ġair":1194,"omet":1195,"ĠMon":1196,"Ġnever":1197,"ĠOb":1198,"Ġcontr":1199,"hip":1200,"ĠAs":1201,"Ġadded":1202,"uthor":1203,"Ġrele":1204,"Ġbus":1205,"ĠPr":1206,"Ġphot":1207,"ivers":1208,"ages":1209,"ative":1210,"Ġmem":1211,"Ġdr":1212,"Ġmonths":1213,"ĠQ":1214,"Th":1215,"Ġfil":1216,"Ġvis":1217,"Ġaway":1218,"Ġseen":1219,"Ġinj":1220,"Ġbeh":1221,"ments":1222,"Ġadm":1223,"iving":1224,"ĠAt":1225,"ĠMc":1226,"ĠZ":1227,"Ġreport":1228,"ually":1229,"Ġcontin":1230,"Ġcome":1231,"vers":1232,"Ġpost":1233,"Ġfind":1234,"Ġmillion":1235,"omm":1236,"Ġsame":1237,"Ġthese":1238,"ĠDe":1239,"ights":1240,"Ġbre":1241,"pr":1242,"Ġgot":1243,"vice":1244,"Ġmen":1245,"line":1246,"iam":1247,"Ġcase":1248,"Ġexper":1249,"iday":1250,"ices":1251,"Ġyoung":1252,"Ġreported":1253,"Ġbig":1254,"Ġtry":1255,"Ġdoes":1256,"Ġcamp":1257,"ex":1258,"by":1259,"Ġcame":1260,"Ġtaken":1261,"Ġboth":1262,"Ġ8":1263,"Ġwent":1264,"Ġtoday":1265,"osed":1266,"Ġeff":1267,"ient":1268,"ility":1269,"Ġplace":1270,"atur":1271,"ague":1272,"ges":1273,"Ġ2012":1274,"Ġcre":1275,"ired":1276,"Ġpoin":1277,"Ġspe":1278,"alf":1279,"Ġ9":1280,"ĠObama":1281,"Ġstate":1282,"Ġarrest":1283,"ĠJohn":1284,"Ġmiss":1285,"Ġcur":1286,"Ġsix":1287,"Ġsex":1288,"ĠThis":1289,"ĠBar":1290,"Ġann":1291,"ĠCar":1292,"usp":1293,"Ġtop":1294,"irect":1295,"ony":1296,"aj":1297,"Ġprov":1298,"Ġdied":1299,"ik":1300,"ived":1301,"ands":1302,"Ġfoot":1303,"Ġspok":1304,"nes":1305,"'re":1306,"Ġhouse":1307,"ĠDav":1308,"Ġreal":1309,"Ġiss":1310,"ency":1311,"Ġexpl":1312,"Ġwoman":1313,"Ġdep":1314,"Ġlit":1315,"IS":1316,"riv":1317,"duc":1318,"hel":1319,"ĠRep":1320,"Ġcou":1321,"ched":1322,"ĠFor":1323,"Ġuse":1324,"Ġtrans":1325,"Ġspec":1326,"Ġreally":1327,"Ġrest":1328,"ys":1329,"ces":1330,"aughter":1331,"orld":1332,"Ġkilled":1333,"ific":1334,"Ġprev":1335,"Ġsomet":1336,"uct":1337,"Ġfeel":1338,"Ġsk":1339,"Ġ12":1340,"ĠSouth":1341,"Ġtoo":1342,"ried":1343,"ober":1344,"Ġfather":1345,"Ġsusp":1346,"Ġdet":1347,"Ġdidn":1348,"Ġpay":1349,"ele":1350,"Ġhealth":1351,"att":1352,"ĠSy":1353,"Ġfar":1354,"Ġwife":1355,"Ġrece":1356,"Ġremain":1357,"Ġmilit":1358,"Ġnews":1359,"Ġrecent":1360,"ield":1361,"Ġgl":1362,"ĠOn":1363,"earch":1364,"ĠBl":1365,"orts":1366,"ird":1367,"Ġfac":1368,"Ġsub":1369,"ĠYork":1370,"rent":1371,"Ġmanag":1372,"Ġsupport":1373,"Ġgreat":1374,"ĠEur":1375,"urned":1376,"Ġgen":1377,"aff":1378,"til":1379,"Ġsever":1380,"oved":1381,"ball":1382,"ĠPolice":1383,"Ġpresident":1384,"Ġaff":1385,"iness":1386,"ten":1387,"Ġmet":1388,"Ġlar":1389,"Ġnumber":1390,"Ġbest":1391,"Ġallow":1392,"Ġboy":1393,"Ġsw":1394,"ined":1395,"Ġson":1396,"amer":1397,"ĠChrist":1398,"pped":1399,"Ġpar":1400,"rug":1401,"urity":1402,"Ġperf":1403,"Ġ15":1404,"ĠWorld":1405,"Ġinst":1406,"iet":1407,"istr":1408,"Ġstop":1409,"Ġgame":1410,"Ġspokes":1411,"CNN":1412,"ued":1413,"Ġsit":1414,"ering":1415,"ĠAust":1416,"ĠEngland":1417,"view":1418,"Ġmoney":1419,"Ġ18":1420,"Ġface":1421,"iven":1422,"Ġbody":1423,"AT":1424,"ĠBritish":1425,"thing":1426,"Ġhospital":1427,"'.":1428,"ĠMay":1429,"ann":1430,"Ġsim":1431,"Ġmove":1432,"Ġkeep":1433,"Ġdiffer":1434,"Ġpat":1435,"Ġauthor":1436,"uck":1437,"con":1438,"Ġshot":1439,"Ġposs":1440,"ense":1441,"Ġpres":1442,"Ġve":1443,"ane":1444,"com":1445,"Ġreve":1446,"Ġsuff":1447,"Ġdem":1448,"Ġfew":1449,"Ġdirect":1450,"iol":1451,"ism":1452,"ĠSund":1453,"Ġclub":1454,"anted":1455,"Ġlet":1456,"ways":1457,"ided":1458,"itted":1459,"Ġdel":1460,"artment":1461,"inal":1462,"Ġappear":1463,"to":1464,"Ġlot":1465,"Ġseason":1466,"Ġpolit":1467,"Ġside":1468,"Ġopp":1469,"enn":1470,"ional":1471,"Ġhere":1472,"ĠBe":1473,"Ġ11":1474,"ished":1475,"Ġrecord":1476,"Ġparen":1477,"ĠSunday":1478,"Ġvictim":1479,"Ġintern":1480,"Ġpop":1481,"Ġuntil":1482,"ending":1483,"Ġthought":1484,"ately":1485,"Ġcompany":1486,"Ġbuild":1487,"Ġstart":1488,"Ġwithout":1489,"ĠHow":1490,"Ġmur":1491,"Ġhit":1492,"Ġhours":1493,"co":1494,"ats":1495,"Ġwon":1496,"Ġfire":1497,"Ġopen":1498,"Ġago":1499,"ĠUK":1500,"ĠPresident":1501,"Ġdesc":1502,"Ġold":1503,"Ġinvol":1504,"Ġproble":1505,"ĠWest":1506,"Ġsaying":1507,"Ġhaving":1508,"idence":1509,"port":1510,"Ġcommun":1511,"ended":1512,"ĠMonday":1513,"Ġcity":1514,"ones":1515,"ĠMin":1516,"ĠCity":1517,"ror":1518,"ief":1519,"iversity":1520,"atic":1521,"Ġjob":1522,"be":1523,"Ġsoc":1524,"stem":1525,"els":1526,"'m":1527,"Ġpast":1528,"Ġmod":1529,"ĠHar":1530,"roll":1531,"Ġoper":1532,"Ġtimes":1533,"uesday":1534,"ially":1535,"ĠTuesday":1536,"Ġhum":1537,"aign":1538,"Ġdaughter":1539,"Ġeach":1540,"aul":1541,"Ġalleged":1542,"ĠEurope":1543,"Ġcomple":1544,"Ġappe":1545,"cl":1546,"Ġdead":1547,"Ġwater":1548,"Ġasked":1549,"Ġprom":1550,"amed":1551,"Ġacross":1552,"Ġfollowing":1553,"ising":1554,"ogra":1555,"ention":1556,"ĠOne":1557,"ailed":1558,"Ġtrain":1559,"ior":1560,"aid":1561,"Ġquest":1562,"'ve":1563,"Ġcost":1564,"Ġstand":1565,"Ġknown":1566,"Ġlittle":1567,"Ġbro":1568,"ĠFriday":1569,"ĠMiss":1570,"aled":1571,"ready":1572,"ĠInd":1573,"ience":1574,"velop":1575,"Ġsomething":1576,"row":1577,"ĠSe":1578,"Ġofficials":1579,"Ġstatement":1580,"rop":1581,"lier":1582,"utes":1583,"Ġhard":1584,"Ġstri":1585,"gy":1586,"erv":1587,"Ġgiven":1588,"use":1589,"Ġdeal":1590,"ĠAm":1591,"ying":1592,"PD":1593,"ĠWed":1594,"Ġdrug":1595,"Ġclear":1596,"ĠDavid":1597,"oke":1598,"Ġelect":1599,"pite":1600,"Ġmid":1601,"Ġviol":1602,"ĠAustral":1603,"Ġsystem":1604,"Ġable":1605,"ized":1606,"ĠGer":1607,"band":1608,"Ġarea":1609,"ĠRuss":1610,"ĠAmerican":1611,"Ġtravel":1612,"Ġmark":1613,"ĠThere":1614,"aun":1615,"ĠAd":1616,"overed":1617,"Ġalready":1618,"Ġalong":1619,"eks":1620,"Ġav":1621,"ploy":1622,"Ġ0":1623,"Ġcouple":1624,"reen":1625,"une":1626,"Ġpos":1627,"cess":1628,"Ġstru":1629,"ĠJan":1630,"Ġcampaign":1631,"iting":1632,"Ġtest":1633,"Ġ30":1634,"nesday":1635,"Ġcoun":1636,"ects":1637,"Ġmembers":1638,"ĠPh":1639,"ards":1640,"ajor":1641,"ump":1642,"ĠWednesday":1643,"Ġob":1644,"Ġbusiness":1645,"aturday":1646,"reet":1647,"Ġpictured":1648,"Ġsaf":1649,"ection":1650,"Ġtell":1651,"aring":1652,"af":1653,"ĠCup":1654,"Ġfriends":1655,"Ġbelieve":1656,"cent":1657,"Ġworking":1658,"Ġadv":1659,"Ġinform":1660,"Ġhalf":1661,"ries":1662,"ified":1663,"ĠLeague":1664,"Ġparents":1665,"ĠSaturday":1666,"ĠPe":1667,"ĠNorth":1668,"Ġfight":1669,"pe":1670,"Ġoutside":1671,"Ġalways":1672,"ĠCo":1673,"Ġcaus":1674,"Ġ199":1675,"ĠThat":1676,"ĠGe":1677,"Ġmilitary":1678,"Ġmeet":1679,"Ġcurrent":1680,"ĠHer":1681,"Ġjoin":1682,"ĠCol":1683,"Ġclose":1684,"Ġtreat":1685,"oor":1686,"right":1687,"ĠFl":1688,"Ġconcer":1689,"Ġart":1690,"Ġfact":1691,"Ġdescrib":1692,"Ġincident":1693,"Ġest":1694,"the":1695,"Ġweeks":1696,",âĢĻ":1697,"Ġstarted":1698,"Ġmor":1699,"Ġtaking":1700,"ept":1701,"anche":1702,"ĠWill":1703,"Ġincre":1704,"Ġpower":1705,"atter":1706,"ution":1707,"Ġbehind":1708,"ursday":1709,"ians":1710,"Ġevent":1711,"rew":1712,"Ġrequ":1713,"ĠThursday":1714,"Ġless":1715,"usband":1716,"Ġearly":1717,"Ġbecome":1718,"akes":1719,"ATED":1720,"Ġdevelop":1721,"Ġcele":1722,"ĠUPD":1723,"ests":1724,"Ġ16":1725,"ĠUPDATED":1726,"),":1727,"ĠAb":1728,"ming":1729,"head":1730,"Ġprof":1731,"iously":1732,"ĠComm":1733,"Ġsold":1734,"Ġusing":1735,"Ġwhether":1736,"ran":1737,"ccess":1738,"Ġgun":1739,"cept":1740,"Ġwalk":1741,"This":1742,"Ġprison":1743,"Ġlocal":1744,"Ġhold":1745,"Ġfore":1746,"Ġgive":1747,"Ġconv":1748,"Ġheard":1749,"ĠSec":1750,"rain":1751,"BL":1752,"Ġap":1753,"Ġseveral":1754,"ars":1755,"ained":1756,"book":1757,"Ġmom":1758,"oon":1759,"Ġleast":1760,"Ġ|":1761,"ales":1762,"Ġcer":1763,"Ġmaking":1764,"Ġsecurity":1765,"Ġlost":1766,"Ġed":1767,"Ġdifferent":1768,"less":1769,"Ġpress":1770,"Ġhist":1771,"ester":1772,"ISH":1773,"ored":1774,"uary":1775,"Ġthreat":1776,"Ġdesign":1777,"Ġsn":1778,"ĠWhen":1779,"Ġsmall":1780,"Ġreleased":1781,"UBL":1782,"uper":1783,"Ġview":1784,"Ġannoun":1785,"ISHED":1786,"ĠMs":1787,"UBLISHED":1788,"ael":1789,"Ġbook":1790,"Ġwanted":1791,"ĠHis":1792,"Ġes":1793,"Ġcrit":1794,"gram":1795,"eng":1796,"ĠPro":1797,"Ġseem":1798,"Ġmight":1799,"Ġclaims":1800,"ject":1801,"ĠPUBLISHED":1802,"ators":1803,"ases":1804,"Ġhusband":1805,"ĠMich":1806,"Ġlove":1807,"50":1808,"Ġarrested":1809,"ĠAfter":1810,"udge":1811,"BC":1812,"ĠJu":1813,"most":1814,"fic":1815,"Ġcut":1816,"way":1817,"Ġsaw":1818,"Ġmurder":1819,"ush":1820,"Ġris":1821,"Ġspokesman":1822,"secut":1823,"ĠHouse":1824,"Ġ14":1825,"Ġmajor":1826,"Ġthings":1827,"Ġmess":1828,"Ġ13":1829,"Ġever":1830,"eb":1831,"ington":1832,"Ġbetter":1833,"Ġbab":1834,"million":1835,"Ġsum":1836,"Ġtax":1837,"She":1838,"ĠCourt":1839,"Ġshows":1840,"Ġsing":1841,"ev":1842,"Ġfood":1843,"Ġtrying":1844,"my":1845,"Ġtalk":1846,"Ġfront":1847,"Ġplayers":1848,"Ġ17":1849,"ĠAfric":1850,"Ġparty":1851,"Ġmust":1852,"ĠAll":1853,"conom":1854,"ator":1855,"ĠEd":1856,"istan":1857,"Ġel":1858,"ĠMrs":1859,"Ġfull":1860,"of":1861,"Ġroom":1862,"Ġred":1863,"enal":1864,"ĠBritain":1865,"Ġproper":1866,"Ġcust":1867,"ĠTr":1868,"elt":1869,"ĠDr":1870,"Ġmedia":1871,"Ġamong":1872,"ize":1873,"Ġconsid":1874,"here":1875,"ĠDec":1876,"Ġfree":1877,"Ġfinal":1878,"wit":1879,"cher":1880,"Ġshoot":1881,"ĠJanuary":1882,"Ġ2011":1883,"Ġsuccess":1884,"ium":1885,"ĠStates":1886,"Ġofficers":1887,"ĠScroll":1888,"alif":1889,"ĠUniversity":1890,"ically":1891,"They":1892,"Ġmain":1893,"Ġfur":1894,"Ġdra":1895,"let":1896,"go":1897,"ressed":1898,"que":1899,"Ġhot":1900,"Ġemer":1901,"Ġpain":1902,"Ġrul":1903,"anchester":1904,"Ġshort":1905,"Ġheld":1906,"gether":1907,"Ġtogether":1908,"Ġhimself":1909,"ĠSyri":1910,"Ġprogram":1911,"Ġcelebr":1912,"Ġdi":1913,"Ġclaimed":1914,"Ġname":1915,"Ġwatch":1916,"Ġbegan":1917,"Ġlooking":1918,"Ġlive":1919,"ances":1920,"echn":1921,"Ġorgan":1922,"Ġearlier":1923,"gin":1924,"Ġattem":1925,"Ġsugg":1926,"Ġtre":1927,"ĠDep":1928,"ern":1929,"ides":1930,"ĠCr":1931,"Ġstaff":1932,"Ġminutes":1933,"acy":1934,"Ġmorning":1935,"Ġchange":1936,"str":1937,"Ġpartic":1938,"Ġdecision":1939,"urch":1940,"Ġstay":1941,"ĠFace":1942,"Ġimport":1943,"Ġrevealed":1944,"ler":1945,"Ġwrote":1946,"Ġocc":1947,"Ġlaun":1948,"Ġland":1949,"Ġinvestigation":1950,"ĠMail":1951,"ocr":1952,"ĠGr":1953,"gest":1954,"Ġwa":1955,"Ġgrow":1956,"Ġappro":1957,"Ġident":1958,"Ġlevel":1959,"Ġarri":1960,"Ġeconom":1961,"Ġdog":1962,"uge":1963,"Ġinformation":1964,"ille":1965,"Ġpriv":1966,"Ġban":1967,"Ġcor":1968,"Ġbecame":1969,"Ġcompl":1970,"ai":1971,"ech":1972,"Ġhom":1973,"ĠFacebook":1974,"ops":1975,"ĠCent":1976,"Ġauthorities":1977,"Ġheart":1978,"Ġexpected":1979,"Ġonce":1980,"ĠGeor":1981,"ĠSept":1982,"ĠManchester":1983,"room":1984,"allen":1985,"bed":1986,"aced":1987,"Ġvisit":1988,"Ġenough":1989,"Ġthird":1990,"Ġform":1991,"Ġdeb":1992,"esterday":1993,"ford":1994,"ald":1995,"ĠPar":1996,"Ġpoint":1997,"ey":1998,"Ġground":1999,"aily":2000,"Ġkid":2001,"ology":2002,"Ġread":2003,"ature":2004,"Ġdist":2005,"Ġgoal":2006,"mber":2007,"ĠDem":2008,"ĠCon":2009,"Ġothers":2010,"Ġey":2011,"ung":2012,"Ġevidence":2013,"Ġwhy":2014,"lish":2015,"term":2016,"Ġfootball":2017,"Ġdoct":2018,"ĠOff":2019,"ences":2020,"Ġlarge":2021,"reed":2022,"Ġblack":2023,"ole":2024,"Ġwear":2025,"ĠYou":2026,"ĠIf":2027,"Ġreturn":2028,"ĠSeptember":2029,"den":2030,"ÂłÂł":2031,"wards":2032,"cil":2033,"Ġdone":2034,"ovember":2035,"ĠOct":2036,"ĠNational":2037,"aut":2038,"Ġaccused":2039,"ĠRepublic":2040,"left":2041,"ee":2042,"Ġple":2043,"ead":2044,"Ġphone":2045,"Ġcour":2046,"Ġhope":2047,"There":2048,"Ġeng":2049,"Ġseven":2050,"ĠNovember":2051,"Ġgetting":2052,"Ġlikely":2053,"ĠHowever":2054,"aving":2055,"Ġdoing":2056,"ĠGerman":2057,"Ġtar":2058,"Ġbreak":2059,"ĠDecember":2060,"Ġsite":2061,"ĠGu":2062,"Ġrelations":2063,"ĠAug":2064,"Ġdam":2065,"ĠMan":2066,"Ġden":2067,"Ġbar":2068,"Ġservice":2069,"In":2070,"Ġcompet":2071,"aly":2072,"Ġeas":2073,"ably":2074,"âĢĻ.":2075,"Ġinterview":2076,"stand":2077,"sea":2078,"ĠMichael":2079,"Ġclass":2080,"ighb":2081,"Ġsocial":2082,"mp":2083,"ream":2084,"Ġcomes":2085,"Ġwrit":2086,"ĠOctober":2087,"Ġalmost":2088,"Ġeight":2089,"Ġdue":2090,"ĠEl":2091,"ĠMarch":2092,"Ġ25":2093,"Ġfell":2094,"ox":2095,"omb":2096,"Ġcontrol":2097,"ĠWilliam":2098,"idge":2099,"Ġlives":2100,"Ġpolic":2101,"Ġcharges":2102,"ĠAugust":2103,"Ġhappened":2104,"ds":2105,"ission":2106,"ĠJune":2107,"aster":2108,"ef":2109,"urg":2110,"Ġspent":2111,"Ġide":2112,"ĠWar":2113,"Ġmatch":2114,"Ġproduc":2115,"ĠCount":2116,"ĠUS":2117,"Ġfut":2118,"Ġtechn":2119,"ches":2120,"ĠNo":2121,"Ġroad":2122,"Ġlist":2123,"Ġbrother":2124,"Ġage":2125,"Ġtried":2126,"though":2127,"Ġfun":2128,"lam":2129,"Ġpot":2130,"Ġthing":2131,"dle":2132,"Ġhuman":2133,"hern":2134,"But":2135,"Ġinternational":2136,"Ġpolitical":2137,"Ġhop":2138,"sp":2139,"ograph":2140,"stit":2141,"Ġterror":2142,"Ġfans":2143,"Ġhost":2144,"Ġlate":2145,"raz":2146,"sel":2147,"Ġ2010":2148,"ĠPark":2149,"Ġoften":2150,"Ġtrial":2151,"aper":2152,"anger":2153,"Ġinside":2154,"Ġfund":2155,"Ġwind":2156,"ĠSer":2157,"Ġlo":2158,"Ġline":2159,"Ġtown":2160,"Ġoffice":2161,"Ġexecut":2162,"ampions":2163,"ĠPal":2164,"ients":2165,"Ġimportant":2166,"irth":2167,"ails":2168,"Ġanim":2169,"Ġmus":2170,"Ġleave":2171,"Ġinvolved":2172,"itness":2173,"Ġstrong":2174,"ĠChar":2175,"Ġball":2176,"Ġbelieved":2177,"Ġcharged":2178,"Ġconfir":2179,"friend":2180,"ĠJuly":2181,"oci":2182,"ourn":2183,"Ġreceived":2184,"pril":2185,"Ġwebs":2186,"Ġgrand":2187,"Ġbaby":2188,"Ġfilm":2189,"Ġspot":2190,"itions":2191,"Ġspecial":2192,"Ġ24":2193,"ĠChina":2194,"Ġfuture":2195,"ana":2196,"Ġemploy":2197,"ocked":2198,"Ġfig":2199,"ĠHam":2200,"ination":2201,"ped":2202,"Ġquestion":2203,"Ġant":2204,"Ġfurther":2205,"ĠApril":2206,"ĠState":2207,"Ġgave":2208,"Ġdescribed":2209,"igr":2210,"par":2211,"Ġequ":2212,"Ġnational":2213,"Ġonline":2214,"Ġplayed":2215,"ape":2216,"Ġtarget":2217,"Ġyet":2218,"Ġled":2219,"ective":2220,"raq":2221,"ories":2222,"ĠAcc":2223,"Ġmanager":2224,"ĠOr":2225,"Ġ50":2226,"aur":2227,"Ġyesterday":2228,"ĠAng":2229,"ns":2230,"witter":2231,"aps":2232,"work":2233,"uff":2234,"ĠAss":2235,"ought":2236,"pool":2237,"ĠSm":2238,"Ġcolle":2239,"Ġofficer":2240,"Ġprosecut":2241,"for":2242,"Ġ21":2243,"ĠIntern":2244,"orney":2245,"ĠTV":2246,"ocum":2247,"ĠJames":2248,"Ġcommunity":2249,"ĠIraq":2250,"Ġlegal":2251,"Ġtw":2252,"Ġdoesn":2253,"ipp":2254,"Ġliving":2255,"Ġorder":2256,"Ġbring":2257,"Ġprocess":2258,"ĠPaul":2259,"Ġdou":2260,"Ġneighb":2261,"Ġsuggest":2262,"Ġcover":2263,"ĠJack":2264,"ortun":2265,"Ġaction":2266,"Ġwithin":2267,"Ġscene":2268,"Ġdespite":2269,"eal":2270,"Ġcomment":2271,"ivil":2272,"ening":2273,"Ġlear":2274,"Ġbit":2275,"ilar":2276,"ictured":2277,"Ġinterest":2278,"Ġpossible":2279,"lex":2280,"ĠSo":2281,"ficult":2282,"Ġbad":2283,"Ġblood":2284,"inc":2285,"reme":2286,"yle":2287,"not":2288,"uted":2289,"Ġactiv":2290,"Ġleaders":2291,"Ġlight":2292,"ring":2293,"icle":2294,"Ġrisk":2295,"ĠTwitter":2296,"Ġimm":2297,"Ġsomeone":2298,"Ġteen":2299,"off":2300,"vices":2301,"Ġbirth":2302,"ĠJust":2303,"ĠMart":2304,"ĠGl":2305,"ĠAmerica":2306,"Ġturned":2307,"Ġmot":2308,"rench":2309,"ask":2310,"Ġsol":2311,"Ġfamil":2312,"ederal":2313,"arm":2314,"ented":2315,"Ġturn":2316,"Ġhistory":2317,"ruct":2318,"Ġbed":2319,"Ġstory":2320,"ĠDepartment":2321,"Ġfall":2322,"ĠMinister":2323,"Ġord":2324,"ached":2325,"20":2326,"Ġdifficult":2327,"ills":2328,"Ġ2014":2329,"ensive":2330,"ĠRo":2331,"aliforn":2332,"Ġbene":2333,"Ġty":2334,"ĠFeb":2335,"Ġ100":2336,"ety":2337,"iber":2338,"Ġcapt":2339,"Ġforward":2340,"Ġkind":2341,"Ġrepl":2342,"retary":2343,"Ġgra":2344,"Ġpub":2345,"ashington":2346,"ĠEm":2347,"ĠSen":2348,"itive":2349,"erry":2350,"Ġtraining":2351,"Ġsour":2352,"Ġleader":2353,"Ġahead":2354,"eck":2355,"ruary":2356,"ĠCounty":2357,"Ġreports":2358,"ĠWhite":2359,"ĠSte":2360,"Ġadmitted":2361,"attle":2362,"Ġnet":2363,"Ġappeared":2364,"Ġrelationship":2365,"Ġ40":2366,"Ġdirector":2367,"Ġsure":2368,"Ġbuilding":2369,"gency":2370,"ĠCaliforn":2371,"ĠFebruary":2372,"Ġplayer":2373,"Ġsearch":2374,"Ġnation":2375,"ĠNews":2376,"ĠKore":2377,"Ġguil":2378,"duct":2379,"irc":2380,"Ġworked":2381,"int":2382,"Ġstep":2383,"Ġcomplete":2384,"ĠMe":2385,"Ġwasn":2386,"agn":2387,"Ġrespons":2388,"Ġmean":2389,"Ġ198":2390,"icted":2391,"Ġmoment":2392,"lo":2393,"ron":2394,"acher":2395,"Ġvot":2396,"ray":2397,"Ġcarry":2398,"ĠChel":2399,"joy":2400,"Ġanything":2401,"ential":2402,"ĠRoy":2403,"Ġchief":2404,"Ġseries":2405,"rought":2406,"Ġrights":2407,"Ġwebsite":2408,"Ġsummer":2409,"Ġdocum":2410,"Ġquick":2411,"ows":2412,"me":2413,"Ġmass":2414,"iding":2415,"**":2416,"ousands":2417,"If":2418,"ault":2419,"ĠRes":2420,"cted":2421,"ging":2422,"ĠMor":2423,"Ġcoming":2424,"Ġi":2425,"time":2426,"Ġtour":2427,"Ġveh":2428,"Ġrole":2429,"ĠPl":2430,"ĠRom":2431,"iverpool":2432,"uation":2433,"ĠCalifornia":2434,"selves":2435,"isted":2436,"Ġmiles":2437,"Ġsqu":2438,"Ġcontrib":2439,"ĠSam":2440,"ĠEx":2441,"Ġhor":2442,"ĠAir":2443,"Ġhol":2444,"aught":2445,"pted":2446,"Ġstudents":2447,"ĠAustralia":2448,"Ġcamer":2449,"unt":2450,"aded":2451,"por":2452,"Ġ22":2453,"Ġforced":2454,"Ġplaying":2455,"Ġhig":2456,"30":2457,"ounds":2458,"oring":2459,"Ġprop":2460,"Ġcontinue":2461,"Ġannounced":2462,"ots":2463,"Ġwrong":2464,"Ġinsp":2465,"rael":2466,"Ġproblem":2467,"Ġcountries":2468,"ĠEar":2469,"',":2470,"order":2471,"Ġshowed":2472,"Ġtem":2473,"Ġfav":2474,"Ġill":2475,"Ġexc":2476,"Ġvictims":2477,"Ġplans":2478,"Ġarg":2479,"ades":2480,"Ġmedical":2481,"ĠSw":2482,"Ġcourse":2483,"ico":2484,"ĠFrench":2485,"Ġpick":2486,"Ġtreatment":2487,"Ġcancer":2488,"Ġnothing":2489,"Ġcustom":2490,"ession":2491,"ĠGo":2492,"Ġpopular":2493,"ino":2494,"gress":2495,"ata":2496,"ĠMad":2497,"Ġstrik":2498,"Ġlim":2499,"aces":2500,"Ġstudy":2501,"Ġlow":2502,"ĠEuropean":2503,"ĠCan":2504,"Ġissue":2505,"ults":2506,"Ġnearly":2507,"ĠMil":2508,"You":2509,"Ġshop":2510,"Ġcaused":2511,"Ġallegedly":2512,"Ġdefend":2513,"Ġfear":2514,"omp":2515,"ĠMo":2516,"ghan":2517,"Ġenjoy":2518,"ĠApp":2519,"Ġguilty":2520,"Wh":2521,"ona":2522,"Ġsurv":2523,"Ġsoon":2524,"Ġmarket":2525,"read":2526,"iers":2527,"Ġsell":2528,"Ġpersonal":2529,"Ġrecently":2530,"medi":2531,"pictured":2532,"Ġchallen":2533,"min":2534,"Ġ2009":2535,"Ġcondition":2536,"ĠAccording":2537,"weet":2538,"Ġrepres":2539,"Ġhuge":2540,"ery":2541,"ĠDemocr":2542,"Ġstore":2543,"enced":2544,"Ġwhose":2545,"ĠWhile":2546,"Ġsen":2547,"Ġri":2548,"Ġhands":2549,"avy":2550,"osing":2551,"ĠLiverpool":2552,"uel":2553,"oo":2554,"Ġbeat":2555,"Ġmakes":2556,"ĠPrem":2557,"ither":2558,"ĠChelsea":2559,"Ġwhite":2560,"Ġjudge":2561,"ĠDes":2562,"Ġresident":2563,"Ġpair":2564,"mas":2565,"ference":2566,"ĠDaily":2567,"Ġproblems":2568,"Ġfeat":2569,"sy":2570,"ĠRober":2571,"Ġlat":2572,"Ġgener":2573,"Ġcivil":2574,"eth":2575,"lim":2576,"ĠWashington":2577,"Ġknew":2578,"wh":2579,"Ġcertain":2580,"ĠIsrael":2581,"Ġenc":2582,"sc":2583,"Ġtot":2584,"lection":2585,"ĠCamer":2586,"rove":2587,"Ġlooked":2588,"field":2589,"Ġstrugg":2590,"Ġforces":2591,"iec":2592,"lin":2593,"Ġdest":2594,"ournal":2595,"uries":2596,"Ġsimilar":2597,"Ġval":2598,"Ġdecided":2599,"Ġfelt":2600,"Ġsuffered":2601,"Ġ23":2602,"Ġlif":2603,"ding":2604,"ulation":2605,"Ġorig":2606,"ĠLab":2607,"Ġpicture":2608,"ĠWith":2609,"Ġcoll":2610,"Ġgames":2611,"Ġbrought":2612,"ĠAfghan":2613,"Ġpaid":2614,"Ġmeans":2615,"ips":2616,"Ġdisapp":2617,"ida":2618,"Ġtro":2619,"Ġsuper":2620,"yn":2621,"Ġinclude":2622,"Ġresult":2623,"Ġtit":2624,"'d":2625,"ett":2626,"Ġcho":2627,"Ġtrad":2628,"iety":2629,"Ġcareer":2630,"'ll":2631,"Ġpark":2632,"Ġer":2633,"Ġcurrently":2634,"sw":2635,"Ġposted":2636,"ĠEast":2637,"lear":2638,"Ġsexual":2639,"Ġbur":2640,"Ġrad":2641,"Ġlatest":2642,"ĠNe":2643,"Ġmoved":2644,"Ġesc":2645,"ĠIslam":2646,"Ġserious":2647,"Ġimmedi":2648,"Ġprivate":2649,"ĠRich":2650,"ains":2651,"ĠKing":2652,"Ġchance":2653,"ĠMark":2654,"Ġfamilies":2655,"cel":2656,"ĠAngel":2657,"Ġweekend":2658,"Ġviolence":2659,"Ġmov":2660,"Ġgirls":2661,"Ġfailed":2662,"Ġnamed":2663,"Ġlawy":2664,"Ġaccident":2665,"ky":2666,"wood":2667,"ĠAlex":2668,"kn":2669,"Ġmember":2670,"ĠPhil":2671,"ĠHol":2672,"ĠâĢĶ":2673,"ĠMid":2674,"Ġremains":2675,"ĠLast":2676,"Ġaccess":2677,"ara":2678,"ĠIran":2679,"Ġcrim":2680,").":2681,"ĠPremier":2682,"Ġinit":2683,"undred":2684,"ĠDan":2685,"ĠFrance":2686,"ĠSome":2687,"Ġtrack":2688,"umb":2689,"ĠGeorge":2690,"ĠQue":2691,"Ġcases":2692,"lev":2693,"na":2694,"ĠMed":2695,"Ġboard":2696,"Ġweap":2697,"ĠRob":2698,"Ġparticular":2699,"Ġthousands":2700,"ilt":2701,"cast":2702,"Ġfoc":2703,"Ġattacks":2704,"ĠWhat":2705,"Ġforce":2706,"Ġmissing":2707,"Ġsle":2708,"Ġtrip":2709,"ĠChristmas":2710,"ental":2711,"aged":2712,"ĠSyria":2713,"Ġproperty":2714,"Ġrunning":2715,"itch":2716,"ij":2717,"reg":2718,"ĠMus":2719,"Ġcause":2720,"Ġaccount":2721,"Ġrace":2722,"lished":2723,"Ġaut":2724,"Ġbenef":2725,"Ġprep":2726,"Ġdecl":2727,"Ġprob":2728,"Ġdiscovered":2729,"asing":2730,"Ġ2008":2731,"Ġnine":2732,"Ġcommit":2733,"Ġexperience":2734,"ĠMcC":2735,"orman":2736,"lying":2737,"10":2738,"Ġthemselves":2739,"Ġhearing":2740,"Ġ...":2741,"Ġflight":2742,"Ġeverything":2743,"Ġmeas":2744,"ibility":2745,"Ġ26":2746,"ĠPat":2747,"fully":2748,"Ġanyone":2749,"ption":2750,"Ġdanger":2751,"Ġfederal":2752,"raft":2753,"Ġneeded":2754,"Ġplane":2755,"Ġcritic":2756,"ĠSch":2757,"ners":2758,"Ġdrink":2759,"Ġsafety":2760,"isc":2761,"Ġunderstand":2762,"Ġallowed":2763,"oid":2764,"ises":2765,"aker":2766,"Ġwants":2767,"ĠCameron":2768,"back":2769,"atives":2770,"Ġtal":2771,"ston":2772,"Ġhappy":2773,"ping":2774,"irt":2775,"Ġkilling":2776,"Ġshooting":2777,"rid":2778,"ĠBrown":2779,"Ġleaving":2780,"ĠCor":2781,"ese":2782,"Ġhelped":2783,"Ġmarried":2784,"Ġarrived":2785,"Ġcharge":2786,"Ġrespond":2787,"Ġdiv":2788,"Ġavail":2789,"Ġfail":2790,"Ġbased":2791,"Ġneg":2792,"uty":2793,"ĠBer":2794,"ease":2795,"Ġmeeting":2796,"Ġexpect":2797,"Ġself":2798,"Ġsuppor":2799,"ĠAfrica":2800,"Ġcomments":2801,"Ġpri":2802,"ashed":2803,"Ġpercent":2804,"Ġbank":2805,"Ġ27":2806,"Ġcreat":2807,"Ġresearch":2808,"Ġround":2809,"...":2810,"ĠFlor":2811,"ĠSu":2812,"On":2813,"ĠMal":2814,"Ġworkers":2815,"ĠX":2816,"Ġpatients":2817,"Ġcirc":2818,"ĠTra":2819,"Ġrather":2820,"Ġidea":2821,"ĠMex":2822,"Ġhon":2823,"Ġmessage":2824,"Ġ[":2825,"Ġchang":2826,"Ġcrime":2827,"Ġsafe":2828,"iron":2829,"Ġlaws":2830,"ze":2831,"Ġindust":2832,"yan":2833,"ĠMur":2834,"like":2835,"hood":2836,"imate":2837,"uce":2838,"Ġactually":2839,"Ġstudent":2840,"ently":2841,"Ġcrash":2842,"Ġcross":2843,"Ġspace":2844,"ĠBen":2845,"ĠBBC":2846,"Ġmusic":2847,"Ġfem":2848,"EO":2849,"riage":2850,"Ġvol":2851,"Ġste":2852,"Ġ28":2853,"ivid":2854,"lymp":2855,"Ġgone":2856,"Ġdriver":2857,"Ġabuse":2858,"ĠWil":2859,"Ġattorney":2860,"itional":2861,"ĠArs":2862,"Ġinjuries":2863,"mon":2864,"Ġadmin":2865,"Ġrelease":2866,"rup":2867,"acted":2868,"form":2869,"Ġpoints":2870,"Ġpun":2871,"Ġ197":2872,"anged":2873,"hire":2874,"Ġstation":2875,"apan":2876,"overnment":2877,"ĠRussia":2878,"Ġsituation":2879,"Ġconn":2880,"iff":2881,"Ġgroups":2882,"iant":2883,"razil":2884,"Ġimages":2885,"Ġdiscuss":2886,"ĠOlymp":2887,"Ġcouldn":2888,"Ġlooks":2889,"Ġconfirmed":2890,"Ġbill":2891,"Ġworth":2892,"iod":2893,"Ġdeep":2894,"Ġpract":2895,"ĠChampions":2896,"ĠSmith":2897,"ĠBro":2898,"oard":2899,"Ġareas":2900,"Ġunc":2901,"ĠLu":2902,"ergy":2903,"Ġcand":2904,"ality":2905,"Ġbillion":2906,"Ġpolicy":2907,"Ġavailable":2908,"Ġeveryone":2909,"Ġreturned":2910,"Ġdriving":2911,"verage":2912,"Ġdress":2913,"Ġneeds":2914,"ma":2915,"ĠSan":2916,"Ġreason":2917,"ĠRoyal":2918,"ĠFlorida":2919,"ny":2920,"Ġissues":2921,"Ġrac":2922,"Ġservices":2923,"Ġcapital":2924,"Ġbuy":2925,"ĠRed":2926,"Ġhotel":2927,"ĠLou":2928,"han":2929,"ken":2930,"Ġpresent":2931,"Ġsat":2932,"Ġreach":2933,"Ġmag":2934,"Ġemb":2935,"Ġcal":2936,"Ġwitness":2937,"Ġperform":2938,"key":2939,"onald":2940,"Ġsister":2941,"Ġcheck":2942,"Ġbegin":2943,"ĠMP":2944,"Ġphoto":2945,"Ġlab":2946,"ĠInternational":2947,"ĠPrime":2948,"che":2949,"Ġten":2950,"Ġdeterm":2951,"When":2952,"Ġlonger":2953,"Ġwhole":2954,"ĠUk":2955,"Ġinjured":2956,"ogn":2957,"Ġkey":2958,"Ġimage":2959,"Ġabs":2960,"Ġamb":2961,"Ġwat":2962,"ĠBrazil":2963,"Ġsingle":2964,"ager":2965,"amb":2966,"ĠJapan":2967,"Ġposition":2968,"Ġloss":2969,"de":2970,"Ġborn":2971,"oe":2972,"ĠHospital":2973,"ĠDay":2974,"Ġcannot":2975,"ĠNow":2976,"ert":2977,"ival":2978,"Ġdev":2979,"Ġdrugs":2980,"Ġmatter":2981,"Ġsurpr":2982,"Ġz":2983,"tee":2984,"Ġbox":2985,"Ġcalls":2986,"Ġprotect":2987,"epend":2988,"uit":2989,"ĠEnglish":2990,"gn":2991,"Ġens":2992,"Ġkept":2993,"ĠSchool":2994,"undreds":2995,"Ġanti":2996,"Ġattempt":2997,"Ġsenior":2998,"Ġsurger":2999,"urb":3000,"Ġbeaut":3001,"ris":3002,"ĠCong":3003,"alled":3004,"Ġphys":3005,"pro":3006,"istration":3007,"Ġconst":3008,"Ġleading":3009,"arent":3010,"Ġprovide":3011,"Ġboss":3012,"oura":3013,"ĠNot":3014,"ĠMartin":3015,"ĠHigh":3016,"rey":3017,"Ġpressure":3018,"11":3019,"Ġperiod":3020,"Ġhair":3021,"Ġcaught":3022,"Ġspeak":3023,"Ġfirm":3024,"icated":3025,"Ġwearing":3026,"ĠSim":3027,"Ġstreet":3028,"ola":3029,"Ġopportun":3030,"omin":3031,"Ġstra":3032,"Ġdoor":3033,"Ġcrow":3034,"Ġpictures":3035,"acter":3036,"Ġtakes":3037,"hol":3038,"body":3039,"Ġbas":3040,"Ġbomb":3041,"ĠFer":3042,"Ġdoctors":3043,"itor":3044,"Ġprofess":3045,"Ġcreated":3046,"oming":3047,"ĠLabour":3048,"ushed":3049,"Ġcoach":3050,"Ġinjury":3051,"Ġsepar":3052,"Ġalleg":3053,"Ġran":3054,"akistan":3055,"ĠSecretary":3056,"Ġextra":3057,"Ġindivid":3058,"Ġeduc":3059,"Ġproduct":3060,"ĠStreet":3061,"Ġinfl":3062,"Ġnorm":3063,"Ġfat":3064,"Ġvictory":3065,"Ġcell":3066,"Ġcomplain":3067,"Ġpack":3068,"ĠTwo":3069,"Ġfinanc":3070,"ĠScot":3071,"Ġcentre":3072,"Ġcompan":3073,"Ġrock":3074,"istrict":3075,"ift":3076,"oint":3077,"Ġdraw":3078,"chers":3079,"mar":3080,"ĠAmericans":3081,"Ġmat":3082,"Ġcarried":3083,"Ġreb":3084,"Ġcomb":3085,"Ġteacher":3086,"Ġvote":3087,"Ġseek":3088,"ĠRussian":3089,"urt":3090,"Ġhowever":3091,"action":3092,"Ġincluded":3093,"play":3094,"oph":3095,"Ġregion":3096,"Ġbehav":3097,"Ġquite":3098,"iled":3099,"Ġwarned":3100,"inese":3101,"ĠIS":3102,"Ġstorm":3103,"ĠCoun":3104,"Ġglob":3105,"engers":3106,"Ġjail":3107,"ĠTex":3108,"ĠKen":3109,"ĠScott":3110,"Ġwed":3111,"Ġresc":3112,"Ġfeet":3113,"Ġ29":3114,"Ġletter":3115,"Ġele":3116,"roy":3117,"Ġpred":3118,"Ġdemand":3119,"Ġforeign":3120,"Ġmodel":3121,"Ġweight":3122,"Ġdata":3123,"Ġrefer":3124,"ĠPakistan":3125,"Ġphotograph":3126,"onse":3127,"rovers":3128,"oving":3129,"Ġhomes":3130,"Ġabove":3131,"ude":3132,"Ġvar":3133,"Ġlaunched":3134,"Ġsun":3135,"Ġnorth":3136,"Ġpage":3137,"Ġbiggest":3138,"Ġoffer":3139,"Ġpiec":3140,"Ġcontinued":3141,"Ġassist":3142,"Ġhear":3143,"ĠMy":3144,"cement":3145,"ashion":3146,"ify":3147,"ica":3148,"Ġsurve":3149,"ĠTe":3150,"Ġcriminal":3151,"Ġdisease":3152,"Ġmob":3153,"Ġaverage":3154,"Ġrob":3155,"Ġsal":3156,"Ġchair":3157,"Ġimmigr":3158,"Ġelection":3159,"Ġagency":3160,"Ġgoals":3161,"Ġstage":3162,"Ġansw":3163,"Ġsouth":3164,"Ġperforman":3165,"ĠGen":3166,"Ġstates":3167,"ĠMore":3168,"Ġsentence":3169,"ificant":3170,"oul":3171,"Ġren":3172,"Ġassault":3173,"ĠGermany":3174,"Ġtru":3175,"ander":3176,"lands":3177,"Ġlink":3178,"Ġdisp":3179,"Ġsurgery":3180,"Ġtotal":3181,"ĠVict":3182,"Ġquickly":3183,"erc":3184,"urning":3185,"Ġfield":3186,"Ġworks":3187,"ada":3188,"Ġjournal":3189,"Ġprevious":3190,"Ġphotos":3191,"irst":3192,"Ġaccept":3193,"Ġbattle":3194,"Ġcamera":3195,"Ġnon":3196,"ĠSir":3197,"ĠArsenal":3198,"night":3199,"Ġport":3200,"Ġmult":3201,"berg":3202,"ĠTo":3203,"ugh":3204,"Ġ60":3205,"Ġbrain":3206,"oper":3207,"ĠBlack":3208,"Ġmind":3209,"aves":3210,"Ġinstead":3211,"ĠPrince":3212,"Ġvill":3213,"ĠAustralian":3214,"ĠTexas":3215,"Ġmarriage":3216,"ization":3217,"Ġpreviously":3218,"ply":3219,"Ġvan":3220,"ique":3221,"Ġowner":3222,"Ġalthough":3223,"pm":3224,"Ġbelieves":3225,"Ġminister":3226,"Ġcult":3227,"Ġfighting":3228,"Ġentire":3229,"Ġ196":3230,"orter":3231,"Ġusers":3232,"Ġ2007":3233,"Ġprice":3234,"oes":3235,"ĠClin":3236,"ĠChinese":3237,"shire":3238,"Ġsource":3239,"ees":3240,"Ġpotential":3241,"icide":3242,"ĠÂł":3243,"yl":3244,"Ġfamous":3245,"ps":3246,"emy":3247,"Ġeye":3248,"Ġshare":3249,"500":3250,"Ġbag":3251,"ĠAssoci":3252,"Ġcred":3253,"Ġrefused":3254,"Ġcrew":3255,"Ġpoll":3256,"estern":3257,"inks":3258,"Ġkids":3259,"Ġexecutive":3260,"Ġresponse":3261,"vert":3262,"Ġgiving":3263,"uk":3264,"inary":3265,"Ġcontributed":3266,"Ġscient":3267,"Ġpregn":3268,"Ġsil":3269,"ĠRichard":3270,"ider":3271,"eat":3272,"ogle":3273,"Ġfemale":3274,"Ġpenal":3275,"Ġexam":3276,"ode":3277,"Ġimmediately":3278,"ya":3279,"ĠApple":3280,"Ġhour":3281,"inger":3282,"Ġvehicle":3283,"Ġjoined":3284,"ĠChris":3285,"Ġdoub":3286,"Ġbuilt":3287,"Ġregular":3288,"ĠAfghanistan":3289,"Ġrepresent":3290,"rab":3291,"ability":3292,"Ġoppos":3293,"Ġattention":3294,"Ġconvicted":3295,"hest":3296,"Ġdro":3297,"gal":3298,"ĠTur":3299,"Ġgeneral":3300,"Ġdenied":3301,"ograp":3302,"Ġsleep":3303,"ĠiP":3304,"ĠBel":3305,"illed":3306,"ĠOp":3307,"oman":3308,"ĠVal":3309,"ĠMuslim":3310,"ĠPart":3311,"Ġraised":3312,"Ġtrou":3313,"Ġtable":3314,"ĠGovernment":3315,"olf":3316,"Ġtechnology":3317,"Ġreview":3318,"ule":3319,"Ġdamage":3320,"onstr":3321,"Ġresidents":3322,"Ġcommon":3323,"down":3324,"Ġcomput":3325,"Ġholiday":3326,"Ġspoke":3327,"orthern":3328,"Ġisn":3329,"Ġhous":3330,"Ġcontact":3331,"Ġclot":3332,"ĠWilliams":3333,"Ġdetails":3334,"Ġlived":3335,"viron":3336,"ĠPer":3337,"Ġcreate":3338,"Ġesp":3339,"Ġspeed":3340,"Ġconditions":3341,"Ġcompanies":3342,"Ġcit":3343,"Ġcandid":3344,"ID":3345,"oms":3346,"ĠLib":3347,"Ġthr":3348,"bor":3349,"Ġhar":3350,"Ġcard":3351,"Ġextreme":3352,"Ġproject":3353,"Ġscored":3354,"Ġtitle":3355,"Ġfollowed":3356,"Ġaddress":3357,"ĠCongress":3358,"Ġrecogn":3359,"Ġquar":3360,"Ġtelev":3361,"Ġevents":3362,"ample":3363,"My":3364,"Ġspend":3365,"Ġbroad":3366,"ĠHealth":3367,"ecially":3368,"ĠScotland":3369,"TV":3370,"Ġherself":3371,"ĠRepublican":3372,"ĠCouncil":3373,"Ġoperation":3374,"Ġcontract":3375,"imb":3376,"Ġcontrovers":3377,"Ġconference":3378,"ĠAfrican":3379,"Ġgold":3380,"Ġrange":3381,"Ġcat":3382,"Ġterm":3383,"Ġquestions":3384,"ĠPort":3385,"ĠJe":3386,"Ġrestaur":3387,"ires":3388,"ecess":3389,"ca":3390,"Ġstre":3391,"Ġwords":3392,"Ġmis":3393,"Ġpret":3394,"Ġinqu":3395,"ĠEv":3396,"ĠAct":3397,"Ġcru":3398,"Ġpil":3399,"Ġtowards":3400,"Ġpassed":3401,"Ġtroops":3402,"Ġpeace":3403,"Ġbid":3404,"Ġur":3405,"based":3406,"Ġsignificant":3407,"ural":3408,"Ġmist":3409,"gu":3410,"Ġoffered":3411,"Ġnewsp":3412,"ĠFranc":3413,"astic":3414,"het":3415,"yc":3416,"Ġeither":3417,"Ġpassengers":3418,"Ġimpact":3419,"ĠQueen":3420,"Ġcars":3421,"iction":3422,"eated":3423,"Ġgoes":3424,"sex":3425,"ĠPeter":3426,"come":3427,"ĠBy":3428,"orks":3429,"Ġtrib":3430,"Ġindustry":3431,"Ġended":3432,"Ġprobably":3433,"Ġresults":3434,"ĠKorea":3435,"Ġvers":3436,"Ġaud":3437,"Ġcustomers":3438,"ĠOffice":3439,"Ġshown":3440,"Ġhappen":3441,"Ġattr":3442,"ancy":3443,"Ġpublished":3444,"Ġallegations":3445,"Ġrout":3446,"Ġwinning":3447,"ĠGoogle":3448,"Ġrare":3449,"ellig":3450,"Ġfinally":3451,"omas":3452,"Ġille":3453,"ĠRod":3454,"Ġrev":3455,"Ġdeliver":3456,"ĠJackson":3457,"Ġcris":3458,"Ġfinancial":3459,"Ġapparent":3460,"Ġpoor":3461,"Ġfocus":3462,"Ġjump":3463,"Ġwide":3464,"ground":3465,"Ġoil":3466,"Ġseems":3467,"Ġelse":3468,"ĠJohnson":3469,"Ġincrease":3470,"ender":3471,"fort":3472,"Ġtweet":3473,"Ġlaunch":3474,"Ġoccur":3475,"Ġremember":3476,"Ġeconomic":3477,"Ġhundreds":3478,"Ġweather":3479,"Ġpul":3480,"Ġspending":3481,"vironment":3482,"Ġpartner":3483,"ĠBay":3484,"aud":3485,"pton":3486,"Ġemergency":3487,"ĠSpe":3488,"Ġstopped":3489,"mark":3490,"Ġgrowing":3491,"arr":3492,"Ġprevent":3493,"Ġclean":3494,"HS":3495,"Ġalone":3496,"ceed":3497,"Ġchanged":3498,"Ġespecially":3499,"iger":3500,"asons":3501,"ĠMatt":3502,"unk":3503,"raw":3504,"Ġfloor":3505,"earchers":3506,"ĠDespite":3507,"ĠMadrid":3508,"ĠClinton":3509,"Ġmill":3510,"Ġpet":3511,"chie":3512,"Ġsnow":3513,"ĠCam":3514,"ament":3515,"Ġconsum":3516,"ĠAnother":3517,"ĠMic":3518,"Ġappears":3519,"otten":3520,"elling":3521,"Ġsigned":3522,"Ġbul":3523,"aed":3524,"Ġdemonstr":3525,"Ġpan":3526,"Ġopening":3527,"Ġweapons":3528,"ĠCarol":3529,"Ġparts":3530,"enger":3531,"Ġtraff":3532,"ĠKe":3533,"Ġopened":3534,"Ġfaces":3535,"Ġenter":3536,"Ġfigures":3537,"olution":3538,"Ġlack":3539,"riff":3540,"Ġagreed":3541,"Ġborder":3542,"ado":3543,"ibly":3544,"airs":3545,"Ġgas":3546,"Ġsimply":3547,"Ġencoura":3548,"Ġenergy":3549,"SA":3550,"alls":3551,"while":3552,"overy":3553,"Ġcosts":3554,"Ġestim":3555,"St":3556,"ĠIndia":3557,"rupt":3558,"Ġclos":3559,"Ġspeech":3560,"Ġtreated":3561,"set":3562,"Ġobs":3563,"Ġlawyer":3564,"Ġconsider":3565,"ĠLos":3566,"Ġsurround":3567,"Ġjud":3568,"Ġbroke":3569,"ĠOffic":3570,"ishing":3571,"ension":3572,"Ġ31":3573,"ĠDef":3574,"ĠCenter":3575,"Ġmater":3576,"Ġreportedly":3577,"orry":3578,"Ġattend":3579,"ini":3580,"Ġshock":3581,"ĠAngeles":3582,"Ġbrand":3583,"Ġfra":3584,"Ġaged":3585,"oud":3586,"ĠCap":3587,"ux":3588,"Ġcouncil":3589,"Ġbod":3590,"As":3591,"Ġsoldiers":3592,"Ġbase":3593,"Ġnetwork":3594,"Ġwedding":3595,"ĠChe":3596,"ĠKim":3597,"Ġappeal":3598,"Ġaim":3599,"Ġaftern":3600,"Ġindepend":3601,"men":3602,"Ġconsidered":3603,"Ġdangerous":3604,"uing":3605,"Ġsize":3606,"Ġshowing":3607,"ho":3608,"rol":3609,"Ġchallenge":3610,"Ġskin":3611,"Ġeconomy":3612,"Ġbought":3613,"Ġamount":3614,"cohol":3615,"nder":3616,"Ġsens":3617,"gypt":3618,"Ġdrive":3619,"Ġsurf":3620,"iation":3621,"oz":3622,"ĠReal":3623,"Ġship":3624,"Ġeyes":3625,"ĠJones":3626,"Ġafternoon":3627,"Ġstriker":3628,"Ġcash":3629,"Ġ&":3630,"Ġunf":3631,"Ġdoctor":3632,"ares":3633,"craft":3634,"Ġnearby":3635,"Ġordered":3636,"Ġcitiz":3637,"ĠFore":3638,"Ġtrust":3639,"Ġengine":3640,"atory":3641,"aked":3642,"ĠWales":3643,"Ġeffort":3644,"Ġjury":3645,"rief":3646,"bre":3647,"ĠSal":3648,"Ġcrowd":3649,"ĠQu":3650,"Ġver":3651,"Ġexperts":3652,"ĠMexico":3653,"Ġready":3654,"Ġtouch":3655,"ĠHill":3656,"Ġwarning":3657,"Ġemot":3658,"Ġnatur":3659,"Ġdin":3660,"Ġevening":3661,"Ġang":3662,"Ġbott":3663,"Ġvo":3664,"Ġkick":3665,"Ġefforts":3666,"Ġperformance":3667,"ication":3668,"Ġschools":3669,"ĠSand":3670,"ĠTom":3671,"adium":3672,"Ġtelevision":3673,"ils":3674,"anda":3675,"hold":3676,"Ġcaptain":3677,"Ġcalling":3678,"Ġchanges":3679,"Ġsuspect":3680,"Ġemerged":3681,"ĠLouis":3682,"ĠSpain":3683,"Ġscore":3684,"Ġintro":3685,"ĠCle":3686,"Ġcoast":3687,"Ġsecret":3688,"40":3689,"Ġidentified":3690,"illa":3691,"ams":3692,"Ġperfect":3693,"That":3694,"Ġfast":3695,"rian":3696,"Ġconcerns":3697,"Ġissued":3698,"duced":3699,"Ġspread":3700,"Ġsquad":3701,"mit":3702,"ĠEgypt":3703,"Ġanimals":3704,"Ġadding":3705,"Ġavoid":3706,"ĠInst":3707,"gent":3708,"rif":3709,"Ġdiagn":3710,"ih":3711,"Ġdesigned":3712,"Ġunable":3713,"ipped":3714,"rel":3715,"add":3716,"Ġfle":3717,"ĠÂłĠÂł":3718,"icket":3719,"ari":3720,"ĠGreen":3721,"Ġchamp":3722,"liam":3723,"ĠRobert":3724,"Ġcharity":3725,"ials":3726,"15":3727,"Ġsym":3728,"ÂłÂłÂłÂł":3729,"ites":3730,"Ġcrisis":3731,"Ġmiddle":3732,"Ġtwice":3733,"ĠTod":3734,"ĠStep":3735,"Ġwouldn":3736,"aches":3737,"iles":3738,"Ġrules":3739,"gic":3740,"ples":3741,"ĠDon":3742,"Ġsend":3743,"Ġlargest":3744,"ĠMary":3745,"Ġep":3746,"Ġfit":3747,"ading":3748,"Ġtemper":3749,"liament":3750,"uclear":3751,"Ġboys":3752,"Ġmoving":3753,"Ġeventually":3754,"Ġfashion":3755,"ĠLaw":3756,"Ġglobal":3757,"Ġopportunity":3758,"Ġsport":3759,"ĠMel":3760,"Ġwild":3761,"ears":3762,"iling":3763,"Ġairport":3764,"Ġachie":3765,"ĠWood":3766,"iful":3767,"Ġlik":3768,"Ġsave":3769,"Ġconc":3770,"ĠSpan":3771,"Ġaward":3772,"Ġcharacter":3773,"lor":3774,"Ġdisplay":3775,"Ġsuffering":3776,"Ġ2006":3777,"light":3778,"Ġexample":3779,"Ġarm":3780,"Ġhigher":3781,"Ġserved":3782,"well":3783,"Ġadministration":3784,"ĠVictor":3785,"owers":3786,"Ġterms":3787,"And":3788,"ĠAndrew":3789,"Ġwond":3790,"isters":3791,"Ġrequest":3792,"vest":3793,"roud":3794,"ki":3795,"ounts":3796,"ighters":3797,"Ġjailed":3798,"Ġflood":3799,"outhern":3800,"anta":3801,"Ġfellow":3802,"25":3803,"Ġanimal":3804,"Ġopt":3805,"Ġonto":3806,"Ġsense":3807,"ĠISIS":3808,"icks":3809,"Ġmovie":3810,"akers":3811,"Ġmeant":3812,"Ġvir":3813,"Ġparticularly":3814,"istry":3815,"ĠTimes":3816,"Ġloved":3817,"iny":3818,"Ġgirlfriend":3819,"ĠOther":3820,"Ġscreen":3821,"Ġmanaged":3822,"Ġchem":3823,"Ġimprove":3824,"ĠJos":3825,"ĠNor":3826,"ĠThomas":3827,"ties":3828,"elled":3829,"inson":3830,"ĠVan":3831,"Ġrate":3832,"ĠItaly":3833,"ĠBill":3834,"ilities":3835,"olute":3836,"Ġnewspaper":3837,"Ġexperi":3838,"Ġremoved":3839,"ounded":3840,"ĠParis":3841,"Ġprotest":3842,"Ġsentenced":3843,"Ġalcohol":3844,"Ġtelling":3845,"ĠFar":3846,"Ġrise":3847,"Ġdism":3848,"Ġrelig":3849,"Ġjobs":3850,"Ġchurch":3851,"Ġstreets":3852,"ĠNHS":3853,"Ġattacked":3854,"elligence":3855,"Ġdate":3856,"sych":3857,"Ġpur":3858,"rival":3859,"igg":3860,"Ġtalking":3861,"Ġpers":3862,"Ġincreasing":3863,"azine":3864,"Ġexact":3865,"ĠLee":3866,"Ġpenalty":3867,"ersey":3868,"ĠLord":3869,"Ġeffect":3870,"Ġitem":3871,"Ġaircraft":3872,"Ġpo":3873,"ago":3874,"Ġfair":3875,"Ġpulled":3876,"Ġful":3877,"oned":3878,"ĠDaniel":3879,"Ġbra":3880,"Ġseeing":3881,"ĠArmy":3882,"ĠCharl":3883,"Ġfigure":3884,"ĠSenate":3885,"Ġlevels":3886,"Ġfootage":3887,"ĠMill":3888,"Ġexplos":3889,"Ġice":3890,"Ġtrue":3891,"Ġsuit":3892,"Ġwritten":3893,"ĠBal":3894,"ĠIndian":3895,"gen":3896,"isl":3897,"ĠDuring":3898,"Ġcentral":3899,"Ch":3900,"Ġfine":3901,"Ġdeaths":3902,"ĠRos":3903,"Ġhopes":3904,"erve":3905,"Ġsched":3906,"ĠArab":3907,"ube":3908,"Ġgets":3909,"Ġresponsible":3910,"ruction":3911,"Ġensure":3912,"ez":3913,"Ġheavy":3914,"Ġlose":3915,"Ġincludes":3916,"ĠGar":3917,"Ġfourth":3918,"Ġcarrying":3919,"Ġhero":3920,"Ġstraight":3921,"Ġphotograp":3922,"Ġraise":3923,"ĠReporter":3924,"ucky":3925,"arden":3926,"Ġeat":3927,"Ġthroughout":3928,"ram":3929,"ĠVir":3930,"Ġcompletely":3931,"nor":3932,"ĠAsh":3933,"Ġfavour":3934,"cial":3935,"ĠAuthor":3936,"ĠSur":3937,"Ġmission":3938,"iate":3939,"Ġnuclear":3940,"woman":3941,"acked":3942,"Ġmobile":3943,"Ġwait":3944,"asts":3945,"Ġ35":3946,"ression":3947,"istic":3948,"Ġsupporters":3949,"ĠIslamic":3950,"Ġminute":3951,"ĠMany":3952,"Ġnumbers":3953,"ĠSar":3954,"ĠJustice":3955,"ĠCrown":3956,"Ġasking":3957,"Ġtyp":3958,"jected":3959,"Ġhy":3960,"eed":3961,"ĠHall":3962,"Ġreached":3963,"BI":3964,"vent":3965,"Ġcenter":3966,"Ġfre":3967,"Ġstruck":3968,"Ġfan":3969,"For":3970,"Ġitself":3971,"itt":3972,"Ġclosed":3973,"Ġassoci":3974,"udget":3975,"Ġdoz":3976,"Ġwaiting":3977,"Ġsevere":3978,"Ġholding":3979,"ĠSyrian":3980,"rick":3981,"ropri":3982,"Ġeducation":3983,"Ġdocuments":3984,"Ġfired":3985,"omen":3986,"ĠCamp":3987,"ĠTal":3988,"Ġrepeated":3989,"Ġapolog":3990,"Ġtransfer":3991,"ĠDo":3992,"Ġdropped":3993,"Ġcompetition":3994,"12":3995,"ĠCons":3996,"Ġestab":3997,"Ġmillions":3998,"Ġbodies":3999,"ĠOf":4000,"ction":4001,"Ġaid":4002,"rap":4003,"clus":4004,"Ġgang":4005,"Ġreporters":4006,"Ġ90":4007,"Ġmotor":4008,"asc":4009,"Ġincred":4010,"bl":4011,"aging":4012,"Ġmessages":4013,"ĠItal":4014,"ĠAtl":4015,"esters":4016,"dney":4017,"Ġvac":4018,"ĠHarry":4019,"Ġrain":4020,"Ġinn":4021,"Ġstab":4022,"Ġpaper":4023,"za":4024,"ĠAtt":4025,"Ġpopulation":4026,"Ġdecades":4027,"ĠUnion":4028,"ĠFA":4029,"Ġsea":4030,"Ġactions":4031,"Ġreform":4032,"raine":4033,"Ġconcerned":4034,"celona":4035,"Ġsale":4036,"Ġwalking":4037,"What":4038,"Ġhistor":4039,"ustr":4040,"Ġproducts":4041,"Ġowners":4042,"azing":4043,"Ġslow":4044,"Ġdream":4045,"Ġsuggested":4046,"Ġfeeling":4047,"going":4048,"hib":4049,"Ġagre":4050,"ĠFormer":4051,"âĢĿ":4052,"Ġroll":4053,"Ġ32":4054,"Ġnormal":4055,"Ġblock":4056,"Ġquarter":4057,"Ġinflu":4058,"iple":4059,"Ġ70":4060,"Ġbenefits":4061,"Ġjustice":4062,"Ġenfor":4063,"Ġswim":4064,"Ġenvironment":4065,"Ġcerem":4066,"ements":4067,"elly":4068,"Ġsuccessful":4069,"rim":4070,"Ġblue":4071,"ĠThese":4072,"unch":4073,"Ġapproach":4074,"?'":4075,"Ġcollect":4076,"Ġolder":4077,"Ġdocument":4078,"bit":4079,"ĠSun":4080,"Ġplaced":4081,"Ġplanned":4082,"Ġoccas":4083,"haps":4084,"angu":4085,"ildren":4086,"Ġplanning":4087,"Ġsales":4088,"ĠSuper":4089,"Ġeasy":4090,"Ġapartment":4091,"Ġsuicide":4092,"Ġdark":4093,"Ġstars":4094,"aine":4095,"Ġworst":4096,"ĠLa":4097,"ha":4098,"ĠSydney":4099,"Ġpretty":4100,"ĠMer":4101,"Ġshut":4102,"Ġprior":4103,"Ġmach":4104,"Ġhelping":4105,"Ġwel":4106,"ĠFrancis":4107,"Ġdogs":4108,"Ġsports":4109,"ĠSoc":4110,"Ġbroken":4111,"Ġoriginal":4112,"Ġhighest":4113,"ector":4114,"Ġmajority":4115,"ĠJon":4116,"Ġpull":4117,"Ġcop":4118,"useum":4119,"ications":4120,"Ġtalks":4121,"Ġcomputer":4122,"ĠDet":4123,"stitute":4124,"month":4125,"ĠGreat":4126,"Ġopposition":4127,"Ġow":4128,"Ġappearance":4129,"ĠPeople":4130,"mates":4131,"bert":4132,"Ġmyself":4133,"Ġteams":4134,"iest":4135,"wide":4136,"ĠGod":4137,"ĠService":4138,"Ġbal":4139,"Ġisland":4140,"win":4141,"Ġdouble":4142,"ĠEarth":4143,"Ġpositive":4144,"gree":4145,"Ġmassive":4146,"Ġopin":4147,"pping":4148,"ĠSn":4149,"Ġmount":4150,"fl":4151,"Ġpresidential":4152,"Ġcaptured":4153,"Online":4154,"ĠWatch":4155,"Ġgreen":4156,"Ġwhom":4157,"Ġalongside":4158,"At":4159,"100":4160,"sequ":4161,"Ġcold":4162,"ĠHum":4163,"Ġbecoming":4164,"jects":4165,"Ġdoll":4166,"ĠMag":4167,"Ġbreat":4168,"ĠJim":4169,"Ġdom":4170,"Ġsong":4171,"icles":4172,"Ġcompared":4173,"ĠBarack":4174,"arian":4175,"Ġcontain":4176,"Ġspl":4177,"Ġlay":4178,"andal":4179,"ological":4180,"ĠEb":4181,"ĠInter":4182,"arks":4183,"Ġwinner":4184,"Ġdefense":4185,"Ġlower":4186,"ĠSecurity":4187,"ĠOld":4188,"Ġ2005":4189,"bridge":4190,"ĠBarcelona":4191,"resh":4192,"uction":4193,"Ġnatural":4194,"Ġcollection":4195,"Ġdevelopment":4196,"Ġshared":4197,"Ġspir":4198,"ĠVirgin":4199,"Ġairl":4200,"Ġillegal":4201,"Ġregard":4202,"ielder":4203,"Ġrecords":4204,"ĠGeneral":4205,"ervative":4206,"ĠBur":4207,"ero":4208,"cks":4209,"60":4210,"Ġveter":4211,"Ġwatching":4212,"Ġmale":4213,"apped":4214,"ĠNet":4215,"ĠGood":4216,"aped":4217,"ĠJudge":4218,"ĠDen":4219,"ĠFirst":4220,"Ġfeatures":4221,"ĠParty":4222,"Ġclaiming":4223,"IDEO":4224,"born":4225,"Ġfreed":4226,"Ġgrad":4227,"bour":4228,"Ġfiled":4229,"19":4230,"Ġfix":4231,"ĠVIDEO":4232,"iced":4233,"Ġdebate":4234,"Ġdie":4235,"Ġflag":4236,"Ġcustody":4237,"ĠMiddle":4238,"Ġ80":4239,"Ġplaces":4240,"Ġdefeat":4241,"mond":4242,"Ġrestaurant":4243,"Ġchampion":4244,"NA":4245,"Ġcounter":4246,"mail":4247,"FA":4248,"ĠEven":4249,"ador":4250,"An":4251,"fielder":4252,"ĠFBI":4253,"Ġcontinues":4254,"Ġmaintain":4255,"hab":4256,"ĠRepublicans":4257,"ĠSteve":4258,"ania":4259,"Ġund":4260,"Ġlearn":4261,"ĠCommission":4262,"udd":4263,"Ġways":4264,"ĠItalian":4265,"ĠBush":4266,"keep":4267,"Ġinsisted":4268,"Ġtourn":4269,"Ġrow":4270,"Ġstarting":4271,"uled":4272,"ĠMet":4273,"Ġneighbor":4274,"Ġmagazine":4275,"Ġword":4276,"ĠLew":4277,"Ġreveal":4278,"Ġ45":4279,"Ġreasons":4280,"ĠOl":4281,"ĠUnder":4282,"Ġprim":4283,"Ġrape":4284,"Ġdepartment":4285,"rie":4286,"Ġsmart":4287,"EW":4288,"urance":4289,"anks":4290,"yond":4291,"Ġadop":4292,"ĠPost":4293,"Ġcertainly":4294,"Ġseemed":4295,"Ġnecess":4296,"anging":4297,"reng":4298,"ĠAlthough":4299,"Ġarmed":4300,"Ġnames":4301,"Ġaware":4302,"Ġruled":4303,"Ġdevice":4304,"can":4305,"ym":4306,"eds":4307,"Ġstrike":4308,"iring":4309,"Ġbeautiful":4310,"ĠMos":4311,"âĢĻ,":4312,"upp":4313,"Ġchairman":4314,"Ġbeach":4315,"Ġreceive":4316,"ĠDis":4317,"Ġdig":4318,"Ġstyle":4319,"anwhile":4320,"Ġpsych":4321,"Ġcommitted":4322,"ĠGeorg":4323,"Ġparticip":4324,"Ġinternet":4325,"ĠEU":4326,"ĠMailOnline":4327,"Ġaffected":4328,"ĠâĢľ":4329,"ĠCharles":4330,"Ġteenager":4331,"estic":4332,"ĠArgent":4333,"ĠHolly":4334,"Ġlosing":4335,"rage":4336,"hew":4337,"Ġputting":4338,"Ġdevast":4339,"ĠOlympic":4340,"uf":4341,"ĠGold":4342,"nel":4343,"Ġarch":4344,"Ġleague":4345,"Ġsigns":4346,"ĠSpanish":4347,"Ġversion":4348,"ĠWat":4349,"val":4350,"aeda":4351,"ville":4352,"200":4353,"Ġinvestigators":4354,"Ġsometimes":4355,"ĠJul":4356,"Ġprovided":4357,"ka":4358,"ĠNick":4359,"Ġvillage":4360,"Ġprogress":4361,"orrow":4362,"fess":4363,"Ġbeg":4364,"ĠWin":4365,"Ġgay":4366,"Ġ33":4367,"ĠFrank":4368,"ĠHel":4369,"Ġult":4370,"Ġpatient":4371,"antic":4372,"Ġmodern":4373,"Ġminor":4374,"ĠRyan":4375,"Ġwalked":4376,"ĠUkraine":4377,"Ġspark":4378,"ĠDar":4379,"Ġkit":4380,"Ġcentury":4381,"ĠMurray":4382,"ĠChief":4383,"ĠGre":4384,"Ġfacing":4385,"Ġstun":4386,"ĠPress":4387,"pts":4388,"ĠAssociation":4389,"Ġbehavi":4390,"Ġspotted":4391,"Ġexpressed":4392,"Ġproud":4393,"Ġcausing":4394,"Ġprofessional":4395,"using":4396,"Ġorigin":4397,"Ġruns":4398,"resp":4399,".,":4400,"eless":4401,"ait":4402,"ĠRomney":4403,"Ġestimated":4404,"Ġrespect":4405,"Ġdrop":4406,"Ġbrief":4407,"ĠAri":4408,"Ġpiece":4409,"ĠFam":4410,"Ġsuspended":4411,"iser":4412,"Ġexplained":4413,"ĠBoth":4414,"house":4415,"Ġband":4416,"Ġlinked":4417,"Ġcovered":4418,"Ġbelow":4419,"Ġmental":4420,"igan":4421,"Ġconvers":4422,"Ġattended":4423,"Ġshel":4424,"Ġcitizens":4425,"ĠTay":4426,"Ġspecific":4427,"orial":4428,"Ġglass":4429,"Ġclearly":4430,"Ġmix":4431,"Ġsem":4432,"Ġpregnant":4433,"onn":4434,"Ġlegisl":4435,"ĠTim":4436,"Ġeffective":4437,"ĠWeb":4438,"kins":4439,"Ġcomfort":4440,"imum":4441,"Ġseat":4442,"ĠOs":4443,"Ġscientists":4444,"ĠBre":4445,"oston":4446,"Ġtraffic":4447,"ĠMeanwhile":4448,"Ġintelligence":4449,"Ġmidfielder":4450,"ani":4451,"chen":4452,"Ġhealthy":4453,"Ġchoice":4454,"Ġthinking":4455,"Ġwindow":4456,"Ġability":4457,"ĠToday":4458,"ĠPalace":4459,"Ġviews":4460,"Ġcry":4461,"Ġcollege":4462,"ship":4463,"ourney":4464,"ĠChristian":4465,"Ġabsolute":4466,"Ġgiant":4467,"?\"":4468,"Ġitems":4469,"oted":4470,"Ġones":4471,"Ġbudget":4472,"ĠRiver":4473,"ĠKar":4474,"ĠSince":4475,"Ġsuspic":4476,"Ġusually":4477,"ae":4478,"ĠMass":4479,"Ġprices":4480,"Ġapparently":4481,"castle":4482,"ĠRec":4483,"annel":4484,"Ġvisited":4485,"Ġexerc":4486,"do":4487,"illing":4488,"ĠGra":4489,"Ġdestroy":4490,"aret":4491,"cy":4492,"Ġpleaded":4493,"Ġboat":4494,"14":4495,"Ġcorn":4496,"ĠVe":4497,"Ġoccurred":4498,"Ġimmigration":4499,"Ġannual":4500,"Ġindividual":4501,"Ġuns":4502,"Ġbirthday":4503,"utch":4504,"ĠChurch":4505,"Ġ2004":4506,"ĠGrand":4507,"Ġarms":4508,"oking":4509,"Ġsurvey":4510,"ĠFin":4511,"ER":4512,"met":4513,"ĠDel":4514,"Ġconduct":4515,"Ġtough":4516,"ĠHot":4517,"Ġceremony":4518,"isions":4519,"angers":4520,"Ġstanding":4521,"Ġstreng":4522,"ĠGa":4523,"Ġbanned":4524,"Ġstrate":4525,"Ġfly":4526,"iqu":4527,"ĠEbola":4528,"Ġreality":4529,"ĠRad":4530,"Ġknows":4531,"Ġactor":4532,"imately":4533,"ĠSom":4534,"Ġimpro":4535,"Ġadvert":4536,"Ġprotesters":4537,"hered":4538,"ula":4539,"Ġresearchers":4540,"atures":4541,"Ġhanded":4542,"arily":4543,"Ġincreased":4544,"cious":4545,"Ġexist":4546,"Ġchampions":4547,"Ġsoft":4548,"Ġoperations":4549,"Ġeating":4550,"Ġrescue":4551,"ĠSpeaking":4552,"ume":4553,"iance":4554,"Ġlangu":4555,"Ġrecomm":4556,"ĠBob":4557,"Ġbi":4558,"ked":4559,"erved":4560,"Ġyounger":4561,"Ġclin":4562,"gar":4563,"Ġdecade":4564,"ĠThen":4565,"ĠBoston":4566,"Ġviolent":4567,"board":4568,"Ġimag":4569,"Ġsick":4570,"Ġbath":4571,"Ġlic":4572,"ĠDu":4573,"Ġfully":4574,"Ġpounds":4575,"duce":4576,"Ġattempted":4577,"ampton":4578,"Ġalive":4579,"Ġbail":4580,"eder":4581,"Ġcast":4582,"no":4583,"Ġparties":4584,"Ġpractice":4585,"zz":4586,"ointed":4587,"ĠRonald":4588,"Ġbeyond":4589,"ĠWal":4590,"Ġharm":4591,"Ġemployees":4592,"ighter":4593,"Ġprem":4594,"Ġcrimes":4595,"Ġresign":4596,"ropriate":4597,"ĠKn":4598,"Ġvoters":4599,"phone":4600,"Al":4601,"Ġsuspected":4602,"Ġmovement":4603,"ĠEver":4604,"Ġbird":4605,"Ġspokeswoman":4606,"Ġflat":4607,"Ġpool":4608,"ĠJoe":4609,"inho":4610,"bury":4611,"Ġwatched":4612,"ala":4613,"Ġconfl":4614,"ĠIsland":4615,"ĠMac":4616,"ends":4617,"Ġanswer":4618,"aries":4619,"ĠSil":4620,"ĠCom":4621,"ĠHen":4622,"Ġsitting":4623,"Ġinvestigating":4624,"Ġpolitic":4625,"Ġgrowth":4626,"Ġexch":4627,"Ġconcern":4628,"Ġextremely":4629,"Ġwonder":4630,"Ġexpert":4631,"uses":4632,"Ġfeed":4633,"Ġsad":4634,"ĠIr":4635,"ĠHoll":4636,"omatic":4637,"Ġtraditional":4638,"Ġwood":4639,"Ġradio":4640,"Ġbehaviour":4641,"Ġlearned":4642,"Ġath":4643,"Ġinitially":4644,"ĠKate":4645,"Ġhoping":4646,"Ġflying":4647,"ledge":4648,"ĠKent":4649,"Ġdeveloped":4650,"ĠDemocratic":4651,"apt":4652,"antly":4653,"Ġring":4654,"ĠBir":4655,"Ġresponsibility":4656,"ĠTy":4657,"erm":4658,"acts":4659,"Ġtests":4660,"Ġbeginning":4661,"cean":4662,"45":4663,"known":4664,"Ġhurt":4665,"Ġregime":4666,"ĠDown":4667,"ĠDemocrats":4668,"Ġobv":4669,"Ġvia":4670,"Ġtournament":4671,"life":4672,"owing":4673,"Ġlux":4674,"aire":4675,"Ġsociety":4676,"Ġconflict":4677,"Ġremained":4678,"Ġuniversity":4679,"Ġtext":4680,"Ġdefin":4681,"reland":4682,"ĠOpen":4683,"Ġscen":4684,"ĠII":4685,"Ġruling":4686,"Ġpurch":4687,"ein":4688,"entially":4689,"cing":4690,"Ġunderst":4691,"Ġmurd":4692,"ads":4693,"ĠLiber":4694,"ĠNewcastle":4695,"ĠBrook":4696,"ordan":4697,"izing":4698,"Ġboyfriend":4699,"Ġfraud":4700,"Ġwall":4701,"Ġfinding":4702,"Ġmissed":4703,"Ġproced":4704,"Ġcities":4705,"ĠTaylor":4706,"ously":4707,"Ġjourney":4708,"ĠJersey":4709,"Ġterrorist":4710,"alys":4711,"Ġfresh":4712,"rect":4713,"Ġic":4714,"Ġconfident":4715,"Ġdrinking":4716,"Ġdram":4717,"ĠiPh":4718,"Ġcounts":4719,"Ġnegot":4720,"ĠStar":4721,"Ġfavor":4722,"ittee":4723,"aith":4724,"ĠBrad":4725,"Ġtype":4726,"Ġblog":4727,"ius":4728,"acking":4729,"':":4730,"owed":4731,"ĠColle":4732,"Ġphysical":4733,"Ġquality":4734,"Ġpowerful":4735,"ennis":4736,"Ġdismiss":4737,"Ġdivor":4738,"ayers":4739,"ĠIreland":4740,"where":4741,"ĠDi":4742,"oked":4743,"Ġthrow":4744,"Ġamazing":4745,"Ġshortly":4746,"Ġvalue":4747,"Ġexactly":4748,"Ġvoice":4749,"gra":4750,"Ġtom":4751,"16":4752,"13":4753,"17":4754,"Ġculture":4755,"ĠCost":4756,"Ġprotests":4757,"Ġpicked":4758,"Ġdiagnosed":4759,"ena":4760,"Ġgives":4761,"agues":4762,"ifth":4763,"Ġsort":4764,"oung":4765,"oured":4766,"ĠMike":4767,"Ġroy":4768,"zer":4769,"Ġneck":4770,"Ġfort":4771,"icate":4772,"Ġsinger":4773,"ĠCont":4774,"ĠWilson":4775,"Ġdoubt":4776,"Ġsan":4777,"Ġseparate":4778,"Ġagreement":4779,"ĠKorean":4780,"uals":4781,"Ġprosecutors":4782,"ĠBig":4783,"Ġthreatened":4784,"Ġseeking":4785,"ewhere":4786,"Ġselling":4787,"Ġign":4788,"Ġcab":4789,"Americ":4790,"Ġworse":4791,"Ġguard":4792,"Ġpath":4793,"Ġfarm":4794,"ĠWall":4795,"Ġcontroversial":4796,"ĠCast":4797,"itting":4798,"Ġmeasures":4799,"ĠMost":4800,"ĠPut":4801,"Ġ34":4802,"Ġworker":4803,"mate":4804,"Ġpropos":4805,"ota":4806,"Ġrequired":4807,"ĠChic":4808,"ĠShar":4809,"ooking":4810,"ĠPenn":4811,"Ġphotographer":4812,"ĠGroup":4813,"Ġloan":4814,"Our":4815,"ĠQaeda":4816,"Ġtweeted":4817,"Ġseconds":4818,"sey":4819,"Ġappl":4820,"Ġspeaking":4821,"ĠDun":4822,"acing":4823,"athan":4824,"licop":4825,"unte":4826,"Ġaddition":4827,"Ġrid":4828,"Ġbottom":4829,"Ġ36":4830,"Ġcircum":4831,"gedy":4832,"ĠMoham":4833,"Ġcomplex":4834,"ĠCoast":4835,"ighted":4836,"Ġfal":4837,"itude":4838,"Ġhelicop":4839,"thony":4840,"ĠTrans":4841,"ĠHome":4842,"Ġmeth":4843,"Ġexplain":4844,"18":4845,"rog":4846,"Ġbom":4847,"Ġnorthern":4848,"anch":4849,"Ġscandal":4850,"ayne":4851,"Ġdomestic":4852,"iana":4853,"Ġestate":4854,"Ġdetermined":4855,"Ġfuel":4856,"ruit":4857,"ellow":4858,"Ġscr":4859,"ĠThree":4860,"ĠStephen":4861,"Ġserving":4862,"Ġcatch":4863,"essed":4864,"Ġbelong":4865,"Ġbedroom":4866,"Ġcommittee":4867,"Ġapart":4868,"Ġmeaning":4869,"rier":4870,"more":4871,"Ġpilot":4872,"Ġsites":4873,"ovic":4874,"ilton":4875,"ĠRam":4876,"ĠStud":4877,"Ġlegs":4878,"ocks":4879,"ĠTheir":4880,"Ġfinished":4881,"Ġprepared":4882,"ĠVictoria":4883,"ela":4884,"ĠPet":4885,"ĠBank":4886,"Ġvisitors":4887,"Ġserve":4888,"Ġcommission":4889,"Ġkidn":4890,"Ġheav":4891,"No":4892,"law":4893,"Ġmultiple":4894,"ĠKat":4895,"ument":4896,"ĠProfess":4897,"Ġanaly":4898,"Ġgar":4899,"Ġeld":4900,"Ġsound":4901,"Ġprogramme":4902,"Ġsubject":4903,"ulated":4904,"Ġfaced":4905,"oles":4906,"isation":4907,"phy":4908,"iban":4909,"uests":4910,"Ġenforcement":4911,"Ġwealth":4912,"run":4913,"Ġtack":4914,"Ġactress":4915,"Ġunlike":4916,"gers":4917,"Ġdaily":4918,"ĠSarah":4919,"Ġdistrict":4920,"ĠIsraeli":4921,"Ġbatt":4922,"ength":4923,"ella":4924,"ican":4925,"anny":4926,"Ġpup":4927,"inals":4928,"ĠDistrict":4929,"Ġclothes":4930,"One":4931,"!'":4932,"ĠCommittee":4933,"ĠGeorgia":4934,"ively":4935,"ga":4936,"ĠHaw":4937,"Ġhighly":4938,"Ġupd":4939,"ĠTony":4940,"ĠGames":4941,"Ġactivity":4942,"ections":4943,"Ġeast":4944,"Ġdefender":4945,"ictions":4946,"Ġdramatic":4947,"Ġhaven":4948,"arez":4949,"ids":4950,"Ġvehicles":4951,"Ġunderw":4952,"Ġcuts":4953,"ushing":4954,"rist":4955,"ware":4956,"ĠCarolina":4957,"Ġpurs":4958,"Ġlines":4959,"Ġrequire":4960,"rible":4961,"lement":4962,"bur":4963,"ĠWestern":4964,"stances":4965,"upreme":4966,"enty":4967,"omes":4968,"outs":4969,"ĠSl":4970,"Ġupon":4971,"ĠJer":4972,"Ġguy":4973,"Ġillness":4974,"ĠPre":4975,"ĠJew":4976,"ĠEll":4977,"ecause":4978,"ĠChicago":4979,"Ġfest":4980,"Ġdesper":4981,"Ġartist":4982,"ĠGaal":4983,"ĠAnthony":4984,"Ġsouthern":4985,"ĠJordan":4986,"ĠLuc":4987,"Ġamid":4988,"Ġuses":4989,"ĠYear":4990,"Ġvarious":4991,"Ġstories":4992,"Ġscheduled":4993,"Ġhun":4994,"Ġapplic":4995,"His":4996,"ĠSus":4997,"ĠPri":4998,"Ġpra":4999,"burg":5000,"ĠAnn":5001,"Ġpitch":5002,"OP":5003,"rig":5004,"Ġstands":5005,"Ġexpensive":5006,"Ġgarden":5007,"All":5008,"Ġcommer":5009,"Ġorganization":5010,"vestig":5011,"asted":5012,"Ġyouth":5013,"Ġtoward":5014,"olic":5015,"Ġ2003":5016,"Ġchemical":5017,"Ġcredit":5018,"Ġthanks":5019,"Ġbooks":5020,"ĠHollywood":5021,"itation":5022,"ĠWel":5023,"Ġfears":5024,"encing":5025,"Ġpaying":5026,"ĠGuard":5027,"eman":5028,"Ġoffers":5029,"Ġsimple":5030,"Ġmatches":5031,"Ġequip":5032,"Ġnature":5033,"evin":5034,"ols":5035,"Ġrecorded":5036,"Ġsources":5037,"ĠTaliban":5038,"Ġ37":5039,"rison":5040,"ĠProsecut":5041,"Ġnote":5042,"Ġrule":5043,"ĠTor":5044,"Ġvideos":5045,"Ġlocation":5046,"ĠKh":5047,"billion":5048,"Ġwest":5049,"Ġpartners":5050,"Ġrates":5051,"oma":5052,"ĠFire":5053,"Ġplant":5054,"Ġseriously":5055,"Ġrecovery":5056,"ĠCarl":5057,"Ġperhaps":5058,"anced":5059,"Ġsides":5060,"lyn":5061,"Ġassaul":5062,"Ġscoring":5063,"Ġremove":5064,"encies":5065,"Ġkeeping":5066,"ront":5067,"iment":5068,"Ġmaterial":5069,"Ġadvice":5070,"Ġinsurance":5071,"west":5072,"gus":5073,"ottenham":5074,"dden":5075,"ĠNic":5076,"ĠFrom":5077,"ources":5078,"Ġspect":5079,"Ġarmy":5080,"ova":5081,"ologist":5082,"ĠiPhone":5083,"orted":5084,"ugg":5085,"ĠTory":5086,"ĠVirginia":5087,"Ġrecover":5088,"anded":5089,"Ġrap":5090,"Ġboost":5091,"Ġcritical":5092,"Ġtruck":5093,"ĠInternet":5094,"ĠCanada":5095,"Ġwarm":5096,"ĠJess":5097,"Ġunit":5098,"ĠCollege":5099,"Ġbot":5100,"ĠEric":5101,"Ġrepeatedly":5102,"ĠIm":5103,"....":5104,"Ġequipment":5105,"mother":5106,"Ġdiet":5107,"Ġfinish":5108,"Ġroyal":5109,"Ġcandidate":5110,"Ġrelative":5111,"Ġfalse":5112,"ĠSimon":5113,"Ġdifference":5114,"ĠSky":5115,"Ġdelay":5116,"Ġbatter":5117,"onym":5118,"Ġtrade":5119,"Ġresponded":5120,"ĠAc":5121,"Ġindependent":5122,"Ġescape":5123,"Ġbenefit":5124,"Ġconfidence":5125,"Ġprime":5126,"Ġunus":5127,"Ġsurface":5128,"ipe":5129,"Ġsudden":5130,"ĠJenn":5131,"Ġshopping":5132,"ulate":5133,"ĠRoad":5134,"Ġleadership":5135,"iar":5136,"know":5137,"ĠOver":5138,"Ġfish":5139,"Ġaband":5140,"ĠMess":5141,"Ġcoff":5142,"icking":5143,"Ġfeature":5144,"Ġdrivers":5145,"Pe":5146,"Ġmans":5147,"Ġtrouble":5148,"Ġcool":5149,"ĠFox":5150,"Ġshocked":5151,"Ġachieve":5152,"Ġinquir":5153,"lers":5154,"Ġdefence":5155,"Ġarticle":5156,"Ġreligious":5157,"Ġrub":5158,"Ġvolunte":5159,"pir":5160,"ĠJeff":5161,"dd":5162,"ĠAirport":5163,"iner":5164,"emb":5165,"Ġtow":5166,"ien":5167,"IA":5168,"Ġstuff":5169,"itely":5170,"olen":5171,"ĠAndy":5172,"apping":5173,"ĠSports":5174,"ification":5175,"Ġsche":5176,"Ġsetting":5177,"Ġfuneral":5178,"Ġdipl":5179,"ĠDie":5180,"ufact":5181,"Ġabsolutely":5182,"Ġperm":5183,"ĠBeck":5184,"ĠLewis":5185,"99":5186,"Ġstood":5187,"Ġupset":5188,"ĠEarlier":5189,"ĠCambridge":5190,"Ġagent":5191,"ĠNiger":5192,"ĠPalest":5193,"Ġdeclined":5194,"ĠMem":5195,"Ġproduced":5196,"Ġprove":5197,"bon":5198,"Ġfailure":5199,"ĠSqu":5200,"Ġnurs":5201,"ĠOh":5202,"Ġearth":5203,"Ġtree":5204,"ancing":5205,"Ġconnection":5206,"Ġconstit":5207,"Af":5208,"ĠDev":5209,"ĠBoy":5210,"ĠCentral":5211,"Ġbreast":5212,"ĠBo":5213,"Ġsteps":5214,"ĠMPs":5215,"cri":5216,"ĠClub":5217,"ĠBor":5218,"Ġlawsuit":5219,"Ġstruct":5220,"Ġwinter":5221,"Ġobtain":5222,"bo":5223,"ĠForeign":5224,"owned":5225,"Ġclubs":5226,"gas":5227,"ĠOx":5228,"ĠKevin":5229,"80":5230,"Ġpush":5231,"ihad":5232,"ĠAuthorities":5233,"Ġpromot":5234,"Ġfifth":5235,"ĠMichel":5236,"Ġlanguage":5237,"OR":5238,"incess":5239,"ĠTre":5240,"Ġcelebrate":5241,"Ġkne":5242,"ĠTer":5243,"een":5244,"bing":5245,"aching":5246,"Ġcolleagues":5247,"So":5248,"Ġhasn":5249,"emen":5250,"ĠMcD":5251,"cow":5252,"Ġwish":5253,"kin":5254,"rial":5255,"inated":5256,"ĠMaria":5257,"Ġsecretary":5258,"Ġtargeted":5259,"Ġstret":5260,"Ġphotographs":5261,"Ġdeclared":5262,"ĠNations":5263,"Ġaccounts":5264,"ĠCEO":5265,"Ġstress":5266,"Ġattract":5267,"Ġmeasure":5268,"Ġangry":5269,"Ġdinner":5270,"fit":5271,"ua":5272,"rec":5273,"ĠTottenham":5274,"Ġuser":5275,"ulance":5276,"Ġwheel":5277,"ĠProfessor":5278,"Ġhur":5279,"ON":5280,"lig":5281,"rep":5282,"ĠKenned":5283,"ĠSav":5284,"Ġ2015":5285,"Ġlawyers":5286,"ĠYoung":5287,"cepted":5288,"Ġacknow":5289,"Ġimpress":5290,"guson":5291,"ensions":5292,"Ġstatus":5293,"Ġstruggling":5294,"Ġgrab":5295,"isher":5296,"Ġeth":5297,"Tube":5298,"vis":5299,"Ġpen":5300,"lets":5301,"Ġtells":5302,"Ġtrend":5303,"Ġurged":5304,"Ġrelated":5305,"break":5306,"ĠChampionship":5307,"ptoms":5308,"mingham":5309,"Ġafford":5310,"Ġcontroll":5311,"Ġemotional":5312,"Ġcontest":5313,"Ġproduction":5314,"Ġworried":5315,"ĠStr":5316,"makers":5317,"ĠHolland":5318,"Ġshots":5319,"Ġunp":5320,"New":5321,"Ġentered":5322,"Ġelectric":5323,"itals":5324,"Ġpolitics":5325,"ĠAttorney":5326,"Pol":5327,"aza":5328,"CA":5329,"Ġsurprise":5330,"Ġwithd":5331,"Ġguests":5332,"oves":5333,"Every":5334,"Ġ2001":5335,"ĠHug":5336,"aughters":5337,"Mr":5338,"Ġdirectly":5339,"ĠTurkey":5340,"Ġaren":5341,"Ġsuffer":5342,"Ġoverse":5343,"iano":5344,"file":5345,"ĠMont":5346,"ĠFoot":5347,"ining":5348,"Ġoffering":5349,"Ġflights":5350,"ashes":5351,"Ġimpl":5352,"Ġallowing":5353,"Ġsigning":5354,"alition":5355,"Ġwake":5356,"Ġsettle":5357,"Ġble":5358,"ĠKelly":5359,"ĠKennedy":5360,"Ġreduce":5361,"Ġreturning":5362,"Ġswe":5363,"umn":5364,"Ġir":5365,"Ġdevices":5366,"Ġvirus":5367,"Ġaudience":5368,"Ġluxury":5369,"Ġsupposed":5370,"Ġpassenger":5371,"Ġmilitants":5372,"ĠEvery":5373,"ĠYouTube":5374,"ĠMour":5375,"alling":5376,"Ġunique":5377,"Ġinspired":5378,"ĠJose":5379,"Ġnice":5380,"utions":5381,"Ġfled":5382,"ĠCur":5383,"Ġmoments":5384,"ĠBu":5385,"How":5386,"ĠBirmingham":5387,"Ġ42":5388,"ores":5389,"Ġtransport":5390,"ĠOut":5391,"illy":5392,"ulations":5393,"Ġcas":5394,"ĠReg":5395,"Ġconfirm":5396,"Ġtragedy":5397,"ĠBa":5398,"itan":5399,"ĠAbd":5400,"ĠFerguson":5401,"Ġcomed":5402,"aming":5403,"Ġmention":5404,"Ġcriticism":5405,"Ġelections":5406,"oner":5407,"Ġwilling":5408,"zona":5409,"ayer":5410,"Ġagree":5411,"Ġ38":5412,"BS":5413,"ĠSupreme":5414,"icit":5415,"Ġduty":5416,"iley":5417,"Ġfalling":5418,"Ġmanufact":5419,"Ġquestioned":5420,"ĠRog":5421,"ĠFamily":5422,"ulf":5423,"dom":5424,"tr":5425,"Ġsecure":5426,"Ġhorse":5427,"Ġ500":5428,"Ġconclud":5429,"Ġproceed":5430,"apers":5431,"uche":5432,"Ġwriting":5433,"Ġcontent":5434,"Â£":5435,"Ġassistant":5436,"ĠZeal":5437,"Ġlog":5438,"Ġadults":5439,"Ġ300":5440,"Ġcart":5441,"Ġcompleted":5442,"Ġflu":5443,"venue":5444,"ĠAdam":5445,"va":5446,"Ġgain":5447,"ĠSteven":5448,"Ġexcept":5449,"ĠBeach":5450,"Ã©":5451,"vention":5452,"Ġsending":5453,"ĠHere":5454,"ĠLind":5455,"keeper":5456,"Ġsand":5457,"Ġlimit":5458,"Ġder":5459,"icken":5460,"foot":5461,"rific":5462,"ĠRoberts":5463,"antage":5464,"ĠFord":5465,"These":5466,"Ġinvolve":5467,"Ġtemperatures":5468,"atever":5469,"ĠConn":5470,"Ġmum":5471,"Ġgrew":5472,"ĠAgency":5473,"ĠLong":5474,"Ġregister":5475,"rant":5476,"ĠThose":5477,"ĠFound":5478,"Ġstolen":5479,"Ġbuildings":5480,"ĠPutin":5481,"Ġbright":5482,"mes":5483,"Ġ2002":5484,"ĠBow":5485,"Ġadditional":5486,"Ġ48":5487,"Ġfrustr":5488,"Ġcondem":5489,"Ġaffect":5490,"ĠLat":5491,"ĠMir":5492,"ĠFollow":5493,"idel":5494,"Ġgreater":5495,"Ġbackground":5496,"Ġintroduced":5497,"fire":5498,"ctions":5499,"Ġlength":5500,"ĠInvestig":5501,"Ġinvolving":5502,"ables":5503,"long":5504,"abeth":5505,"ĠSouthampton":5506,"Ġreceiving":5507,"Ġfavourite":5508,"Ġplot":5509,"Ġsky":5510,"Ġthank":5511,"Ġcrack":5512,"Ġfaith":5513,"ching":5514,"Ġheat":5515,"Ġdecide":5516,"Ġmachine":5517,"Ġauction":5518,"otic":5519,"isa":5520,"coming":5521,"Ġsuspects":5522,"ĠScottish":5523,"ĠRooney":5524,"Ġsession":5525,"Ġbeauty":5526,"Ġfrequ":5527,"ĠMorgan":5528,"Ġdebut":5529,"Ġinnoc":5530,"uated":5531,"Ġcy":5532,"Ġdaughters":5533,"Ġwounded":5534,"ĠAh":5535,"Ġprotection":5536,"Ġowned":5537,"ĠDou":5538,"ĠSa":5539,"ĠCorn":5540,"erous":5541,"Ġfeels":5542,"Ġstandards":5543,"ruption":5544,"ĠProt":5545,"Ġnecessary":5546,"Ġcameras":5547,"35":5548,"ĠZealand":5549,"oses":5550,"Ġthreats":5551,"ĠPalestin":5552,"Ġburn":5553,"Ġworry":5554,"bro":5555,"Ġcorner":5556,"tery":5557,"Ġrelatives":5558,"uchess":5559,"ĠMount":5560,"Ġweapon":5561,"Ġbow":5562,"Ġindividuals":5563,"eared":5564,"Ġdebt":5565,"ĠNavy":5566,"ĠJapanese":5567,"Ġsurge":5568,"ĠArizona":5569,"azi":5570,"Ġincredible":5571,"Ġlaugh":5572,"Ġess":5573,"ĠWalk":5574,"Ġton":5575,"Ġturning":5576,"ĠRay":5577,"Ġsuggests":5578,"ĠCath":5579,"Ġdeadly":5580,"Ġretired":5581,"Ġfreedom":5582,"orado":5583,"ĠMiller":5584,"Ġtiny":5585,"Ġcircumstances":5586,"ipl":5587,"ĠBol":5588,"ĠTour":5589,"22":5590,"ĠEs":5591,"ĠEliz":5592,"Ġquiet":5593,"Ġagents":5594,"Ġwore":5595,"Ġsurvived":5596,"Ġsoldier":5597,"kes":5598,"Ġknife":5599,"Ġoppon":5600,"Ġsust":5601,"Ġenjoyed":5602,"star":5603,"Ġbringing":5604,"Ġbear":5605,"ĠCub":5606,"Ġfant":5607,"Ġtruth":5608,"quar":5609,"iversary":5610,"Ġreaction":5611,"ĠGOP":5612,"ĠBefore":5613,"ĠCard":5614,"ĠJam":5615,"Ġprinc":5616,"Ġaffair":5617,"Ġnoted":5618,"Ġneighborhood":5619,"ulner":5620,"aken":5621,"Ġgather":5622,"Ġdad":5623,"ĠNEW":5624,"ĠComp":5625,"ĠAg":5626,"ĠForce":5627,"Ġunusual":5628,"Ġsymptoms":5629,"inn":5630,"ĠWell":5631,"Ġkitchen":5632,"Ġ#":5633,"Ġregularly":5634,"Ġhat":5635,"ĠYorks":5636,"ĠDNA":5637,"ocal":5638,"Ġsole":5639,"ĠMedical":5640,"FL":5641,"Ġlimited":5642,"Ġclash":5643,"Ġdrove":5644,"cient":5645,"ĠEr":5646,"Ġleaves":5647,"Ġbusinesses":5648,"aze":5649,"Ġqualif":5650,"ĠKong":5651,"ĠSing":5652,"iami":5653,"Ġmigr":5654,"bel":5655,"Ġsystems":5656,"war":5657,"Ġdressed":5658,"Ġaggress":5659,"ĠHay":5660,"Ġdating":5661,"Ġeffects":5662,"Ġfighters":5663,"Ġpurp":5664,"onic":5665,"ĠArgentina":5666,"ĠMatthew":5667,"Ġrival":5668,"ĠDirect":5669,"Ġactivities":5670,"Ġdestroyed":5671,"Ġpushed":5672,"ker":5673,"itz":5674,"Ġdamaged":5675,"ĠStadium":5676,"Ġdetect":5677,"Ġded":5678,"Ġresul":5679,"ĠMourinho":5680,"ĠOlympics":5681,"la":5682,"Ġcommercial":5683,"Ġrank":5684,"iat":5685,"Ġbeaten":5686,"Ġcrashed":5687,"Ġneighbour":5688,"arrass":5689,"boy":5690,"Ġkeen":5691,"Ġsaved":5692,"Ġ43":5693,"Ġretail":5694,"ĠAlan":5695,"Ġholds":5696,"Ġinfluence":5697,"Ġtight":5698,"Ġfailing":5699,"Ġsplit":5700,"Ġproviding":5701,"ette":5702,"road":5703,"ĠDiego":5704,"Ġexercise":5705,"urse":5706,"ĠSol":5707,"gl":5708,"ĠChildren":5709,"ĠLo":5710,"elli":5711,"rell":5712,"Ġallows":5713,"Ġactive":5714,"ĠInstitute":5715,"ĠLake":5716,"Ġ2000":5717,"ĠMinistry":5718,"Ġincome":5719,"ĠCosta":5720,"ba":5721,"Ġoriginally":5722,"ĠGP":5723,"Ġdisappear":5724,"Ġmonit":5725,"People":5726,"ĠDam":5727,"lv":5728,"ittle":5729,"aint":5730,"Ġacqu":5731,"Ġmouth":5732,"iband":5733,"Ġbrut":5734,"agers":5735,"Ġride":5736,"Ġnegoti":5737,"ĠMun":5738,"ĠOsc":5739,"ĠDavis":5740,"ickets":5741,"etts":5742,"Ġentertain":5743,"Ġham":5744,"ĠYorkshire":5745,"Ġspoken":5746,"Ġpolicies":5747,"Ġanniversary":5748,"Police":5749,"afe":5750,"Ġpresence":5751,"ĠFour":5752,"Ġhouses":5753,"ĠHart":5754,"Ġsight":5755,"ycle":5756,"ĠÂ»":5757,"elle":5758,"illance":5759,"Ġchest":5760,"Some":5761,"Ġlarger":5762,"Ġbrothers":5763,"Ġstores":5764,"Ġsurrounding":5765,"Ġmaybe":5766,"ios":5767,"IC":5768,"ademy":5769,"Ġgovernor":5770,"PR":5771,"Ġelder":5772,"Ġprimary":5773,"works":5774,"asters":5775,"tered":5776,"appy":5777,"ĠGal":5778,"Ġmemory":5779,"ĠColl":5780,"Ġincreasingly":5781,"wich":5782,"ĠBelg":5783,"ader":5784,"Ġepis":5785,"Ġbabies":5786,"ĠDuchess":5787,"Ġreading":5788,"Ġmort":5789,"Ġgat":5790,"Ġcomplaint":5791,"Ġsuppl":5792,"ĠColorado":5793,"Ġcauses":5794,"idden":5795,"Ġdepart":5796,"ĠGary":5797,"ĠHuman":5798,"Ġslight":5799,"Ġtribute":5800,"Ġjet":5801,"Ġemail":5802,"Ġfunding":5803,"ucted":5804,"agh":5805,"Ġ39":5806,"Ġspecies":5807,"Ġargued":5808,"assy":5809,"anna":5810,"Ġshape":5811,"Ġcollaps":5812,"Ġmanagement":5813,"ĠMiami":5814,"Ġ44":5815,"Ġfacility":5816,"ĠInstead":5817,"Ġconsult":5818,"Ġ1990":5819,"uana":5820,"ĠAv":5821,"ĠMa":5822,"Ġphones":5823,"osure":5824,"Ġurg":5825,"lected":5826,"Ġsons":5827,"ĠHong":5828,"Ġproduce":5829,"Ġexpress":5830,"ivity":5831,"Ġdesigner":5832,"70":5833,"ĠMiliband":5834,"ĠEverton":5835,"ĠFI":5836,"Ġbin":5837,"Ġsear":5838,"ovel":5839,"Ġextrem":5840,"leg":5841,"Ġannouncement":5842,"Ġguns":5843,"agram":5844,"Ġunderstood":5845,"izz":5846,"hour":5847,"Ġadult":5848,"Ġmodels":5849,"Ġbigger":5850,"Ġmayor":5851,"ĠCentre":5852,"Ġinterested":5853,"urd":5854,"Ġforg":5855,"Ġvess":5856,"Ġremind":5857,"town":5858,"Ġsubst":5859,"bourne":5860,"ĠRonaldo":5861,"Ġverd":5862,"Ġrushed":5863,"person":5864,"ĠNorthern":5865,"ĠElizabeth":5866,"Ġhelicopter":5867,"Ġclimate":5868,"father":5869,"ĠSaud":5870,"Ġunve":5871,"Ġparliament":5872,"Ġdeploy":5873,"era":5874,"Ġdomin":5875,"ĠBurn":5876,"Ġvulner":5877,"Ġaltern":5878,"ocking":5879,"IN":5880,"hatt":5881,"Ġexperienced":5882,"Ġeditor":5883,"ĠABC":5884,"Ġrail":5885,"inet":5886,"Ġshirt":5887,"Ġmic":5888,"Ġprofessor":5889,"ĠEvans":5890,"To":5891,"Ġsought":5892,"ijuana":5893,"Ġanalys":5894,"achus":5895,"half":5896,"Ġcolour":5897,"immer":5898,"ĠDub":5899,"Ġathlet":5900,"Ġfatal":5901,"sters":5902,"Ġcontacted":5903,"Ġdisaster":5904,"ospitals":5905,"Ġstrength":5906,"worth":5907,"char":5908,"ĠAbb":5909,"ban":5910,"vey":5911,"Ġdetermine":5912,"Ġhal":5913,"Ġdozens":5914,"Ġexhib":5915,"Ġinstit":5916,"utation":5917,"Ġbeating":5918,"ĠCal":5919,"Ġwitnesses":5920,"Ġplays":5921,"part":5922,"mad":5923,"andez":5924,"Ġpieces":5925,"Ġknowledge":5926,"Ġcreating":5927,"Sh":5928,"Ġaccepted":5929,"wise":5930,"ĠInc":5931,"Ġacting":5932,"usted":5933,"ĠSuarez":5934,"Ġoption":5935,"Ġplanet":5936,"ĠHor":5937,"Ġestablish":5938,"Ġstone":5939,"Ġgolf":5940,"Ġlands":5941,"Ġfeatured":5942,"Ġlegislation":5943,"achusetts":5944,"ĠDutch":5945,"abor":5946,"ĠAli":5947,"Ġplat":5948,"Ġbusy":5949,"Ġsparked":5950,"ĠHotel":5951,"Ġsom":5952,"ĠArt":5953,"Ġrecovered":5954,"Ġblame":5955,"Ġadvantage":5956,"aden":5957,"icient":5958,"Ġstruggle":5959,"Ġeasily":5960,"ography":5961,"ĠOhio":5962,"Ġ195":5963,"ifer":5964,"Ġplastic":5965,"Ġstadium":5966,"aks":5967,"Ġpanel":5968,"rip":5969,"ĠIv":5970,"reck":5971,"ĠAtlanta":5972,"state":5973,"Ġskills":5974,"aying":5975,"Ġsmoke":5976,"Ġrising":5977,"iter":5978,"pet":5979,"Ġmir":5980,"Ġtort":5981,"Ġboot":5982,"EA":5983,"ĠParliament":5984,"Ġkiller":5985,"ĠPac":5986,"Ġ46":5987,"ĠPortug":5988,"Ġscheme":5989,"Ġattempts":5990,"Ġhappens":5991,"ĠTrust":5992,"Ġlucky":5993,"rivals":5994,"Ġeastern":5995,"ĠHod":5996,"Ġlikes":5997,"Ġhousing":5998,"Ġongoing":5999,"Ġbond":6000,"Ġproved":6001,"Ġinitial":6002,"Ġidentity":6003,"Ġmyster":6004,"Ġunion":6005,"uate":6006,"ni":6007,"sts":6008,"ijing":6009,"Ġ@":6010,"Ġpotentially":6011,"Ġvisiting":6012,"Ġnations":6013,"Ġprosecutor":6014,"Ġprosecution":6015,"Ġchanging":6016,"Ġrefuge":6017,"enders":6018,"Ġcoc":6019,"Ġinquest":6020,"Ġrejected":6021,"Ġinquiry":6022,"Ġscience":6023,"Ġbreaking":6024,"Ġbars":6025,"istol":6026,"Ġpunish":6027,"etic":6028,"Ġ2016":6029,"ocol":6030,"ĠResearch":6031,"Ġriver":6032,"American":6033,"Ġevac":6034,"Ġdeputy":6035,"Ġidentify":6036,"ĠSnow":6037,"Ġlying":6038,"Ġintended":6039,"Ġdemocr":6040,"Ġtast":6041,"Ġsexually":6042,"ĠWhy":6043,"employ":6044,"Ġheads":6045,"Ġlocated":6046,"ĠNA":6047,"Ġgeneration":6048,"Ġexclus":6049,"ronic":6050,"osis":6051,"asket":6052,"Ġbare":6053,"Ġdecisions":6054,"Ġremark":6055,"rad":6056,"Ġcommunities":6057,"Ġfilmed":6058,"Ġunlikely":6059,"Ġmeat":6060,"eph":6061,"ias":6062,"ĠDefense":6063,"Ġtempor":6064,"bell":6065,"Ġspirit":6066,"ĠTen":6067,"Ġkil":6068,"Ġfallen":6069,"Ġletters":6070,"mosp":6071,"Ġproposed":6072,"Ġ55":6073,"ĠMassachusetts":6074,"Ġweak":6075,"ĠPan":6076,"ĠCole":6077,"Ġscream":6078,"pper":6079,"ĠIraqi":6080,"ĠMilan":6081,"Ġliber":6082,"rah":6083,"Ġpossibility":6084,"ĠHamilton":6085,"Ġprovince":6086,"ĠCru":6087,"opp":6088,"standing":6089,"Ġlearning":6090,"oom":6091,"Ġtum":6092,"ĠOk":6093,"Ġvast":6094,"ĠAnt":6095,"Un":6096,"Ġlegend":6097,"ĠSwed":6098,"Ġobject":6099,"Ġoccasion":6100,"Ġconversation":6101,"ĠBern":6102,"Ġhappening":6103,"Ġfilled":6104,"ĠAnderson":6105,"Ġegg":6106,"Ġstruggled":6107,"Ġjournalist":6108,"istor":6109,"Ġperman":6110,"hattan":6111,"Ġdollars":6112,"Ġreact":6113,"ĠFeder":6114,"Ġrum":6115,"isf":6116,"Ġperformed":6117,"roat":6118,"ĠMcG":6119,"ĠBridge":6120,"Ġtravelling":6121,"Ġgathered":6122,"Ġambulance":6123,"Ġcorrect":6124,"olk":6125,"ĠHarris":6126,"terling":6127,"Ġpled":6128,"Ġcomplaints":6129,"ĠFoundation":6130,"Ġteachers":6131,"Ġfindings":6132,"Ġmistake":6133,"ipping":6134,"ĠCross":6135,"ossible":6136,"Ġticket":6137,"Ġhistoric":6138,"Ġalb":6139,"Ġwine":6140,"Ġcup":6141,"esc":6142,"Ġaffil":6143,"ĠManhattan":6144,"Ġroute":6145,"Ġstandard":6146,"Ġcook":6147,"ĠMand":6148,"Ġbehavior":6149,"Ġdelivered":6150,"Ġconducted":6151,"umped":6152,"Ġtears":6153,"Ġjournalists":6154,"Ġvice":6155,"Ġweigh":6156,"ĠUs":6157,"ĠCommun":6158,"Ġcloser":6159,"Ġremote":6160,"Ġmurdered":6161,"Ġrough":6162,"Ġdeveloping":6163,"Is":6164,"ĠStaff":6165,"Ġassess":6166,"obody":6167,"ano":6168,"ĠSaudi":6169,"Ġrebels":6170,"Ġ41":6171,"Ġinches":6172,"owell":6173,"Ġtaxp":6174,"ext":6175,"Ġflo":6176,"Ġpal":6177,"Ġimmediate":6178,"Ġrobber":6179,"ĠBoe":6180,"Ġfilms":6181,"Ġencoun":6182,"Ġembarrass":6183,"ĠIan":6184,"Ġpublicly":6185,"ortunately":6186,"Ġfought":6187,"Ġsteal":6188,"Ġdegree":6189,"usion":6190,"Ġequal":6191,"Ġut":6192,"ĠVilla":6193,"ece":6194,"300":6195,"Ġchoose":6196,"borne":6197,"After":6198,"Ġfunds":6199,"ĠMichelle":6200,"Ġinvestment":6201,"ĠBarb":6202,"Ġtransform":6203,"Ġopinion":6204,"Ġsurprised":6205,"ĠCab":6206,"Ġearned":6207,"ĠFrancisco":6208,"imp":6209,"ĠMoscow":6210,"Ġburg":6211,"Ġnotice":6212,"Ġacknowled":6213,"Ġlanding":6214,"Ġcandidates":6215,"ĠCook":6216,"ĠAllen":6217,"Ġnoticed":6218,"related":6219,"Ġfocused":6220,"Ġblamed":6221,"Ġincidents":6222,"weight":6223,"ĠRead":6224,"Ġconservative":6225,"ĠHenry":6226,"hi":6227,"Ġmostly":6228,"ĠDer":6229,"eren":6230,"Ġorganiz":6231,"Ġcells":6232,"eline":6233,"Ġstayed":6234,"Ġ47":6235,"Ġcoverage":6236,"ingly":6237,"ĠTw":6238,"Ġdivorce":6239,"ĠMayor":6240,"ĠLady":6241,"Ġviewers":6242,"Ġemployee":6243,"Ġcelebrates":6244,"Ġchallenges":6245,"Ġrelax":6246,"Ġsmaller":6247,"Ġrooms":6248,"Ġlights":6249,"Ġbull":6250,"Ġcompens":6251,"Ġtesting":6252,"Ġacts":6253,"minute":6254,"ko":6255,"Ġ1980":6256,"Ġpromised":6257,"ĠSea":6258,"Ġcorpor":6259,"Ġnar":6260,"ĠHun":6261,"cont":6262,"ounced":6263,"Ġoptions":6264,"Ġexchange":6265,"ĠJay":6266,"Ġclient":6267,"ĠBus":6268,"Ġsorry":6269,"Ġsemi":6270,"Ġairline":6271,"Ġsurveillance":6272,"Ġtourists":6273,"Ġbroadcast":6274,"Ġtomorrow":6275,"ĠLanc":6276,"Ġresort":6277,"Ġtragic":6278,"Ġpassing":6279,"strong":6280,"Ġjoint":6281,"Ġmethod":6282,"Ġpainting":6283,"Ġwidely":6284,"Ġpresented":6285,"away":6286,"Ġparent":6287,"Ġchances":6288,"eme":6289,"Ar":6290,"ĠAirl":6291,"ĠBeijing":6292,"ĠFab":6293,"ita":6294,"ĠNBC":6295,"ĠSquare":6296,"Ġresources":6297,"ĠMessi":6298,"Ġprosp":6299,"Ġblow":6300,"Ġcomplained":6301,"Ġhelps":6302,"Le":6303,"sec":6304,"Ġlunch":6305,"Ġmusc":6306,"ĠTown":6307,"astern":6308,"Ġtele":6309,"fford":6310,"Ġnurse":6311,"Ġgrandmother":6312,"ĠLibya":6313,"stal":6314,"Ġroof":6315,"ĠFort":6316,"agement":6317,"ĠRock":6318,"ĠInstagram":6319,"Ġdefinitely":6320,"opher":6321,"Ġtall":6322,"ĠLeices":6323,"iated":6324,"Ġseats":6325,"Ġconsidering":6326,"atal":6327,"ĠPrincess":6328,"Ġprefer":6329,"Ġstaying":6330,"Ġoverall":6331,"ordon":6332,"Ġthrown":6333,"IP":6334,"Ġadvoc":6335,"Ġpoliticians":6336,"uster":6337,"Ġmagn":6338,"Ġverdict":6339,"ĠLar":6340,"Ġfiref":6341,"eland":6342,"iform":6343,"Ġmarijuana":6344,"Ġstick":6345,"Ġlanded":6346,"enses":6347,"Ġchain":6348,"ĠAsia":6349,"ĠNFL":6350,"Ġlargely":6351,"Ġprec":6352,"ĠPhill":6353,"Ġconsequ":6354,"Ġcommand":6355,"estyle":6356,"With":6357,"Ġslam":6358,"ĠMarc":6359,"Ġburied":6360,"Ġbasis":6361,"Ġstuck":6362,"assador":6363,"Ġwal":6364,"Ġpersonnel":6365,"Ġoperating":6366,"ĠUt":6367,"ĠRa":6368,"Ġmetal":6369,"reek":6370,"Ġbuying":6371,"Ġtim":6372,"Ġhousehold":6373,"Ġsup":6374,"Ġgreatest":6375,"ĠFootball":6376,"ĠYet":6377,"ĠJac":6378,"Ġpossession":6379,"ĠTs":6380,"Ġstabbed":6381,"ĠAbu":6382,"ĠKir":6383,"Ġpassion":6384,"Ġcelebrity":6385,"Ġroutine":6386,"Ġinvestigate":6387,"Ġporn":6388,"Ġdriven":6389,"Ġmountain":6390,"BA":6391,"Ġclothing":6392,"ĠCra":6393,"Ġveteran":6394,"Ġtask":6395,"Ġtrees":6396,"Ġcards":6397,"ĠBrian":6398,"Ġsquare":6399,"Ġstock":6400,"ĠAlexander":6401,"Ġven":6402,"Ġ08":6403,"Ġhoped":6404,"ĠLy":6405,"24":6406,"Ġoffences":6407,"Ġhole":6408,"Ġ49":6409,"Ġdismissed":6410,"Ġ65":6411,"ĠRights":6412,"ounted":6413,"just":6414,"Ġbathroom":6415,"Ġwrite":6416,"ĠCooper":6417,"Ġnumerous":6418,"ĠSher":6419,"ateg":6420,"ĠHamp":6421,"Ġretire":6422,"ĠLam":6423,"ench":6424,"ogue":6425,"Ġshar":6426,"Ġagencies":6427,"Ġpossibly":6428,"Ġwaters":6429,"stone":6430,"ĠLau":6431,"Ġterrit":6432,"Ġheading":6433,"uts":6434,"Ġmax":6435,"Ġactivists":6436,"ĠSterling":6437,"ĠWayne":6438,"ansas":6439,"week":6440,"Ġheaded":6441,"Ġcombat":6442,"esty":6443,"Ġconsist":6444,"Ġrestr":6445,"ishes":6446,"Ġprivacy":6447,"agon":6448,"Ġdrag":6449,"ĠMexican":6450,"Ġconstruction":6451,"iamond":6452,"tha":6453,"Ġdance":6454,"Ġ150":6455,"Ġremaining":6456,"Ġtrained":6457,"Ġheavily":6458,"iable":6459,"acks":6460,"Ġatmosp":6461,"Ġmuseum":6462,"Ġvulnerable":6463,"Ġadds":6464,"ĠMars":6465,"ĠChannel":6466,"ĠFIFA":6467,"Now":6468,"Ġcivilians":6469,"Ġnor":6470,"oli":6471,"Ġdistrib":6472,"irts":6473,"eing":6474,"Ġ(Â£":6475,"ĠDuke":6476,"Ġgrown":6477,"Ġoccup":6478,"burgh":6479,"ĠOnce":6480,"abled":6481,"Ġprofile":6482,"Ġcalm":6483,"ĠIll":6484,"Ġprin":6485,"Ġsupported":6486,"ĠTop":6487,"ĠValley":6488,"ĠSant":6489,"Ġ194":6490,"ĠOscar":6491,"ĠAmong":6492,"Ġedge":6493,"Ġweren":6494,"Ġcritics":6495,"point":6496,"arre":6497,"ĠHou":6498,"Ġsection":6499,"ria":6500,"Ġinfection":6501,"Ġhumans":6502,"rified":6503,"ĠCare":6504,"ugby":6505,"stein":6506,"Ġanonym":6507,"ĠLas":6508,"Ġdisappeared":6509,"sylv":6510,"Ġwelcome":6511,"hy":6512,"ĠWomen":6513,"Her":6514,"ĠCC":6515,"Ġalbum":6516,"RA":6517,"Ġaccus":6518,"ĠRoss":6519,"igned":6520,"ĠSix":6521,"Ġcapture":6522,"Ġreplaced":6523,"Ġseized":6524,"ellor":6525,"Ġeur":6526,"Ġsav":6527,"Ġshoes":6528,"ĠSheriff":6529,"Ġauthority":6530,"Ġvoted":6531,"ĠBuck":6532,"earing":6533,"Ġproperly":6534,"Ġkiss":6535,"inct":6536,"Ġabandoned":6537,"oster":6538,"Ġteenage":6539,"ashing":6540,"sylvania":6541,"Ġ75":6542,"ĠPatrick":6543,"istics":6544,"Ġhonor":6545,"Ġwhatever":6546,"stron":6547,"Ġgym":6548,"Ġsupply":6549,"Ġbanks":6550,"Ġswimming":6551,"Ġdisorder":6552,"ĠOnly":6553,"style":6554,"inent":6555,"arch":6556,"Ġtested":6557,"Ġtennis":6558,"ogan":6559,"ĠGraham":6560,"ĠUp":6561,"Rep":6562,"Ġroads":6563,"ĠCharlie":6564,"Ġqual":6565,"mph":6566,"Ġempt":6567,"ĠIranian":6568,"ĠLet":6569,"asy":6570,"Ġparking":6571,"hens":6572,"Ġterrorism":6573,"Ġwins":6574,"ulous":6575,"Ġyellow":6576,"Ġstrategy":6577,"adian":6578,"Ġaccomp":6579,"ĠJane":6580,"Ġclimb":6581,"ĠVer":6582,"Ġtend":6583,"emic":6584,"Ġnegative":6585,"ĠJosh":6586,"rence":6587,"Ġrom":6588,"Ġhall":6589,"ĠBul":6590,"Ġbacked":6591,"Ġtargets":6592,"Ġrevel":6593,"Ġchose":6594,"Ġstunning":6595,"Ġpension":6596,"Ġobviously":6597,"lan":6598,"agger":6599,"Ġdistance":6600,"Ġscenes":6601,"Ġremarks":6602,"ĠWork":6603,"ĠSomal":6604,"Ġfounder":6605,"Ġworldwide":6606,"Ġdoors":6607,"Ġscale":6608,"Ġtie":6609,"Ġhospitals":6610,"icip":6611,"Ġyourself":6612,"Ġbags":6613,"yr":6614,"rees":6615,"sewhere":6616,"Ġbelief":6617,"market":6618,"rome":6619,"Ġnovel":6620,"ache":6621,"ĠPennsylvania":6622,"ĠBet":6623,"Ġguys":6624,"ĠStan":6625,"Ġcoin":6626,"Ġmap":6627,"look":6628,"ports":6629,"Ġjack":6630,"Ġelderly":6631,"Ġpupils":6632,"Ġuniform":6633,"Ġstudies":6634,"whel":6635,"Ġrich":6636,"Ġsees":6637,"Ġexcited":6638,"Ġintent":6639,"elfare":6640,"Ġawarded":6641,"Ġdetail":6642,"ĠLike":6643,"Ġinsists":6644,"Ġlots":6645,"ĠMax":6646,"ĠMalays":6647,"Ġanger":6648,"ĠAirlines":6649,"urban":6650,"Ġnom":6651,"ĠJoseph":6652,"Ġtea":6653,"Ġraising":6654,"Ġpointed":6655,"Ġcontroversy":6656,"Ġreputation":6657,"Ġspring":6658,"Ġtalked":6659,"acle":6660,"ĠJason":6661,"ĠSwan":6662,"Ġbills":6663,"Ġcollapsed":6664,"Ġprisoners":6665,"Ġarrive":6666,"Ġplatform":6667,"ĠIrish":6668,"Ġtraum":6669,"ĠShow":6670,"afi":6671,"Ġtrail":6672,"Ġgranted":6673,"ĠMuseum":6674,"ĠLeon":6675,"fast":6676,"Ġprograms":6677,"ĠKerry":6678,"ĠFern":6679,"Ġbottle":6680,"ĠUN":6681,"ĠPublic":6682,"ĠVegas":6683,"Ġnone":6684,"Ġthinks":6685,"ÂłÂłÂłÂłÂłÂłÂłÂł":6686,"Ġstom":6687,"Ġadmits":6688,"ĠDoct":6689,"Ġexposed":6690,"Ġterrorists":6691,"Ġimpressive":6692,"ĠQueens":6693,"lines":6694,"Ġtradition":6695,"Ġreveals":6696,"ĠWatson":6697,"Ġvirt":6698,"ĠRick":6699,"Ġtun":6700,"Ġisol":6701,"ĠJr":6702,"Ġbridge":6703,"ervation":6704,"centre":6705,"Ġmedal":6706,"****":6707,"Ġrat":6708,"Ġmotiv":6709,"Ġliter":6710,"Ġ1970":6711,"okes":6712,"Ġmemorial":6713,"ĠMu":6714,"Ġ52":6715,"Ġapproved":6716,"Ġfriendly":6717,"ĠTurk":6718,"Ġgoalkeeper":6719,"allas":6720,"arant":6721,"ye":6722,"Ġcourts":6723,"ĠColomb":6724,"Ġnose":6725,"place":6726,"Ġlady":6727,"ila":6728,"Ġreferred":6729,"awn":6730,"Ġeasier":6731,"ĠRoman":6732,"Ġcanc":6733,"SP":6734,"Ġgrounds":6735,"ĠKhan":6736,"Ġcriticised":6737,"ĠWho":6738,"ĠCrime":6739,"ĠRel":6740,"Ġreduced":6741,"Ġzone":6742,"Ġdesperate":6743,"Ġknee":6744,"Ġgall":6745,"ĠTerry":6746,"Ġoutbreak":6747,"Ġflew":6748,"fall":6749,"Ġmedic":6750,"Ġstrikes":6751,"umber":6752,"Ġtherap":6753,"ĠLaur":6754,"ĠMen":6755,"Ġtact":6756,"Ġsurvive":6757,"ĠUSA":6758,"ĠBru":6759,"Ġ400":6760,"Ġsymb":6761,"Ġcoffee":6762,"Ġassociated":6763,"ĠMelbourne":6764,"Ġeverybody":6765,"Ġinterests":6766,"Ġsubs":6767,"rum":6768,"Ġlisted":6769,"Ġdry":6770,"Ġsilver":6771,"Ġlie":6772,"Ġplenty":6773,"Ġconviction":6774,"wall":6775,"adow":6776,"hand":6777,"Ġappoint":6778,"ĠJournal":6779,"Ġsets":6780,"ĠEdward":6781,"erves":6782,"Ġthoughts":6783,"quarters":6784,"Ġstepped":6785,"Ġhate":6786,"Ġinsist":6787,"Ġdozen":6788,"21":6789,"Ġthreatening":6790,"Ġrealised":6791,"obs":6792,"Ġargument":6793,"ira":6794,"Ġjur":6795,"Ġstomach":6796,"ĠJonathan":6797,"Ġoffensive":6798,"ĠGreg":6799,"Ġmicro":6800,"Ġsupporting":6801,"osen":6802,"Ġwinds":6803,"ĠOxford":6804,"Ġestablished":6805,"Ġimpossible":6806,"Ġabroad":6807,"uez":6808,"ouri":6809,"Ġdrawn":6810,"ĠAbout":6811,"ĠAndre":6812,"ibr":6813,"Ġexplosion":6814,"Ġlocked":6815,"ĠMit":6816,"ĠWenger":6817,"Ġarrival":6818,"ĠMuslims":6819,"ĠHouston":6820,"Ġasp":6821,"Ġfeared":6822,"Ġdirection":6823,"Ġescaped":6824,"care":6825,"elson":6826,"Ġstring":6827,"iot":6828,"Ġtroub":6829,"ĠNev":6830,"ĠChristopher":6831,"27":6832,"Ġnotes":6833,"Ġdeeply":6834,"Ġrivals":6835,"ĠArm":6836,"Ġsurviv":6837,"400":6838,"AR":6839,"Ġtied":6840,"ĠLuis":6841,"iev":6842,"Ġresol":6843,"23":6844,"Ġstarts":6845,"Ġpin":6846,"90":6847,"aser":6848,"olds":6849,"ancellor":6850,"Ġstatements":6851,"ĠFederal":6852,"Ġrisks":6853,"gun":6854,"ta":6855,"Ġapproached":6856,"ĠLife":6857,"brit":6858,"lah":6859,"eding":6860,"acity":6861,"Ġprompted":6862,"ĠAshley":6863,"Ġcomfortable":6864,"ĠBest":6865,"ĠAssociated":6866,"Ġdiscipl":6867,"har":6868,"ĠCCTV":6869,"Ġtickets":6870,"ĠSpace":6871,"ĠIndones":6872,"Ġsomebody":6873,"ordinary":6874,"ĠGun":6875,"ĠLeicester":6876,"Ġcongress":6877,"Ġdiscovery":6878,"bec":6879,"Ġcoalition":6880,"amin":6881,"Ġelected":6882,"Ġcouples":6883,"centr":6884,"igaret":6885,"Ġcontinuing":6886,"Ġpregnancy":6887,"Ġtor":6888,"izes":6889,"Ġhighl":6890,"Ġcustomer":6891,"Ġcocaine":6892,"Ġscre":6893,"ĠWild":6894,"rich":6895,"ishop":6896,"Ġtoile":6897,"Ġunless":6898,"Ġfollowers":6899,"agan":6900,"called":6901,"Ġsanctions":6902,"ords":6903,"Ġdiscover":6904,"Ġwid":6905,"Ġatmosphere":6906,"Ġwaste":6907,"rapped":6908,"ĠScient":6909,"ĠHern":6910,"ĠCop":6911,"ĠRodgers":6912,"Ġconcluded":6913,"Ġleads":6914,"ĠChristie":6915,"Ġvacc":6916,"Ġwonderful":6917,"brities":6918,"Ġunemploy":6919,"Ġopinions":6920,"Ġrelief":6921,"Ġclosely":6922,"ĠSanta":6923,"ĠStand":6924,"Ġmothers":6925,"ĠTele":6926,"ĠGaza":6927,"ĠBell":6928,"Ġbalance":6929,"Ġinternal":6930,"ĠMichigan":6931,"ĠBayern":6932,"ĠAnton":6933,"aska":6934,"IV":6935,"Ġunclear":6936,"underland":6937,"ĠMat":6938,"Ġappropriate":6939,"37":6940,"Ġmer":6941,"Ġment":6942,"Ġtruly":6943,"Ġfake":6944,"Ġprocedure":6945,"ĠTeam":6946,"piracy":6947,"ĠTest":6948,"ĠPhilipp":6949,"Ġcutting":6950,"ĠOrgan":6951,"Ġconsumers":6952,"Ġappearances":6953,"Ġsolution":6954,"Ġthrew":6955,"Ġsatell":6956,"Ġtackle":6957,"bu":6958,"Ġ1999":6959,"Ġimmigrants":6960,"ĠJennifer":6961,"emble":6962,"Ġrocket":6963,"apse":6964,"Ġprovides":6965,"ompson":6966,"Ġencourage":6967,"ancer":6968,"azz":6969,"ĠRobinson":6970,"Ġoutrage":6971,"heast":6972,"Ġreplace":6973,"ĠGulf":6974,"ĠCanadian":6975,"Ġmoon":6976,"Ġtestified":6977,"ortion":6978,"annah":6979,"Ġcleared":6980,"Ġovert":6981,"Ġfollows":6982,"ĠLittle":6983,"Ġunknown":6984,"arents":6985,"Ġjew":6986,"Ġterrible":6987,"ĠSecond":6988,"Ġsoftware":6989,"water":6990,"Ġjumped":6991,"!\"":6992,"atherine":6993,"ĠÂłĠÂłĠÂłĠÂł":6994,"ĠCraig":6995,"âĢī":6996,"dy":6997,"ĠMoore":6998,"ĠMod":6999,"orders":7000,"Ġca":7001,"pan":7002,"ĠLev":7003,"ĠLove":7004,"ĠFred":7005,"Ġvital":7006,"Ġplea":7007,"Ġwound":7008,"Ġforget":7009,"Ġdeter":7010,"ĠEmma":7011,"Ġscores":7012,"Ġdu":7013,"Ġstro":7014,"ĠGov":7015,"Ġpermission":7016,"Ġsweet":7017,"Ġsatisf":7018,"Ġwave":7019,"ĠMot":7020,"ĠHull":7021,"Ġcraz":7022,"ĠGall":7023,"roc":7024,"ĠOur":7025,"Ġdenies":7026,"degree":7027,"ĠCatholic":7028,"Ġfro":7029,"Ġharass":7030,"imal":7031,"ĠNas":7032,"Ġreplied":7033,"itors":7034,"irates":7035,"ĠStill":7036,"Ġadopt":7037,"oyal":7038,"Ġproposal":7039,"Ġcooper":7040,"uties":7041,"Ġjoining":7042,"26":7043,"Ġhitting":7044,"Cl":7045,"Ġhidden":7046,"Ġaimed":7047,"ĠGordon":7048,"Ġcock":7049,"Ġconcentr":7050,"Ġepisode":7051,"erted":7052,"Ġraid":7053,"Ġsuspicion":7054,"ĠWind":7055,"Ġancient":7056,"Ġattacking":7057,"Ġbasic":7058,"ĠCIA":7059,"Ġblind":7060,"Ġbadly":7061,"ĠZimmer":7062,"Ġpreparing":7063,"adel":7064,"Ġdefendant":7065,"ĠYemen":7066,"Ġoverwhel":7067,"ĠWalker":7068,"Ġinte":7069,"Ġerup":7070,"oral":7071,"Ġdetained":7072,"Ġlung":7073,"Ġspons":7074,"Ġdiscrim":7075,"Ġknowing":7076,"gment":7077,"Ġsearching":7078,"Ġheight":7079,"iration":7080,"Ġnewly":7081,"28":7082,"Ġinvited":7083,"ĠEssex":7084,"ros":7085,"Ġmarry":7086,"Ġinvestigated":7087,"ĠHughes":7088,"Ġ09":7089,"Ġembr":7090,"ĠFal":7091,"47":7092,"Ġdrunk":7093,"Ġlifestyle":7094,"MA":7095,"Ġlaid":7096,"Ġhadn":7097,"aug":7098,"Ġmoves":7099,"Ġdevastated":7100,"achel":7101,"ĠPakistani":7102,"Ġpose":7103,"Ġdealing":7104,"ifying":7105,"CC":7106,"Ġrefere":7107,"Ġposed":7108,"acre":7109,"ĠGh":7110,"ĠCampbell":7111,"ĠBang":7112,"Ġplus":7113,"Ġtalent":7114,"chell":7115,"ĠBrother":7116,"Ġminimum":7117,"ĠSpec":7118,"Ġresist":7119,"Ġdeliber":7120,"Ġdiscl":7121,"nic":7122,"ĠExper":7123,"Ġfitness":7124,"aling":7125,"Ġengaged":7126,"Ġprepare":7127,"Ġlabor":7128,"Ġarr":7129,"Ġbasket":7130,"Ġnative":7131,"Ġrecalled":7132,"ĠKo":7133,"Ġrif":7134,"real":7135,"zen":7136,"Ġped":7137,"Ġbehalf":7138,"Ġsuddenly":7139,"ĠJamie":7140,"Ġinvolvement":7141,"Ġslightly":7142,"Ġsurrounded":7143,"Ġwreck":7144,"Ġdub":7145,"itary":7146,"Ġdying":7147,"Ġempty":7148,"ĠSud":7149,"ĠLeeds":7150,"Ġwelfare":7151,"ĠFil":7152,"Ġabused":7153,"Ġshocking":7154,"illiant":7155,"Ġrevolution":7156,"ĠFriend":7157,"Ġrapid":7158,"Ġpushing":7159,"Ġwestern":7160,"ĠUkrain":7161,"Ġcompensation":7162,"nam":7163,"ato":7164,"mann":7165,"Ġbecomes":7166,"ĠSunderland":7167,"ĠSever":7168,"Ġdiss":7169,"Ġtestim":7170,"ĠAlso":7171,"Ġexplains":7172,"itarian":7173,"ĠThompson":7174,"ĠSum":7175,"ĠMah":7176,"ĠBack":7177,"ĠSaf":7178,"stitution":7179,"ĠDirector":7180,"rag":7181,"Ġdocumentary":7182,"ĠRadio":7183,"ĠLand":7184,"Ġmarks":7185,"ecutive":7186,"ĠJessica":7187,"ĠPope":7188,"Ġlies":7189,"Ġfinger":7190,"named":7191,"ĠGreece":7192,"Ġimagine":7193,"Ġreflect":7194,"ĠArch":7195,"Ġbound":7196,"girl":7197,"Ġpock":7198,"Ġministers":7199,"ĠKl":7200,"ĠGlob":7201,"ĠHampshire":7202,"Ġknocked":7203,"AF":7204,"ĠRio":7205,"Ġassistance":7206,"Ġenjoying":7207,"crib":7208,"orous":7209,"Ġshouldn":7210,"ĠPalestinian":7211,"ĠJewish":7212,"Ġbike":7213,"Ġpattern":7214,"Ġ07":7215,"ĠHernandez":7216,"Ġcateg":7217,"ĠTrafford":7218,"amm":7219,"ĠAsked":7220,"raid":7221,"orious":7222,"ĠSport":7223,"Ġunderstanding":7224,"don":7225,"ATO":7226,"ĠNigeria":7227,"Ġjudges":7228,"Ġraped":7229,"Ġdigital":7230,"Ġsett":7231,"ĠWater":7232,"Ġtwe":7233,"Ġtorn":7234,"ito":7235,"Ġarriving":7236,"Ġfavorite":7237,"izarre":7238,"Ġrose":7239,"Ġfacilities":7240,"Ġinstruct":7241,"two":7242,"Ġmeal":7243,"Ġdispute":7244,"ema":7245,"Ġ54":7246,"Ġturns":7247,"ĠPhilip":7248,"ĠPM":7249,"Ġcompete":7250,"Ġrescued":7251,"Ġalternative":7252,"Ġvotes":7253,"Ġkicked":7254,"athon":7255,"Ġsolely":7256,"ĠRose":7257,"ima":7258,"Ġinnocent":7259,"ĠServ":7260,"Ġrecommend":7261,"ĠMarg":7262,"ĠDanny":7263,"ĠOfficials":7264,"ĠWright":7265,"Ġ53":7266,"Ġdescribes":7267,"Ġcann":7268,"Ġrein":7269,"Ġexcess":7270,"ĠRodrig":7271,"pread":7272,"acters":7273,"ĠIts":7274,"Ġreporter":7275,"Ġdefending":7276,"Ġcode":7277,"Ġanx":7278,"Ġtouc":7279,"Ġhorrific":7280,"Ġorders":7281,"Ġbegins":7282,"ĠNich":7283,"phic":7284,"ĠPerry":7285,"Ġenth":7286,"ĠJen":7287,"Ġhonest":7288,"Ġnormally":7289,"essions":7290,"Ġultimately":7291,"isers":7292,"Ġsubsequ":7293,"Ġtatt":7294,"ĠQat":7295,"Ġhide":7296,"Ġpowers":7297,"Ġoverseas":7298,"Ġscared":7299,"ledon":7300,"Ġ51":7301,"Ġ06":7302,"Ġobtained":7303,"Ġdisappearance":7304,"Ġapprec":7305,"ĠTurkish":7306,"ĠTime":7307,"Ġspell":7308,"ĠBecause":7309,"mouth":7310,"azon":7311,"imbledon":7312,"Ġsleeping":7313,"Ġconspiracy":7314,"Ġclim":7315,"ls":7316,"idespread":7317,"Ġnarrow":7318,"Ġcorruption":7319,"ĠOper":7320,"Ġdrinks":7321,"Ġweb":7322,"ĠPeters":7323,"ĠSwansea":7324,"Ġradical":7325,"ĠSk":7326,"Ġjihad":7327,"free":7328,"maker":7329,"ĠRev":7330,"obby":7331,"ĠBry":7332,"olas":7333,"Ġguarant":7334,"ĠWeek":7335,"cia":7336,"Ġcha":7337,"Ġblast":7338,"Ġchosen":7339,"Ġracing":7340,"Ġbombing":7341,"ĠFollowing":7342,"ĠAbbott":7343,"Ġ1998":7344,"Ġing":7345,"Ġdrama":7346,"exp":7347,"istrates":7348,"ĠHear":7349,"ranged":7350,"Ġlift":7351,"Ġdire":7352,"ĠClegg":7353,"icked":7354,"Ġsmile":7355,"Ġsmoking":7356,"ĠAsian":7357,"Ġconce":7358,"Ġastron":7359,"29":7360,"Ġadopted":7361,"class":7362,"Ġtheft":7363,"Ġformed":7364,"ĠClark":7365,"utional":7366,"ĠFel":7367,"Ġcharacters":7368,"ĠSee":7369,"Ġrelatively":7370,"Ġunveiled":7371,"Ġtur":7372,"Ġwalls":7373,"ĠHold":7374,"Ġwithdraw":7375,"ĠGet":7376,"Ġocean":7377,"Ġtrapped":7378,"ĠSupp":7379,"odes":7380,"Ġmatters":7381,"king":7382,"ompl":7383,"Ġiconic":7384,"Ġplanes":7385,"Ġvent":7386,"Ġsolar":7387,"Ġchat":7388,"areness":7389,"equ":7390,"LL":7391,"lahoma":7392,"Ġburgl":7393,"ĠStew":7394,"ĠBristol":7395,"Ġanalysis":7396,"ĠGib":7397,"Ġmetres":7398,"Ġswitch":7399,"Ġcelebrities":7400,"ES":7401,"ĠMissouri":7402,"ĠCommons":7403,"iders":7404,"ĠJean":7405,"ĠDallas":7406,"Ġteeth":7407,"ĠSociety":7408,"Ġwaves":7409,"Ġwrites":7410,"Ġwounds":7411,"Ġfantastic":7412,"ĠBrazilian":7413,"Ġideas":7414,"Ġfestival":7415,"yard":7416,"Ġposting":7417,"Ġdecor":7418,"Ġentirely":7419,"ĠRub":7420,"Ġdescribe":7421,"icious":7422,"umed":7423,"Ġintense":7424,"put":7425,"Ġpurpose":7426,"ĠPers":7427,"Ġdedicated":7428,"tic":7429,"Ġfirms":7430,"ĠWimbledon":7431,"Ġshoulder":7432,"Ġties":7433,"Ġshares":7434,"Ġpayments":7435,"Ġtaxes":7436,"ĠZimmerman":7437,"ĠDave":7438,"Ġfee":7439,"Ġreporting":7440,"ĠSorry":7441,"rard":7442,"ĠNATO":7443,"overty":7444,"Ġveget":7445,"Ġpresenter":7446,"ingham":7447,"Ġmal":7448,"Ġbreath":7449,"ĠAcademy":7450,"iverse":7451,"Ġbench":7452,"ocolate":7453,"tra":7454,"ĠLaura":7455,"Ġshops":7456,"ĠId":7457,"Ġmaximum":7458,"Ġdemanded":7459,"bar":7460,"ivery":7461,"otherap":7462,"Ġspecialist":7463,"ĠTurn":7464,"eor":7465,"Ġvision":7466,"ĠLyn":7467,"Ġgift":7468,"usive":7469,"ĠVill":7470,"ĠHillary":7471,"Ġconnected":7472,"Ġproperties":7473,"Ġnaked":7474,"DA":7475,"Ġtotally":7476,"Ġwindows":7477,"36":7478,"ifts":7479,"--":7480,"Ġinformed":7481,"Ġaccepting":7482,"Ġrally":7483,"ĠRh":7484,"eller":7485,"Ġtank":7486,"irty":7487,"esh":7488,"Ġstream":7489,"Ġpink":7490,"Ġclassic":7491,"Ġracist":7492,"Ġsixth":7493,"38":7494,"Ġ56":7495,"Ġdefended":7496,"ĠHard":7497,"Ġdrew":7498,"rystal":7499,"Ġconsequences":7500,"Ġfruit":7501,"ĠInsp":7502,"Ġrural":7503,"Ġlisten":7504,"Ġpit":7505,"Ġtear":7506,"ĠBas":7507,"Ġpermanent":7508,"oln":7509,"ĠJimmy":7510,"Ġattempting":7511,"ĠAtlantic":7512,"ĠSocial":7513,"Ġmos":7514,"ora":7515,"Ġentit":7516,"Ġ($":7517,"ooth":7518,"Ġarrests":7519,"Ġcommitment":7520,"ĠBlair":7521,"aron":7522,"ĠOklahoma":7523,"Ġimplement":7524,"ĠConnect":7525,"Ġdepression":7526,"Ġgap":7527,"Ġprize":7528,"ĠSub":7529,"Ġstructure":7530,"echan":7531,"iece":7532,"Ġprojects":7533,"ĠBond":7534,"Ġpoison":7535,"ĠCelt":7536,"ĠBall":7537,"eping":7538,"Ġstated":7539,"ĠPhot":7540,"olitan":7541,"uls":7542,"gio":7543,"Ġchildhood":7544,"ando":7545,"Ġtestimony":7546,"Ġpig":7547,"Ġmarked":7548,"Ġtravelled":7549,"ardo":7550,"phia":7551,"Ġarchit":7552,"ridge":7553,"Ġapply":7554,"Ġopportunities":7555,"but":7556,"aval":7557,"how":7558,"ĠServices":7559,"ĠEgyptian":7560,"ĠJustin":7561,"ologists":7562,"low":7563,"Ġhandle":7564,"inois":7565,"Ġlover":7566,"Ġanywhere":7567,"idelines":7568,"Ġshift":7569,"OW":7570,"ĠPot":7571,"Ġod":7572,"ĠHy":7573,"onna":7574,"Ġoffence":7575,"ĠNeil":7576,"Ġinteresting":7577,"ĠFair":7578,"Ġbattery":7579,"ĠKer":7580,"Ġextraordinary":7581,"ĠStoke":7582,"itable":7583,"aya":7584,"Ġcrucial":7585,"Ġquit":7586,"Ġextended":7587,"Ġcapable":7588,"Ġ911":7589,"Ġmilk":7590,"Ġfewer":7591,"adelphia":7592,"ĠUkrainian":7593,"shot":7594,"Ġaffiliate":7595,"ĠConservative":7596,"mitted":7597,"ĠHunt":7598,"Ġattending":7599,"Ġge":7600,"Ġincredibly":7601,"Ġtonight":7602,"Ġearn":7603,"die":7604,"ĠWhit":7605,"Ġdemanding":7606,"ĠRobin":7607,"ĠTransport":7608,"ĠOfficers":7609,"aby":7610,"Ġrobbery":7611,"Ġadvance":7612,"rene":7613,"Ġbrilliant":7614,"Ġpromise":7615,"ĠBroad":7616,"Ġcasual":7617,"ĠEach":7618,"minster":7619,"Ġwidespread":7620,"Ġpromote":7621,"Ġovernight":7622,"ĠHodg":7623,"ĠAnna":7624,"ĠAdmin":7625,"ĠEdwards":7626,"Ġera":7627,"ĠMunich":7628,"Ġscan":7629,"ĠLA":7630,"inez":7631,"ĠMohammed":7632,"Ġbombs":7633,"Ex":7634,"ĠMother":7635,"mers":7636,"ĠBull":7637,"ĠPolit":7638,"Ġchampionship":7639,"ĠAmazon":7640,"ĠOcean":7641,"rett":7642,"Ġexpand":7643,"ĠYesterday":7644,"Ġbes":7645,"Ġsector":7646,"ĠAre":7647,"Ġafraid":7648,"39":7649,"Ġjoy":7650,"Ġbirds":7651,"ĠBra":7652,"ĠThough":7653,"Ġbullet":7654,"Ġmile":7655,"ĠAny":7656,"ĠEdin":7657,"chair":7658,"Ġmaster":7659,"mo":7660,"icut":7661,"EN":7662,"pers":7663,"ĠMarsh":7664,"Ġotherwise":7665,"ĠCardiff":7666,"ĠPen":7667,"Ġjoke":7668,"Ġbrutal":7669,"iden":7670,"ĠBrom":7671,"dad":7672,"Ġtemperature":7673,"ĠStewart":7674,"Ġcheap":7675,"wick":7676,"600":7677,"Ġking":7678,"Ġmansion":7679,"Ġfile":7680,"def":7681,"Ġstrict":7682,"Ġreward":7683,"Ġdemands":7684,"Ġaggressive":7685,"Ġbeer":7686,"ĠGerrard":7687,"ĠColumb":7688,"Ġmisc":7689,"Ġyards":7690,"Ġsharing":7691,"orough":7692,"Ġintention":7693,"ĠLaden":7694,"Ġclinic":7695,"Sp":7696,"Ġcous":7697,"incoln":7698,"Ġju":7699,"Ġtaught":7700,"Ġfees":7701,"Ġcompar":7702,"athy":7703,"Ġapology":7704,"ĠGirl":7705,"ducing":7706,"Ġcommentary":7707,"ĠOsborne":7708,"Ġscar":7709,"Ġearning":7710,"ĠCarter":7711,"Ġhired":7712,"Ġreun":7713,"Ġchef":7714,"wen":7715,"inced":7716,"ĠMajor":7717,"Ġkillings":7718,"ĠSean":7719,"Ġofficially":7720,"ĠProsecutors":7721,"Ġputs":7722,"ĠCommon":7723,"ĠStone":7724,"Ġcontained":7725,"ĠMarine":7726,"ĠDavies":7727,"Ġdevastating":7728,"Ġaccompl":7729,"ĠMitchell":7730,"Ġprofession":7731,"ĠLt":7732,"Ġhits":7733,"Ġpatrol":7734,"roid":7735,"ĠWoods":7736,"verse":7737,"ĠCrist":7738,"Ġteenagers":7739,"ĠNASA":7740,"Ġru":7741,"ĠPass":7742,"Ġenthus":7743,"ĠFre":7744,"duction":7745,"Ġpriority":7746,"inating":7747,"Ġentr":7748,"icial":7749,"Ġhors":7750,"Ġfill":7751,"oyd":7752,"ĠPacific":7753,"ported":7754,"Ġje":7755,"Ġposts":7756,"Ġathletes":7757,"Bl":7758,"Ġinterviewed":7759,"ĠRodriguez":7760,"ĠSwit":7761,"Ġfamiliar":7762,"ĠNad":7763,"olly":7764,"ĠDeputy":7765,"Ġcollected":7766,"ĠPhiladelphia":7767,"Ġsisters":7768,"ĠLisa":7769,"Ġlinks":7770,"Ġlocations":7771,"Ġconclus":7772,"Ġwriter":7773,"ĠDisney":7774,"cedes":7775,"ĠBruce":7776,"gow":7777,"âĢ¦":7778,"Ġdispl":7779,"lete":7780,"Ġindic":7781,"dr":7782,"ĠSouthern":7783,"ĠAle":7784,"ideo":7785,"inch":7786,"Ġsuperv":7787,"hetic":7788,"ĠIllinois":7789,"ĠJeremy":7790,"Ġtex":7791,"Ġearthqu":7792,"Ġplants":7793,"Ġgained":7794,"Ġsits":7795,"Ġadministr":7796,"otte":7797,"Ġchecks":7798,"ĠAlab":7799,"Ġexplo":7800,"Ġrent":7801,"ĠGlas":7802,"Ġcaps":7803,"Ġawareness":7804,"Ġrestaurants":7805,"ĠChancellor":7806,"col":7807,"ĠWhe":7808,"Ġski":7809,"ĠBrooklyn":7810,"ĠRussell":7811,"Ġfighter":7812,"Ġdeals":7813,"Ġvariety":7814,"Ass":7815,"ĠFood":7816,"Ġpleased":7817,"Ġflowers":7818,"ĠClar":7819,"ĠiPad":7820,"Ġvig":7821,"Ġclients":7822,"75":7823,"ĠJud":7824,"Ne":7825,"Ġreaching":7826,"Ġpunishment":7827,"uine":7828,"enez":7829,"Ġhang":7830,"Ġpleas":7831,"Ġending":7832,"Ġburned":7833,"Ġla":7834,"Ġsugar":7835,"attered":7836,"Ġupdated":7837,"oren":7838,"ĠGill":7839,"Ġsuc":7840,"ĠSandy":7841,"Ġdisappointed":7842,"Ġlabel":7843,"respond":7844,"Ġ1997":7845,"rifying":7846,"ĠRoll":7847,"Ġheadquarters":7848,"Ġexecution":7849,"***":7850,"Ġperforming":7851,"Ġvessel":7852,"Ġmovies":7853,"Ġacknowledged":7854,"pass":7855,"ĠEduc":7856,"soft":7857,"Ġfault":7858,"etime":7859,"ĠConnecticut":7860,"ĠLuke":7861,"Ġintegr":7862,"Ġtranspl":7863,"Ġtries":7864,"dog":7865,"box":7866,"Ġmine":7867,"ĠAmanda":7868,"Ġ05":7869,"Ġadvent":7870,"ĠMedic":7871,"ĠRangers":7872,"Ġward":7873,"Ġguide":7874,"Ġambassador":7875,"Ġaboard":7876,"breaking":7877,"Ġsucceed":7878,"32":7879,"Ġprompt":7880,"Ġcrying":7881,"burn":7882,"Ġtip":7883,"ĠPower":7884,"Ġdubbed":7885,"Ġloves":7886,"Ġgoods":7887,"inate":7888,"ĠAff":7889,"asion":7890,"issions":7891,"lad":7892,"Ġgrave":7893,"Ġpetition":7894,"anes":7895,"ĠPear":7896,"aco":7897,"Ġstem":7898,"Ġimproved":7899,"ĠLincoln":7900,"Ġcelebrated":7901,"tar":7902,"Ġlock":7903,"Ġspokesperson":7904,"ateful":7905,"Ġfeaturing":7906,"ĠCos":7907,"Ġgovernments":7908,"Ġfounded":7909,"Ġcigaret":7910,"800":7911,"Ġcommander":7912,"ĠHeath":7913,"dale":7914,"Ġtoll":7915,"Ġenorm":7916,"Ġ1960":7917,"Ġpapers":7918,"Ġcounty":7919,"Ġregional":7920,"Ġspr":7921,"Ġends":7922,"Ġ57":7923,"ĠHawai":7924,"ĠHom":7925,"Ġdrone":7926,"with":7927,"zing":7928,"ĠSeattle":7929,"Ġsolid":7930,"otelli":7931,"Ġfel":7932,"Ġtail":7933,"car":7934,"Ġcampus":7935,"grees":7936,"ĠGab":7937,"Ġemp":7938,"Ġautomatic":7939,"ĠGil":7940,"Ġcancel":7941,"Ġmulti":7942,"Ġrehab":7943,"Ġposes":7944,"owa":7945,"ommod":7946,"eler":7947,"ĠNY":7948,"Ġwarrant":7949,"Ġcontrolled":7950,"ĠAlabama":7951,"cons":7952,"ĠNig":7953,"Ġtypes":7954,"Ġyoungest":7955,"wan":7956,"Ġoccasions":7957,"Ġpacked":7958,"otherapy":7959,"esus":7960,"Ġsummit":7961,"Ġsac":7962,"ĠBelgium":7963,"tes":7964,"ĠHu":7965,"ĠAdams":7966,"Ġbon":7967,"Ġbik":7968,"Ġindependence":7969,"ĠMartinez":7970,"Ġtaste":7971,"aware":7972,"Ġterritory":7973,"Ġapplication":7974,"fe":7975,"ĠPent":7976,"writ":7977,"Ġiniti":7978,"Ġdelivery":7979,"ĠRoger":7980,"Ġhabit":7981,"Ġextensive":7982,"zerland":7983,"Ġfactor":7984,"Ġaccur":7985,"ĠMcDonald":7986,"Ġtemporary":7987,"Ġregarding":7988,"Ġfier":7989,"enny":7990,"Ġelsewhere":7991,"Ġexperiences":7992,"Ġtracks":7993,"Ġregistered":7994,"Ġcapacity":7995,"Ġdelighted":7996,"ricane":7997,"Ġpositions":7998,"Ġhug":7999,"ĠLane":8000,"ĠMcCain":8001,"Ġattracted":8002,"Ġloud":8003,"active":8004,"itage":8005,"Ġpackage":8006,"Ġapplied":8007,"Ġsupplies":8008,"Ġcommunications":8009,"Ġtourist":8010,"made":8011,"En":8012,"Ġrequires":8013,"Ġgrass":8014,"uart":8015,"Ġeffectively":8016,"Ġvisits":8017,"Ġbizarre":8018,"endum":8019,"Ġdesire":8020,"Ġbreathing":8021,"Ġpraised":8022,"ikh":8023,"ĠDemocrat":8024,"Ġtraveling":8025,"ĠAston":8026,"Ġske":8027,"ĠDeb":8028,"49":8029,"Ġsheriff":8030,"ĠStev":8031,"Ġcivilian":8032,"yo":8033,"Ġbat":8034,"ja":8035,"ervatives":8036,"ĠUtah":8037,"ĠEnd":8038,"ighton":8039,"ĠFerr":8040,"Ġexciting":8041,"Ġneighbours":8042,"Ġenvironmental":8043,"ĠHodgson":8044,"acular":8045,"ĠLl":8046,"ĠGard":8047,"ĠCeltic":8048,"Ġapproval":8049,"Ġconvinced":8050,"tlet":8051,"55":8052,"certain":8053,"ĠWestminster":8054,"Ġsettlement":8055,"ĠPortugal":8056,"ww":8057,"Ġexclusive":8058,"Ġdegrees":8059,"ĠEnter":8060,"Ġfactory":8061,"ĠRem":8062,"Ġsurprising":8063,"ĠWard":8064,"acement":8065,"ĠLocal":8066,"Ġclasses":8067,"ĠGlasgow":8068,"Ġcos":8069,"loaded":8070,"Ġtypically":8071,"uous":8072,"bie":8073,"ĠHa":8074,"dis":8075,"uay":8076,"Ġnut":8077,"Ġburning":8078,"ĠSusan":8079,"Ġcondemned":8080,"Ġusual":8081,"ailand":8082,"Not":8083,"Ġgenerally":8084,"Ġloyal":8085,"ether":8086,"ĠInt":8087,"Ġrecording":8088,"Ġaffairs":8089,"LA":8090,"owered":8091,"ĠBrand":8092,"Ġrebel":8093,"Ġlad":8094,"ĠSwitzerland":8095,"Ġpredict":8096,"ĠHills":8097,"inations":8098,"ĠSeveral":8099,"Ġmarkets":8100,"bris":8101,"adh":8102,"Ġformal":8103,"ĠFive":8104,"Ġrelationships":8105,"acc":8106,"Ġstronger":8107,"Ġpoverty":8108,"Ġscreaming":8109,"ĠâĢ¢":8110,"Ġcriminals":8111,"vant":8112,"Ġhiding":8113,"Ġmeetings":8114,"Ġgrandfather":8115,"ĠMario":8116,"ĠCBS":8117,"Ġinfected":8118,"Ġtitles":8119,"Two":8120,"Ġclosing":8121,"Ġhanging":8122,"case":8123,"idays":8124,"ĠDuncan":8125,"Ġsatellite":8126,"Ġrugby":8127,"ĠLeg":8128,"Ġrepresents":8129,"Ġrenew":8130,"Ġfiring":8131,"Ġwing":8132,"Ġhung":8133,"Ġveterans":8134,"ĠDoctors":8135,"Ġguards":8136,"Ġstrange":8137,"Ġteaching":8138,"Ġwelcom":8139,"33":8140,"Ġcricket":8141,"Ġdeny":8142,"Ġ58":8143,"ĠBoard":8144,"ĠIb":8145,"DC":8146,"lings":8147,"Ġencouraged":8148,"Ġalert":8149,"Ġtape":8150,"Ġpace":8151,"ĠLeban":8152,"Ġbone":8153,"ndrome":8154,"Ġthin":8155,"ĠHur":8156,"Ġworn":8157,"final":8158,"Ġbasketball":8159,"ĠDj":8160,"Ġkeeps":8161,"ĠBalotelli":8162,"While":8163,"Ġconver":8164,"ĠHoward":8165,"Ġhomeless":8166,"Ġmut":8167,"Ġgreet":8168,"ĠCornwall":8169,"Ġcontem":8170,"Ġstudio":8171,"Ġsentencing":8172,"Ġcombined":8173,"Ġcarbon":8174,"Ġaccommod":8175,"Ġfilming":8176,"Ġvalues":8177,"Ġbarely":8178,"ami":8179,"Ġemails":8180,"Ġsuccessfully":8181,"Ġmeals":8182,"Ġsounds":8183,"Ġcited":8184,"ĠMcK":8185,"ycling":8186,"Ġopponents":8187,"Ġgunman":8188,"Ġcelebrating":8189,"ĠMicro":8190,"ffield":8191,"vin":8192,"Ġanybody":8193,"Ġorganisation":8194,"Mar":8195,"Ġ64":8196,"oded":8197,"Ġsuggesting":8198,"Ġguest":8199,"Ġmanage":8200,"onnell":8201,"Ġsearched":8202,"da":8203,"Ġexisting":8204,"ĠCall":8205,"abet":8206,"Ġmechan":8207,"TA":8208,"ĠDur":8209,"Ġconcept":8210,"ĠRow":8211,"Ġchocolate":8212,"Pro":8213,"ĠSnowden":8214,"osh":8215,"ĠGriff":8216,"Ġdetectives":8217,"Ġcolor":8218,"ĠAnne":8219,"ĠThailand":8220,"ĠMoy":8221,"Ġacted":8222,"Ġavo":8223,"ĠCuba":8224,"Ġburst":8225,"ĠHait":8226,"ĠViet":8227,"Ġfunny":8228,"ĠPlay":8229,"Ġdetailed":8230,"Ġresulted":8231,"urer":8232,"âĤ":8233,"Ġinapp":8234,"ĠLow":8235,"iac":8236,"osition":8237,"Ġreferendum":8238,"Ġflooding":8239,"amber":8240,"Ġcream":8241,"grav":8242,"Ġattached":8243,"aghdad":8244,"Ġster":8245,"Ġmand":8246,"was":8247,"ĠHIV":8248,"Ġtaxi":8249,"Ġgender":8250,"Ġfirefighters":8251,"ĠInvestigators":8252,"Ġhonour":8253,"Ġwinners":8254,"ĠSecret":8255,"ĠOK":8256,"Ġtoilet":8257,"sm":8258,"Ġconfront":8259,"Ġcul":8260,"Ġoldest":8261,"Ġartists":8262,"ĠAmy":8263,"Ġassaulted":8264,"Ġdiplomatic":8265,"Ġteens":8266,"Ġinterviews":8267,"ĠBloom":8268,"Be":8269,"Ġpredicted":8270,"âĤ¬":8271,"icts":8272,"Ġsmugg":8273,"Ġnomin":8274,"Do":8275,"Ġlandsc":8276,"aved":8277,"Ġproducer":8278,"ĠBook":8279,"borough":8280,"Ġgrabbed":8281,"Ġorganizations":8282,"olph":8283,"ĠBeat":8284,"Ġcolleague":8285,"ĠEdinburgh":8286,"Ġreforms":8287,"ĠDubai":8288,"din":8289,"cho":8290,"Ġinvestigations":8291,"Ġadvertising":8292,"Ġtherefore":8293,"Ġblank":8294,"Ġmedication":8295,"Ġaer":8296,"Ġsharp":8297,"Ġaccusations":8298,"inking":8299,"Ġentering":8300,"emed":8301,"tering":8302,"Ġbrown":8303,"ois":8304,"Ġadvised":8305,"sung":8306,"Ġcontains":8307,"ĠHead":8308,"Ġaccompan":8309,"Ġslowly":8310,"Ġmixed":8311,"Ġvolunteers":8312,"Ġliqu":8313,"ĠIowa":8314,"children":8315,"ĠGarcia":8316,"Ġnick":8317,"Ġgenuine":8318,"Ġopposed":8319,"Ġvoting":8320,"250":8321,"ecting":8322,"Ġvowed":8323,"heim":8324,"Just":8325,"ĠHM":8326,"Ġstations":8327,"Ġ67":8328,"ĠNotting":8329,"Ġchecked":8330,"Ġriding":8331,"Ġordeal":8332,"Ġwalks":8333,"apes":8334,"Ġbranch":8335,"Ġfinds":8336,"Ġnobody":8337,"profile":8338,"Ġprocedures":8339,"ĠLi":8340,"ulture":8341,"ĠSpring":8342,"iatric":8343,"ĠQPR":8344,"Ġoutcome":8345,"Ġcontaining":8346,"Ġdict":8347,"Ġcontrast":8348,"Ġprobe":8349,"Ġmemories":8350,"gt":8351,"Ġtransl":8352,"Ġfundra":8353,"Ġmonitor":8354,"ĠAut":8355,"Ġethnic":8356,"Ġblocked":8357,"ĠBrend":8358,"Ġneither":8359,"Ġstable":8360,"Ġresolution":8361,"Ġapps":8362,"tletico":8363,"rast":8364,"Ġemph":8365,"Ġshout":8366,"rehens":8367,"ĠEducation":8368,"arms":8369,"ĠSheffield":8370,"early":8371,"ctic":8372,"Ġthick":8373,"ught":8374,"Ġharder":8375,"wa":8376,"ĠSudan":8377,"Ġarchitect":8378,"ĠExp":8379,"Ġcollapse":8380,"ĠBeckham":8381,"Ġ1996":8382,"ĠDerby":8383,"34":8384,"unior":8385,"Ġcopy":8386,"Ġwealthy":8387,"Ġobvious":8388,"ĠStuart":8389,"leep":8390,"ĠPy":8391,"ĠCat":8392,"Ġstages":8393,"Ġgro":8394,"Ġimportance":8395,"stri":8396,"ĠCas":8397,"cott":8398,"Ġinnov":8399,"Ġstole":8400,"Ġspeaks":8401,"Ġsib":8402,"Ġbrings":8403,"Ġrig":8404,"anchez":8405,"Ġrecon":8406,"Ġunivers":8407,"ĠCollins":8408,"rets":8409,"ĠAdministration":8410,"ighth":8411,"Ġopposite":8412,"wing":8413,"hem":8414,"Ġtheory":8415,"ĠRon":8416,"umes":8417,"ĠAC":8418,"Ġilleg":8419,"Ġnegotiations":8420,"Ġindicated":8421,"ĠKenya":8422,"Ġreferring":8423,"Ġgest":8424,"Ġreligion":8425,"Ġlav":8426,"ĠChap":8427,"Ġappointed":8428,"Ġcrossing":8429,"usting":8430,"ĠLive":8431,"Ġmaterials":8432,"Ġsuspicious":8433,"Ġelectricity":8434,"ĠTrib":8435,"ĠEmb":8436,"ello":8437,"Ġowns":8438,"Ġskull":8439,"Ġpersu":8440,"Ġfunction":8441,"ĠHo":8442,".-":8443,"istle":8444,"roit":8445,"ĠSoph":8446,"Ġ1994":8447,"ĠChile":8448,"Ġrequests":8449,"Ġwaited":8450,"Ġtrophy":8451,"Ġfaster":8452,"Ġallies":8453,"Ġspeculation":8454,"Ġsymp":8455,"Ġsporting":8456,"Ġluck":8457,"ĠTreas":8458,"ĠOfficer":8459,"?âĢĻ":8460,"caster":8461,"Ġexpecting":8462,"Ġcruise":8463,"season":8464,"Ġanswers":8465,"ĠSwiss":8466,".)":8467,"Ġships":8468,"Ġtrips":8469,"Ġoffices":8470,"ĠArabia":8471,"Ġreferee":8472,"Ġhunt":8473,"Ġargue":8474,"Ġimpressed":8475,"load":8476,"Ġvisible":8477,"Ġtag":8478,"ĠSpecial":8479,"Ġeleph":8480,"ras":8481,"ĠRome":8482,"Ġwitnessed":8483,"ĠAaron":8484,"Ġhack":8485,"Ġannounce":8486,"However":8487,"Ġnerv":8488,"endent":8489,"Ġcrews":8490,"ture":8491,"Ġcruel":8492,"Ġcelebration":8493,"ĠFriends":8494,"Ġbosses":8495,"unction":8496,"ĠTam":8497,"Ġshark":8498,"Ġmanner":8499,"Ġentry":8500,"ĠCrystal":8501,"iro":8502,"Ġacad":8503,"Ġremarkable":8504,"ĠFree":8505,"ĠKatie":8506,"Ġadmit":8507,"rait":8508,"ureau":8509,"Ġpump":8510,"ĠNap":8511,"Ġdiscussed":8512,"Ġracial":8513,"Ġcurren":8514,"ĠMorris":8515,"Ġentitled":8516,"onz":8517,"Ġestimates":8518,"Ġawards":8519,"Ġcovering":8520,"Il":8521,"Ġwire":8522,"ĠBan":8523,"Ġcomedy":8524,"Ġconfron":8525,"Ġbru":8526,"ĠBos":8527,"Ġdebris":8528,"Ġlawmakers":8529,"Ġthrowing":8530,"armed":8531,"ippi":8532,"essing":8533,"Ġpron":8534,"Assad":8535,"beat":8536,"Ġbrave":8537,"berry":8538,"ĠAuthority":8539,"Ġramp":8540,"Ġbacter":8541,"ĠSamsung":8542,"Ġcompetitive":8543,"oir":8544,"Ġages":8545,"axy":8546,"Ġglam":8547,"chi":8548,"ĠMcL":8549,"Ġtent":8550,"ĠCy":8551,"omy":8552,"ĠRaf":8553,"iki":8554,"cript":8555,"Ġfactors":8556,"tt":8557,"Ġcrowds":8558,"Ġtransferred":8559,"Ġsch":8560,"ĠSanchez":8561,"Ġactivist":8562,"ĠHend":8563,"Ġpurchase":8564,"Ġmonitoring":8565,"Ġlifted":8566,"ĠBon":8567,"ĠAT":8568,"ĠReid":8569,"ĠCastro":8570,"Ġsustained":8571,"Ġprepar":8572,"ĠMaryland":8573,"Ġmask":8574,"ĠTou":8575,"Ġdisabled":8576,"Ġdiplom":8577,"ĠTar":8578,"ĠTes":8579,"Ġappearing":8580,"ĠDefence":8581,"uations":8582,"ĠMercedes":8583,"Ġbegun":8584,"raf":8585,"ĠShaw":8586,"ĠKey":8587,"Ġpeaceful":8588,"Ġmotion":8589,"Ġtheat":8590,"ĠArmstrong":8591,"oty":8592,"ivalent":8593,"ĠAz":8594,"ract":8595,"Ġmigrants":8596,"ded":8597,"Ġhotels":8598,"pes":8599,"Ġrecru":8600,"Ġraces":8601,"ĠNelson":8602,"Ġhandling":8603,"Ġshelter":8604,"Ġspin":8605,"inter":8606,"ĠEmer":8607,"Ġfab":8608,"Ġox":8609,"Ġ62":8610,"Ġstrongly":8611,"ructure":8612,"Ġsam":8613,"ĠJuan":8614,"Ġprotected":8615,"OS":8616,"andy":8617,"Ġpartnership":8618,"Ġfacts":8619,"Ġmystery":8620,"Ġhorses":8621,"Ġresigned":8622,"ĠBarbara":8623,"Ġ66":8624,"Ġfishing":8625,"rete":8626,"Ġnetworks":8627,"ĠScientists":8628,"ĠGreek":8629,"Ġselect":8630,"ĠBlue":8631,"Ġawa":8632,"ĠResearchers":8633,"Ġchicken":8634,"abe":8635,"ĠWelsh":8636,"ĠAmb":8637,"ĠFlight":8638,"Ġtechnical":8639,"umph":8640,"Ġerror":8641,"Ġcomputers":8642,"terror":8643,"ĠLes":8644,"ĠForm":8645,"Ġcalc":8646,"ĠMargaret":8647,"Ġcultural":8648,"ilst":8649,"ĠWarren":8650,"Ġ59":8651,"upper":8652,"phones":8653,"itis":8654,"Ġflames":8655,"ximately":8656,"Ġunits":8657,"enda":8658,"Ġstudying":8659,"ĠCommissioner":8660,"ĠBusiness":8661,"Ġcrazy":8662,"Ġhosts":8663,"Ġtherapy":8664,"Ġamounts":8665,"Ġinspiration":8666,"Ġrepresented":8667,"Ob":8668,"iller":8669,"Ġreception":8670,"regon":8671,"Ġsongs":8672,"ais":8673,"Ġobjects":8674,"usal":8675,"ĠStation":8676,"Ġ04":8677,"Ġaccompanied":8678,"Ġcope":8679,"Ġfasc":8680,"Ġregulations":8681,"Ġcounsel":8682,"Ġdisturb":8683,"ĠITV":8684,"Ġexcell":8685,"Ġfame":8686,"uting":8687,"ĠHelen":8688,"ĠPhillips":8689,"Ġfract":8690,"44":8691,"Ġmarketing":8692,"Ġenormous":8693,"ilding":8694,"ĠAy":8695,"Ġcitizen":8696,"Ġcomprom":8697,"ati":8698,"iga":8699,"Ġindustrial":8700,"ĠRice":8701,"Ġlocals":8702,"Ġdrawing":8703,"Ġplease":8704,"Ġattorneys":8705,"Ġnurses":8706,"ĠMandela":8707,"Ġtodd":8708,"orse":8709,"ĠEst":8710,"ĠKay":8711,"Ġtrick":8712,"Ġretirement":8713,"wife":8714,"Ġchannel":8715,"AC":8716,"ĠAtletico":8717,"Ġpill":8718,"Ġtwins":8719,"Ġconstantly":8720,"ĠPC":8721,"ĠBad":8722,"list":8723,"ĠFur":8724,"hill":8725,"Ġ250":8726,"Ġrepresenting":8727,"ĠPle":8728,"Ġtowns":8729,"ĠSgt":8730,"Ġaside":8731,"Ġassass":8732,"Ġessential":8733,"Ġsensitive":8734,"abs":8735,"Ġextent":8736,"Ġwarnings":8737,"ĠHamas":8738,"ser":8739,"ici":8740,"ĠGrant":8741,"ĠDetroit":8742,"Ġforms":8743,"gage":8744,"Ġinsurg":8745,"Ġachieved":8746,"Ġshed":8747,"ullah":8748,"Ġbreach":8749,"Ġ1995":8750,"ĠBerlin":8751,"Ġtox":8752,"Ġtraveled":8753,"oons":8754,"ĠAgu":8755,"Ġsmashed":8756,"Ġpersonally":8757,"Ġstriking":8758,"ĠIndepend":8759,"ĠNov":8760,"ĠClarke":8761,"ĠRachel":8762,"Ġregul":8763,"ĠCabinet":8764,"ĠCharlotte":8765,"Ġgarage":8766,"ĠBart":8767,"Ġstealing":8768,"Ġbones":8769,"lee":8770,"Ġtouched":8771,"Ġmedicine":8772,"ĠMicrosoft":8773,"front":8774,"ĠFund":8775,"Ġtweets":8776,"ayed":8777,"Ġdelayed":8778,"ĠDomin":8779,"etch":8780,"ĠBarcl":8781,"Ġdistr":8782,"Ġchall":8783,"Ġindict":8784,"Ġpopularity":8785,"Ġblaze":8786,"Ġdemocracy":8787,"Ġsymbol":8788,"ĠKurd":8789,"Ġministry":8790,"mund":8791,"ĠRet":8792,"Ġpaint":8793,"ĠOregon":8794,"Ġpilots":8795,"Ġobst":8796,"ĠDor":8797,"Ġjurors":8798,"uer":8799,"Ġcreative":8800,"Ġsubstant":8801,"ĠKnight":8802,"Ġabsence":8803,"Ġrestrictions":8804,"Ġconstant":8805,"ĠBailey":8806,"lock":8807,"Ġ68":8808,"ĠPentagon":8809,"Ġequivalent":8810,"riers":8811,"Ġrepresentative":8812,"Ġencounter":8813,"Ġprospect":8814,"ĠAp":8815,"Ġflown":8816,"Ġlessons":8817,"ĠMalaysia":8818,"Ġhunting":8819,"Ġeggs":8820,"ĠPoland":8821,"Ġbranded":8822,"Ġyes":8823,"issippi":8824,"Ġourselves":8825,"Ġproceedings":8826,"ĠJong":8827,"Ġheadlines":8828,"Ġforever":8829,"ropolitan":8830,"Ġdetention":8831,"31":8832,"found":8833,"Ġsignificantly":8834,"ician":8835,"Ġrounds":8836,"Ġeverywhere":8837,"Ġiron":8838,"Ġregret":8839,"Ġselection":8840,"rayed":8841,"Ġpulling":8842,"Ġsmartphone":8843,"AS":8844,"Ġelim":8845,"Ġhumanitarian":8846,"ĠMidlands":8847,"Ġactual":8848,"Ġimprison":8849,"ĠBash":8850,"Ġdisag":8851,"Ġpages":8852,"ĠDevon":8853,"Ġstamp":8854,"Ġfined":8855,"Ġtrains":8856,"anne":8857,"ĠSurrey":8858,"Ġexhibition":8859,"idents":8860,"ĠCivil":8861,"ims":8862,"resent":8863,"ucks":8864,"Ġ63":8865,"RO":8866,"Ġseed":8867,"Ġ72":8868,"uable":8869,"Ġtens":8870,"Ġroughly":8871,"Ġspecifically":8872,"greg":8873,"Ġrebu":8874,"Ġhorror":8875,"ĠHope":8876,"Ġafterwards":8877,"!!":8878,"guard":8879,"urers":8880,"Ġmini":8881,"Ġtargeting":8882,"iences":8883,"Ġcub":8884,"ĠNottingham":8885,"igger":8886,"nesota":8887,"amedics":8888,"ĠForest":8889,"ĠHawaii":8890,"ĠEth":8891,"Ġlegit":8892,"Ġsty":8893,"ĠDonald":8894,"Ġoutfit":8895,"Ġbottles":8896,"ĠExperts":8897,"abilities":8898,"Ġrecovering":8899,"Ġholidays":8900,"ruguay":8901,"Ġcoroner":8902,"bag":8903,"ĠSafety":8904,"orage":8905,"Ġwebsites":8906,"ĠLion":8907,"ĠVin":8908,"zy":8909,"Ġanalyst":8910,"Ġtired":8911,"ointing":8912,"olar":8913,"enson":8914,"Ġspectacular":8915,"math":8916,"enging":8917,"Ġhighlight":8918,"Ġcert":8919,"Ġdial":8920,"ĠEve":8921,"Ġstroke":8922,"Ġchap":8923,"ĠResc":8924,"ĠMorning":8925,"ĠTenness":8926,"Ġsupermarket":8927,"ĠConst":8928,"Ġearthquake":8929,"Ġcloud":8930,"Ġtaxpayers":8931,"rors":8932,"ĠNight":8933,"level":8934,"Ġclip":8935,"Ġ600":8936,"Ġmissile":8937,"Ġdim":8938,"Ġthroat":8939,"ĠMack":8940,"Ġsail":8941,"ĠBiden":8942,"Ġadviser":8943,"ĠKeith":8944,"held":8945,"oria":8946,"icing":8947,"Ġpolls":8948,"Ġbreakfast":8949,"encer":8950,"accept":8951,"ĠStat":8952,"Ġaddressed":8953,"Pr":8954,"Ġattitude":8955,"Ġce":8956,"ĠWinter":8957,"Ġmainly":8958,"mile":8959,"Ġcourage":8960,"Ġforcing":8961,"Ġconced":8962,"Ġsafely":8963,"Ġalarm":8964,"Ġtoler":8965,"ĠLouisiana":8966,"Ġdates":8967,"Ġwelcomed":8968,"ĠLawrence":8969,"ĠEastern":8970,"ĠDougl":8971,"Ġnoise":8972,"Ġtwin":8973,"Ġfrequently":8974,"oen":8975,"ĠPop":8976,"Ġsevent":8977,"Ġprohib":8978,"pre":8979,"Ġviewed":8980,"bits":8981,"ogether":8982,"iques":8983,"uters":8984,"ĠCher":8985,"ĠBritons":8986,"Ġconcert":8987,"ĠDowning":8988,"ifted":8989,"Ġfitted":8990,"esity":8991,"lar":8992,"Ġinmates":8993,"Ġ77":8994,"Ġemotion":8995,"Ġkidnapping":8996,"ĠTravel":8997,"Ġreference":8998,"Ġtorture":8999,"laughter":9000,"ierra":9001,"idal":9002,"Ġdefensive":9003,"ING":9004,"ĠKansas":9005,"Ġfeelings":9006,"ĠTem":9007,"ĠBah":9008,"Ġcoord":9009,"Ġprobation":9010,"abis":9011,"Ġshell":9012,"iants":9013,"ĠQatar":9014,"Ġexit":9015,"Ġgri":9016,"ĠMississippi":9017,"Ġcats":9018,"erald":9019,"Ġdressing":9020,"rous":9021,"ipal":9022,"Ġmilitant":9023,"Ġdiscussion":9024,"Ġanticip":9025,"........":9026,"Ġupper":9027,"Ġodds":9028,"ĠIslamist":9029,"Ġsalary":9030,"orer":9031,"Ġbeneath":9032,"rastructure":9033,"inion":9034,"ĠGolden":9035,"gging":9036,"Ġpainful":9037,"Ġspac":9038,"ahl":9039,"Ġshame":9040,"Ġrecruit":9041,"wealth":9042,"Ġdonations":9043,"aven":9044,"acht":9045,"Ġpersonality":9046,"ĠTH":9047,"ups":9048,"Ġbacking":9049,"Ġbusinessman":9050,"Ġpeak":9051,"vy":9052,"Ġtech":9053,"estone":9054,"ĠSov":9055,"Ġcriticized":9056,"winning":9057,"ĠMas":9058,"ĠSpurs":9059,"Ġwildlife":9060,"48":9061,"Ġtypical":9062,"Ġinappropriate":9063,"looking":9064,"ĠKrist":9065,"ĠThanks":9066,"Ġuncle":9067,"lb":9068,"ĠHit":9069,"Ġmemor":9070,"issa":9071,"Ġrarely":9072,"istorius":9073,"Ġsmell":9074,"Ġfoods":9075,"bal":9076,"onduct":9077,"Ġsilence":9078,"ĠMinnesota":9079,"TS":9080,"ĠSony":9081,"ĠSweden":9082,"ĠPictured":9083,"Ġdivision":9084,"ĠWolf":9085,"graph":9086,"idency":9087,"rd":9088,"Ġridic":9089,"viously":9090,"election":9091,"Ġrealized":9092,"Ġstretch":9093,"Ġtrigg":9094,"Ġdust":9095,"Ġdirected":9096,"km":9097,"Ġcompound":9098,"ĠOthers":9099,"page":9100,"second":9101,"abetes":9102,"ĠAustin":9103,"Ġcontrols":9104,"etta":9105,"ĠEmily":9106,"ĠSomalia":9107,"Ġscientific":9108,"Ġneighbors":9109,"Ġsurvival":9110,"Ġbaseball":9111,"thal":9112,"ĠEt":9113,"Ġreads":9114,"Ġneur":9115,"Ġnervous":9116,"door":9117,"Ġfortune":9118,"ĠRy":9119,"ĠVol":9120,"Ġmanaging":9121,"cription":9122,"Ġreven":9123,"ĠAround":9124,"Ġec":9125,"ĠTsar":9126,"Ġmas":9127,"ĠTok":9128,"ĠHas":9129,"Ġdeemed":9130,"Ġmere":9131,"ĠAlaska":9132,"Ġliked":9133,"ĠIndonesia":9134,"Ġtelephone":9135,"Ġroles":9136,"Ġsurvivors":9137,"Ġminority":9138,"Man":9139,"Ġposing":9140,"enezuel":9141,"ĠAld":9142,"Ġlicense":9143,"Ġcombination":9144,"erez":9145,"Ġparked":9146,"Ġescal":9147,"ĠLatin":9148,"ĠCair":9149,"Ġknock":9150,"rolled":9151,"Ġrecommended":9152,"Ġreass":9153,"Ġdeployed":9154,"Ġphysically":9155,"rend":9156,"Ad":9157,"Ġdiscrimination":9158,"bey":9159,"ructed":9160,"ĠTennessee":9161,"Ġcommunication":9162,"Ġdancing":9163,"Ġbreaks":9164,"Ġcrossed":9165,"Ġcycl":9166,"ĠColombia":9167,"oping":9168,"Ġtreating":9169,"Ġflash":9170,"ĠSerge":9171,"Ġcousin":9172,"akh":9173,"ĠMurphy":9174,"ĠVen":9175,"mans":9176,"lessly":9177,"inder":9178,"ĠDy":9179,"Ġmood":9180,"Ġfing":9181,"Ġrocks":9182,"ĠOliver":9183,"olved":9184,"ĠUruguay":9185,"Ġdestination":9186,"ĠFederer":9187,"Ġtransp":9188,"ĠNether":9189,"Ġadj":9190,"ĠYes":9191,"uan":9192,"above":9193,"Ġstudied":9194,"ĠProv":9195,"ylum":9196,"hat":9197,"high":9198,"Ġbears":9199,"Ġinvestors":9200,"Ġbitter":9201,"Ġteach":9202,"ĠBarry":9203,"Ġemployment":9204,"ĠFest":9205,"Ġmanagers":9206,"Ġmidfield":9207,"Ġentertainment":9208,"Ġunemployment":9209,"Ġappointment":9210,"ĠTed":9211,"ĠVis":9212,"Ġperformances":9213,"Ġillegally":9214,"amo":9215,"Ġcamps":9216,"Ġgraduate":9217,"Ġpicking":9218,"Ilroy":9219,"Ġtensions":9220,"Ġtool":9221,"actor":9222,"oko":9223,"ometimes":9224,"Ġnights":9225,"Ġreturns":9226,"hum":9227,"enz":9228,"Ġunfair":9229,"jo":9230,"Ġdiamond":9231,"Ġoperate":9232,"ĠRoma":9233,"Ġsustain":9234,"atched":9235,"nsic":9236,"ĠNob":9237,"Re":9238,"ĠSavile":9239,"Ġwet":9240,"Ġciting":9241,"sk":9242,"asty":9243,"uments":9244,"ĠVlad":9245,"hett":9246,"iture":9247,"Ġadvanced":9248,"igious":9249,"acey":9250,"Ġtools":9251,"lec":9252,"obi":9253,"Ġpocket":9254,"Ġintim":9255,"Ġdecline":9256,"arth":9257,"Ġframe":9258,"Ġdesigns":9259,"ĠFreed":9260,"adhafi":9261,"reprene":9262,"ĠFather":9263,"Ġfootballer":9264,"Ġsomewhere":9265,"Ġcollision":9266,"Ġphotographed":9267,"Ġentrance":9268,"ĠChild":9269,"ĠArk":9270,"Ġmanslaughter":9271,"ĠFro":9272,"Ġtransplant":9273,"ĠWhere":9274,"Ġaggrav":9275,"ĠBuckingham":9276,"ĠCaptain":9277,"host":9278,"ĠNBA":9279,"ĠThatcher":9280,"leton":9281,"Ġgrateful":9282,"rical":9283,"ĠMull":9284,"Ġdistress":9285,"ĠPistorius":9286,"Ġlowest":9287,"ĠSierra":9288,"Ġclashes":9289,"ĠClass":9290,"Ġabortion":9291,"aws":9292,"Ġconsultant":9293,"Ġsed":9294,"Ġsequ":9295,"Ġhundred":9296,"Ġphen":9297,"Ġbattling":9298,"ighed":9299,"ĠDid":9300,"Ġunw":9301,"Ġhosted":9302,"expected":9303,"ĠTun":9304,"ĠBaghdad":9305,"Ġexecuted":9306,"ĠBox":9307,"upid":9308,"Ġmistakes":9309,"Ġdonated":9310,"Ġsacked":9311,"ĠObam":9312,"Ġelite":9313,"oni":9314,"Ġvs":9315,"ĠWy":9316,"700":9317,"Ġregions":9318,"xual":9319,"ĠDetective":9320,"Brit":9321,"acceptable":9322,"ĠStock":9323,"Ġhell":9324,"ĠDean":9325,"Ġpractices":9326,"Ġviral":9327,"Ġbooked":9328,"oration":9329,"ectors":9330,"ĠEuro":9331,"ilit":9332,"Ġinvolves":9333,"Ġuncons":9334,"apore":9335,"Ġloving":9336,"ĠBowl":9337,"Ġindeed":9338,"Ġdeparture":9339,"eld":9340,"ĠSilver":9341,"stan":9342,"ĠDiv":9343,"Ġquestioning":9344,"cot":9345,"Ġlicence":9346,"ĠDarren":9347,"ĠJesus":9348,"ums":9349,"Ġappeals":9350,"top":9351,"Ġengineer":9352,"46":9353,"olis":9354,"Ġyoungsters":9355,"Ġtiss":9356,"Ġmentioned":9357,"mm":9358,"Ġpupp":9359,"Ġ800":9360,"Ġwarn":9361,"ĠiRep":9362,"Ġadmitting":9363,"ĠPlan":9364,"veland":9365,"Ġsentences":9366,"ĠHon":9367,"Ġincreases":9368,"Ġapproximately":9369,"Ġenemy":9370,"Ġleaked":9371,"Ġ1992":9372,"Ġpolitician":9373,"Ġtoug":9374,"eling":9375,"ĠVenezuel":9376,"Ġassets":9377,"bedroom":9378,"club":9379,"gate":9380,"itched":9381,"Ġinfrastructure":9382,"Ġ1993":9383,"Ġencouraging":9384,"Many":9385,"Ġlovely":9386,"Ġsettled":9387,"inging":9388,"step":9389,"Ġcarefully":9390,"ĠSomers":9391,"Ġdeserve":9392,"Ġoblig":9393,"Ġpending":9394,"Ġingred":9395,"ĠBarclays":9396,"oa":9397,"150":9398,"Ġkidney":9399,"Ġrealise":9400,"Ġtattoo":9401,"Ġupcoming":9402,"Ġcongressional":9403,"ĠNigel":9404,"ĠDouglas":9405,"Ġpayment":9406,"Ġtreatments":9407,"Ġintervention":9408,"\".":9409,"uits":9410,"rive":9411,"ĠSussex":9412,"ĠNetherlands":9413,"Ġmoder":9414,"oos":9415,"Ġguidelines":9416,"Ġignored":9417,"Ġresidence":9418,"Ġquoted":9419,"Ġconsumer":9420,"ĠMoyes":9421,"II":9422,"Ġfurn":9423,"ĠCele":9424,"ĠTreasury":9425,"hner":9426,"ĠHad":9427,"Ġchallenging":9428,"org":9429,"Ġpublish":9430,"pat":9431,"naev":9432,"Ġperfectly":9433,"ĠHolmes":9434,"ĠSU":9435,"Ġseasons":9436,"Ġembassy":9437,"Ġ78":9438,"ĠNazi":9439,"ĠCase":9440,"will":9441,"ĠGover":9442,"ĠDiana":9443,"Ġcarries":9444,"Ġjacket":9445,"Ġdetain":9446,"ĠAhmed":9447,"fortunately":9448,"imir":9449,"ĠKingdom":9450,"ĠKnox":9451,"rahim":9452,"ĠAvenue":9453,"Ġaims":9454,"pson":9455,"ĠSut":9456,"ĠMcIlroy":9457,"ĠAntonio":9458,"Ġoffenders":9459,"ĠBurnley":9460,"Ġsaving":9461,"formation":9462,"that":9463,"Ġexperiment":9464,"Ġmurders":9465,"Ġfoundation":9466,"Ġprominent":9467,"Ġid":9468,"Ġrepair":9469,"ĠYour":9470,"ĠSpencer":9471,"Ġpurchased":9472,"Ġsinging":9473,"Ġinstance":9474,"Ġseparated":9475,"ĠAlb":9476,"ione":9477,"Ġuncertain":9478,"awa":9479,"Ġbuck":9480,"Ġfright":9481,"agne":9482,"ĠUkip":9483,"ĠAndroid":9484,"ĠPowell":9485,"Ġextend":9486,"ĠHal":9487,"ĠMagistrates":9488,"aga":9489,"ffic":9490,"Ġcore":9491,"amous":9492,"Ġsoil":9493,"Ġyoungster":9494,"Ġselected":9495,"Ġtriumph":9496,"ĠHaz":9497,"Ġsyn":9498,"anges":9499,"Ġcheer":9500,"Ġflow":9501,"portion":9502,"Ġalt":9503,"Ġelectronic":9504,"Ġlegacy":9505,"Ġextrad":9506,"Ġpronounced":9507,"Ġasks":9508,"ĠBradley":9509,"Ġ85":9510,"ucker":9511,"Ġstunned":9512,"aimed":9513,"Ġharassment":9514,"Ġprotecting":9515,"Ġfed":9516,"okovic":9517,"opsy":9518,"Ġgear":9519,"isan":9520,"iggs":9521,"Ġopponent":9522,"Ġchaos":9523,"ĠLibyan":9524,"Ġcow":9525,"Ġdragged":9526,"Ġseventh":9527,"aping":9528,"Ġ69":9529,"andom":9530,"ĠRebec":9531,"ĠTsarnaev":9532,"ixon":9533,"Ġoverwhelming":9534,"ĠCleveland":9535,"eymar":9536,"Ġank":9537,"Ġpainted":9538,"Ġcolumn":9539,"Ġsuburb":9540,"stream":9541,"Russ":9542,"Ġexcellent":9543,"RE":9544,"bi":9545,"ĠDenver":9546,"orge":9547,"Ġshadow":9548,"ĠManuel":9549,"li":9550,"ĠVice":9551,"Ġrefugees":9552,"ĠSin":9553,"Ġpursue":9554,"ĠRebecca":9555,"Ġlake":9556,"ĠAwards":9557,"ĠKyle":9558,"Ġplate":9559,"Ġdischar":9560,"ĠSingapore":9561,"bean":9562,"ĠAssad":9563,"Ġfires":9564,"oken":9565,"ĠInf":9566,"ested":9567,"Ġproposals":9568,"thur":9569,"walk":9570,"ĠTokyo":9571,"ĠLouise":9572,"raining":9573,"ĠSimpson":9574,"ĠJulie":9575,"Ġfelony":9576,"des":9577,"Ġgent":9578,"Ġmel":9579,"Ġexplan":9580,"Ġmuscle":9581,"odge":9582,"Ġdreams":9583,"ĠCrit":9584,"tim":9585,"Ġwrapped":9586,"ĠTories":9587,"abul":9588,"ĠVideo":9589,"Ġcorrespond":9590,"sen":9591,"comm":9592,"Ġmachines":9593,"acon":9594,"Ġasylum":9595,"Ġordinary":9596,"och":9597,"Ġelement":9598,"Ġemphas":9599,"42":9600,"Ġairports":9601,"Ġkilome":9602,"Ġtoy":9603,"Ġcollabor":9604,"Ġrequested":9605,"ĠSoviet":9606,"Ġnationwide":9607,"Ġremembered":9608,"Ġvigil":9609,"ules":9610,"atican":9611,"ĠBoeing":9612,"ĠCommonwealth":9613,"Ġshr":9614,"ĠIndiana":9615,"Ġrear":9616,"Ġtheme":9617,"Ġanonymous":9618,"ĠPelle":9619,"Ġrevenue":9620,"force":9621,"ĠMemorial":9622,"ĠShort":9623,"ĠBat":9624,"Ġenh":9625,"Ġho":9626,"Ġundergo":9627,"Ġrespective":9628,"Ġbelt":9629,"ĠStudent":9630,"embley":9631,"Ġimposed":9632,"Ġlifetime":9633,"Ġtrigger":9634,"Ġunconscious":9635,"ĠBaker":9636,"Ġric":9637,"Ġ61":9638,"ĠNetwork":9639,"Ġguess":9640,"Ġshore":9641,"RC":9642,"Ġfalls":9643,"lett":9644,"Ġhyp":9645,"SW":9646,"ĠAud":9647,"Ġvolcan":9648,"ĠPres":9649,"oday":9650,"ussels":9651,"ĠAdd":9652,"Ġvenue":9653,"Ġcannabis":9654,"antha":9655,"Ġdiabetes":9656,"ĠParker":9657,"Ġtoddler":9658,"hall":9659,"Ġcampaigns":9660,"ints":9661,"ĠKentucky":9662,"Ġunderwent":9663,"uz":9664,"Ġoptim":9665,"nity":9666,"ĠBrendan":9667,"ĠCrow":9668,"oca":9669,"ĠIvan":9670,"ĠHollande":9671,"Ġelev":9672,"ĠBerg":9673,"IT":9674,"onsin":9675,"ĠSab":9676,"ĠBenn":9677,"Ġproof":9678,"irm":9679,"ĠWembley":9680,"Ġexposure":9681,"Ġshoppers":9682,"ouring":9683,"Ġmaintained":9684,"Ġmad":9685,"ugs":9686,"56":9687,"obile":9688,"Ġanymore":9689,"Ġfence":9690,"ĠDjokovic":9691,"outed":9692,"Ġengagement":9693,"storm":9694,"ulating":9695,"Ġsecured":9696,"Ġconscious":9697,"Ġprofits":9698,"Ġgenetic":9699,"ĠLater":9700,"Ġdisgr":9701,"Ġlegally":9702,"ource":9703,"bian":9704,"isconsin":9705,"Ġenthusi":9706,"Ġaftermath":9707,"Ġdemonstrators":9708,"Ġcaution":9709,"Jo":9710,"Ġparticipants":9711,"wear":9712,"anson":9713,"Ġdescribing":9714,"Why":9715,"eff":9716,"ardy":9717,"Ġriot":9718,"Ġcrop":9719,"Ġcourtroom":9720,"Ġstrip":9721,"ĠTesco":9722,"Ġaffects":9723,"Ġslammed":9724,"Ġgrey":9725,"Ġlibr":9726,"happy":9727,"ĠLucy":9728,"ĠMade":9729,"quir":9730,"ĠHannah":9731,"Ġunexpected":9732,"tershire":9733,"ĠLauren":9734,"Even":9735,"ili":9736,"ĠHaving":9737,"Ġwanting":9738,"aver":9739,"Ġagenda":9740,"ashire":9741,"Ġdiagnosis":9742,"Ġease":9743,"Ġinstall":9744,"ĠSad":9745,"ĠMetropolitan":9746,"oning":9747,"Ġdesk":9748,"Ġdelays":9749,"ĠEmirates":9750,"Ġconcrete":9751,"ĠView":9752,"Ġserv":9753,"bul":9754,"mare":9755,"Ġsoph":9756,"ĠQC":9757,"otti":9758,"Ġfrozen":9759,"ĠTurner":9760,"face":9761,"inth":9762,"Ġrush":9763,"lie":9764,"onde":9765,"arted":9766,"Ġpassport":9767,"ĠCapital":9768,"Ġweighed":9769,"Ġdesert":9770,"Ġvacation":9771,"Ġconfessed":9772,"omed":9773,"ĠTechn":9774,"ĠVatican":9775,"mun":9776,"ĠVietnam":9777,"ĠFle":9778,"ĠDick":9779,"Ġcrown":9780,"ographer":9781,"izza":9782,"Ġgifts":9783,"Ġsoccer":9784,"Ġprofit":9785,"ĠCorpor":9786,"esome":9787,"ali":9788,"Ġheroin":9789,"Ġdamages":9790,"Ġtrading":9791,"Ġresulting":9792,"ĠAffairs":9793,"unal":9794,"ĠIslands":9795,"cedented":9796,"Ġdestruction":9797,"ĠNancy":9798,"ĠWars":9799,"ĠBM":9800,"Ġprol":9801,"grade":9802,"Ġelements":9803,"Ġpledged":9804,"Ġtoys":9805,"ĠElect":9806,"Ġ03":9807,"Ġreplacement":9808,"Ġhearts":9809,"aning":9810,"Ġdisg":9811,"Ġpasses":9812,"Ġzero":9813,"Ġcorporate":9814,"ygen":9815,"Ġtips":9816,"ĠSC":9817,"ucr":9818,"Ġindec":9819,"ĠBris":9820,"Ġbleeding":9821,"Ġfierce":9822,"ĠQueensland":9823,"Ġsubstance":9824,"Ġboxes":9825,"ĠCarib":9826,"Ġapologised":9827,"Ġboasts":9828,"ĠGadhafi":9829,"ĠChan":9830,"Ġmeanwhile":9831,"Ġsurgeon":9832,"ĠUl":9833,"Ġunderground":9834,"Ġhostage":9835,"ĠDale":9836,"spe":9837,"ĠTower":9838,"ĠNasa":9839,"Ġpride":9840,"Ġstim":9841,"ĠBent":9842,"avig":9843,"Ġboats":9844,"ĠProject":9845,"Ġcabin":9846,"ĠHeart":9847,"imm":9848,"Ġbread":9849,"Ġtransition":9850,"ĠTri":9851,"Ġblocks":9852,"ĠMonaco":9853,"obb":9854,"Ġscrut":9855,"Ġschedule":9856,"Ġhopeful":9857,"Ġhammer":9858,"Ġcoat":9859,"jan":9860,"inf":9861,"Ġkidnapped":9862,"lbs":9863,"Ġstressed":9864,"aints":9865,"Ġrelie":9866,"embly":9867,"Ġsavings":9868,"fits":9869,"Ġarrang":9870,"Ġovercome":9871,"ĠStafford":9872,"Ġnotorious":9873,"ĠAlbert":9874,"Ġbeloved":9875,"Ġprayers":9876,"Ġletting":9877,"Most":9878,"Ġloose":9879,"ĠCatherine":9880,"igible":9881,"Ġgathering":9882,"Ġobesity":9883,"Ġisolated":9884,"Ġtrafficking":9885,"ĠLamp":9886,"Ġovers":9887,"ĠAnfield":9888,"ĠNathan":9889,"Ġque":9890,"ĠKurdish":9891,"Ġcalories":9892,"ĠNeymar":9893,"Ġimpression":9894,"Ġglad":9895,"Ġbullying":9896,"ĠMitt":9897,"Ġcliff":9898,"Ġislands":9899,"aux":9900,"lined":9901,"riving":9902,"Ġreign":9903,"59":9904,"Ġcycle":9905,"Ġcler":9906,"Ġwinger":9907,"ĠRef":9908,"ĠWisconsin":9909,"ĠLancashire":9910,"Con":9911,"ĠRAF":9912,"Ġsuffers":9913,"Ġhip":9914,"Ġalter":9915,"Ġliterally":9916,"ĠDog":9917,"Ġ1950":9918,"ĠCirc":9919,"Ġdistinct":9920,"ĠPersie":9921,"ĠOliv":9922,"Ġwider":9923,"unning":9924,"Ġpip":9925,"uzz":9926,"Ġrib":9927,"ahu":9928,"isons":9929,"Ġhacking":9930,"Ġthorough":9931,"Ġdiver":9932,"Ġentreprene":9933,"ĠBrooks":9934,"liest":9935,"Ġdish":9936,"Ġdealt":9937,"illo":9938,"ivan":9939,"Ġpromises":9940,"ĠCrim":9941,"ĠGreater":9942,"Ġrevealing":9943,"ighting":9944,"Ġphil":9945,"ĠHond":9946,"onia":9947,"ĠBrady":9948,"ieber":9949,"leans":9950,"Ġobser":9951,"Ġreck":9952,"ĠTelegraph":9953,"acare":9954,"iveness":9955,"Ġorganised":9956,"ĠMaur":9957,"ockey":9958,"Ġastronaut":9959,"Ġclock":9960,"Ġemployed":9961,"ĠFestival":9962,"Ġinvasion":9963,"avi":9964,"Ġurging":9965,"Ġfinishing":9966,"Ġconvictions":9967,"ĠBoehner":9968,"Ġclassroom":9969,"Ġsiblings":9970,"ĠFormula":9971,"Ġdefendants":9972,"ĠAngela":9973,"ĠSportsmail":9974,"ĠLambert":9975,"Ġrealize":9976,"ĠAk":9977,"Ġfinance":9978,"ulpt":9979,"itnesses":9980,"Oh":9981,"ĠOwen":9982,"ĠBrid":9983,"Ġpersp":9984,"bound":9985,"ĠBark":9986,"ĠKirk":9987,"ĠMedia":9988,"three":9989,"Ġhandful":9990,"Ġcovers":9991,"Ġborrow":9992,"Ġlimits":9993,"Ġliquid":9994,"Ġdise":9995,"Ġmidnight":9996,"Ġrecall":9997,"ĠClaire":9998,"Ġcompeting":9999,"aki":10000,"Ġdifferences":10001,"Ġdresses":10002,"Ġtablet":10003,"Ġsignal":10004,"ĠCastle":10005,"Ġbacteria":10006,"ĠBou":10007,"opez":10008,"Ġtriggered":10009,"ĠRen":10010,"Ġplun":10011,"ĠLank":10012,"Ġfate":10013,"Ġburns":10014,"Ġmethods":10015,"Ġ120":10016,"Ġprint":10017,"Ġbrands":10018,"ĠGM":10019,"ĠBron":10020,"More":10021,"ographic":10022,"shirt":10023,"Ġathlete":10024,"ĠLut":10025,"Ġarrives":10026,"ĠEmbassy":10027,"ĠCaribbean":10028,"ĠFe":10029,"Ġsoul":10030,"Ġscreening":10031,"57":10032,"identified":10033,"ĠBrighton":10034,"Ġ1989":10035,"ĠVladimir":10036,"Ġrefusing":10037,"Washington":10038,"Ġsmiling":10039,"Ġoverd":10040,"endment":10041,"ques":10042,"Ġanalysts":10043,"Ġaggravated":10044,"Ġcreation":10045,"Ġconfronted":10046,"areth":10047,"vard":10048,"ĠTan":10049,"Ġsuspension":10050,"Ġwage":10051,"Ġchoices":10052,"ĠWol":10053,"Ġeval":10054,"Ġswept":10055,"Ġ1991":10056,"Today":10057,"Ġrot":10058,"ĠShel":10059,"ĠSamantha":10060,"ĠSophie":10061,"Ġwheelchair":10062,"Ġurban":10063,"Ġglobe":10064,"ĠCaroline":10065,"Ġmo":10066,"ĠSomerset":10067,"Ġkilometers":10068,"profit":10069,"ĠFerrari":10070,"ĠNevada":10071,"Ġintimid":10072,"Ġwooden":10073,"Ġevacuated":10074,"ĠBrussels":10075,"Ġairlines":10076,"Ġassessment":10077,"Ġrecip":10078,"Ġnightclub":10079,"Ġconversations":10080,"irds":10081,"ĠEnvironment":10082,"Ġcareful":10083,"Ġhook":10084,"Ġranks":10085,"Ġfields":10086,"Ġlandscape":10087,"Ġweekly":10088,"ĠEmergency":10089,"Ġsnap":10090,"ĠOpinion":10091,"Ġsmiles":10092,"ĠCarlos":10093,"Ġtoxic":10094,"Ġdifficulties":10095,"ĠNicole":10096,"58":10097,"ĠBenj":10098,"riages":10099,"ĠPhoen":10100,"ante":10101,"Ġarguing":10102,"ĠNeighb":10103,"Ġfo":10104,"acco":10105,"Ġfortun":10106,"Ġdeficit":10107,"Ġairstri":10108,"ĠOrleans":10109,"Ġcease":10110,"Ġlobby":10111,"08":10112,"ĠPrix":10113,"iti":10114,"Ġbloody":10115,"Ġdeleg":10116,"Ġvaluable":10117,"Don":10118,"ĠSergio":10119,"ĠYard":10120,"ĠDevelop":10121,"Ġstorms":10122,"Ġstrang":10123,"Ġinstitutions":10124,"ĠCDC":10125,"addy":10126,"Ġboots":10127,"ĠHundreds":10128,"Ġideal":10129,"Ġaccidentally":10130,"Ġimproving":10131,"Ġcake":10132,"Any":10133,"Ġtactics":10134,"Ġpound":10135,"giving":10136,"Ġlasted":10137,"Ġzoo":10138,"Ġoxygen":10139,"has":10140,"Ġsque":10141,"Ġmassacre":10142,"Ġforest":10143,"Ġgenerations":10144,"kel":10145,"Ġproducing":10146,"Ġmamm":10147,"ĠBale":10148,"ĠRight":10149,"Ġholes":10150,"Ġtechnique":10151,"Ġassociation":10152,"ĠPhilippines":10153,"Ġsamples":10154,"Ġdumped":10155,"Ġexpenses":10156,"through":10157,"Ġtourism":10158,"Ġbite":10159,"Ġaddiction":10160,"Ġrolled":10161,"ĠRoc":10162,"Ġstops":10163,"ĠKath":10164,"ĠCu":10165,"lington":10166,"Ġmurdering":10167,"Ġinterven":10168,"Ġprincipal":10169,"Ġsyndrome":10170,"ĠDream":10171,"Ġmovements":10172,"Ġtrauma":10173,"uten":10174,"ĠYan":10175,"Ġrapidly":10176,"Ġexha":10177,"ĠMaj":10178,"Ġgroom":10179,"ubb":10180,"Ġexplosive":10181,"Ġmusical":10182,"Ġinterior":10183,"Ġorange":10184,"Ġsalt":10185,"ĠCa":10186,"ĠBolton":10187,"Ġsne":10188,"Ġcheese":10189,"Ġtreas":10190,"ĠExpl":10191,"GB":10192,"stairs":10193,"ĠHaiti":10194,"ĠRover":10195,"Ġshootings":10196,"ĠNorway":10197,"Ġresignation":10198,"Ġrepresentatives":10199,"Ġcategory":10200,"Ġfoul":10201,"Ġparole":10202,"Then":10203,"Ġtrials":10204,"Ġpunched":10205,"Ġdiscussions":10206,"Ġpure":10207,"ĠCape":10208,"ĠPhoenix":10209,"Former":10210,"istant":10211,"pless":10212,"Ġengage":10213,"Ġuncovered":10214,"Ġvolunteer":10215,"Ġsessions":10216,"Ġbol":10217,"ĠGay":10218,"Ġcurrency":10219,"ortheast":10220,"Ġcancelled":10221,"Ġundert":10222,"Ġactors":10223,"43":10224,"ĠTro":10225,"Ġrecognition":10226,"Ġlaunching":10227,"Ġfrustrated":10228,"Ġchallenged":10229,"Ġstake":10230,"grat":10231,"Ġromantic":10232,"Ġexplosives":10233,"ouces":10234,"Ġspots":10235,"Ġfurious":10236,"Ġprevented":10237,"kinson":10238,"Ġincor":10239,"Ġinitiative":10240,"agen":10241,"ĠSri":10242,"amental":10243,"Ġliver":10244,"ĠLopez":10245,"Ġpaed":10246,"ĠBureau":10247,"ĠMick":10248,"Ġwoke":10249,"Ġconclusion":10250,"Ġcaring":10251,"encia":10252,"insula":10253,"Ġasleep":10254,"From":10255,"ĠGray":10256,"ĠCristiano":10257,"Ġfeeding":10258,"dinand":10259,"Ġconven":10260,"ĠJoy":10261,"52":10262,"ĠBed":10263,"Ġeveryday":10264,"beck":10265,"Ġwhilst":10266,"ĠFernando":10267,"ĠSel":10268,"Ġduo":10269,"ĠVincent":10270,"Ġtroubled":10271,"ĠSupport":10272,"cill":10273,"Ġforth":10274,"Ġfarmers":10275,"Ġrunway":10276,"Ġstunt":10277,"Ġintens":10278,"tainment":10279,"Ġwatches":10280,"nesty":10281,"ĠEconom":10282,"ĠPrice":10283,"bane":10284,"Ġseemingly":10285,"Ġmeteor":10286,"Ġshall":10287,"Ġstopping":10288,"Ġdiseases":10289,"ario":10290,"Ġextremists":10291,"government":10292,"Ġcooking":10293,"ĠGates":10294,"Ġcolours":10295,"screen":10296,"Ġpromising":10297,"Ġtower":10298,"ĠDal":10299,"Ġintensive":10300,"Ġreserved":10301,"ĠLeader":10302,"ĠScience":10303,"Ġmedals":10304,"ĠChair":10305,"oval":10306,"Ġlabour":10307,"ambling":10308,"yang":10309,"Ġjoked":10310,"ĠYe":10311,"Ġanxiety":10312,"amford":10313,"ĠIl":10314,"Ġdowntown":10315,"ĠGovernor":10316,"ĠObamacare":10317,"ĠPier":10318,"ĠEc":10319,"Ġspy":10320,"Ġbombings":10321,"istent":10322,"EFA":10323,"RS":10324,"Ġstorage":10325,"ĠPard":10326,"Ã¢":10327,"Ġprotective":10328,"Ġexecutives":10329,"mod":10330,"Ġindicate":10331,"ĠStur":10332,"ĠFarage":10333,"Ġodd":10334,"Ġprisoner":10335,"ĠStevens":10336,"Ġstarring":10337,"Ġfacial":10338,"ĠBobby":10339,"making":10340,"Ġcable":10341,"Ġmud":10342,"Ġmeters":10343,"Ġunderc":10344,"emetery":10345,"Ġultimate":10346,"Ġexamined":10347,"ĠCruz":10348,"NEW":10349,"ĠZoo":10350,"Ġseverely":10351,"eta":10352,"Me":10353,"Br":10354,"Ġtrem":10355,"CH":10356,"opping":10357,"asha":10358,"Ġlistening":10359,"ĠControl":10360,"ĠHolder":10361,"idi":10362,"Ġconsistent":10363,"ĠPict":10364,"comfort":10365,"Ġexploded":10366,"ĠOak":10367,"Ġcelebrations":10368,"Ġapplications":10369,"Ġfiance":10370,"PS":10371,"itated":10372,"Ġjumping":10373,"Ġbriefly":10374,"Ġshouting":10375,"bow":10376,"Ġdropping":10377,"Ġwatchdog":10378,"ĠRescue":10379,"ĠIbrahim":10380,"54":10381,"inee":10382,"Ġchase":10383,"Ġoutstanding":10384,"ĠNext":10385,"Ġjudgment":10386,"pol":10387,"ropical":10388,"Ġfulf":10389,"adget":10390,"idd":10391,"Ġhomicide":10392,"Ġdemonstrations":10393,"Ġdamaging":10394,"ĠCancer":10395,"ĠLiberal":10396,"ĠCelebr":10397,"erg":10398,"Ġcin":10399,"oga":10400,"vere":10401,"ĠThousands":10402,"Ġcam":10403,"Ġfer":10404,"Ġforecast":10405,"ĠGlouces":10406,"Ġcomedian":10407,"ĠPalin":10408,"Ġkeeper":10409,"ĠSeven":10410,"ĠQuest":10411,"Ġresear":10412,"Ġsenator":10413,"Ġfixed":10414,"ĠIns":10415,"ĠBenjamin":10416,"Ġerupted":10417,"ĠNadal":10418,"Ġanch":10419,"ĠFreedom":10420,"Ġtaxpayer":10421,"ĠPS":10422,"Ġgrant":10423,"opa":10424,"Ġrandom":10425,"ĠGonz":10426,"Ġintr":10427,"Ġinfant":10428,"Ġhighway":10429,"Ġhardly":10430,"rington":10431,"stead":10432,"Ġlengthy":10433,"Ġillustr":10434,"ĠLebanon":10435,"mart":10436,"Ġparade":10437,"ĠColumbia":10438,"ĠHitler":10439,"Ġpets":10440,"Ġcongrat":10441,"Ġtissue":10442,"Ġwishes":10443,"Ġduties":10444,"Ġinstalled":10445,"ecraft":10446,"ĠSot":10447,"Ġdescri":10448,"Ġlongest":10449,"ĠFerdinand":10450,"ateur":10451,"Ġbride":10452,"Ġtechniques":10453,"53":10454,"aggering":10455,"ĠGi":10456,"Ġlip":10457,"ĠLan":10458,"ĠForces":10459,"owski":10460,"inea":10461,"Ġexplanation":10462,"ĠGrace":10463,"ĠCosby":10464,"nan":10465,"Ġfingers":10466,"Ġsupports":10467,"Ġanswered":10468,"ĠSent":10469,"Ġadapt":10470,"shine":10471,"lus":10472,"ĠNSA":10473,"Ġunpre":10474,"Ġgard":10475,"Ġmph":10476,"ĠCass":10477,"Ġpenalties":10478,"ĠMiddleton":10479,"ĠLloyd":10480,"FC":10481,"Ġfastest":10482,"ĠEnergy":10483,"Ġhopefully":10484,"ĠNa":10485,"Ġprest":10486,"fect":10487,"Ġeighth":10488,"Ġshower":10489,"Ġlapt":10490,"ĠLabor":10491,"Ġhighlights":10492,"Ġglasses":10493,"Ġrifle":10494,"ĠHeathrow":10495,"Ġlaughing":10496,"ĠCompany":10497,"Ġwhistle":10498,"Ġ71":10499,"Ġ76":10500,"41":10501,"Ġwrest":10502,"Ġdisplayed":10503,"ĠWals":10504,"Ġterrified":10505,"Ġcheek":10506,"Ġopenly":10507,"ĠFOR":10508,"Ġcomplicated":10509,"Ġengineering":10510,"rov":10511,"onto":10512,"Ġburglary":10513,"zed":10514,"Ġconstitutional":10515,"ĠSUV":10516,"Ġdece":10517,"yon":10518,"Ġgotten":10519,"ourse":10520,"Ġballs":10521,"Ġgentle":10522,"Ġunprecedented":10523,"ultural":10524,"ĠCz":10525,"acker":10526,"Ġoperated":10527,"omers":10528,"Ġhistorical":10529,"Ġtablets":10530,"Ġmisconduct":10531,"ĠChen":10532,"Ġtrainer":10533,"Ġexpects":10534,"ĠJulian":10535,"Ġcyber":10536,"Ġmountains":10537,"ĠChamp":10538,"othy":10539,"liminary":10540,"Ġparamedics":10541,"GA":10542,"ĠShi":10543,"dam":10544,"ĠBishop":10545,"Ġads":10546,"Ġcolon":10547,"ĠFul":10548,"Ġpanic":10549,"ĠMohamed":10550,"ĠProtection":10551,"emor":10552,"Ġorganized":10553,"Ġsculpt":10554,"istory":10555,"Ġfabric":10556,"ĠLionel":10557,"Ġrelaxed":10558,"Ġinher":10559,"ĠTodd":10560,"Ġdramatically":10561,"Ġwidow":10562,"ĠDaw":10563,"cao":10564,"aph":10565,"isle":10566,"Ġcleaning":10567,"ĠCou":10568,"mir":10569,"ambers":10570,"Ġrepeat":10571,"Ġrecession":10572,"Ġcrackdown":10573,"piece":10574,"ĠPed":10575,"ĠBrisbane":10576,"ĠAlf":10577,"ĠWebb":10578,"ĠAhmad":10579,"Ġreop":10580,"Ġsituations":10581,"Ġhorrible":10582,"Ġexpectations":10583,"ventus":10584,"Ġgown":10585,"Ġlosses":10586,"ĠSat":10587,"lando":10588,"cuff":10589,"Ġturb":10590,"Ġrecre":10591,"ubar":10592,"fish":10593,"von":10594,"Ġaired":10595,"Ġdesperately":10596,"raged":10597,"rition":10598,"ĠTragic":10599,"hettino":10600,"ĠKit":10601,"Ġmarch":10602,"Ġnecessarily":10603,"Ġdeadline":10604,"Ġconnect":10605,"Ġaston":10606,"ĠHarvard":10607,"Ġbutton":10608,"ĠField":10609,"ĠGareth":10610,"Ġgal":10611,"Ġcheaper":10612,"aro":10613,"Ġalerted":10614,"ĠTrip":10615,"ĠBattle":10616,"ĠBrun":10617,"izon":10618,"Ġbuyers":10619,"ĠGalaxy":10620,"Ġdominated":10621,"bus":10622,"Ġboun":10623,"Ġpromoting":10624,"doch":10625,"eway":10626,"Ġslim":10627,"ĠPeace":10628,"ao":10629,"Ġsnapped":10630,"Ġposter":10631,"ĠPo":10632,"ĠOz":10633,"ception":10634,"ĠHan":10635,"ĠPrest":10636,"necess":10637,"rank":10638,"Ġtons":10639,"Ġwages":10640,"Ġdeterior":10641,"plete":10642,"Ġwhis":10643,"ĠInn":10644,"ĠLarry":10645,"Ġvaccine":10646,"Ġmol":10647,"Ġopens":10648,"ĠEntertainment":10649,"fund":10650,"Ġax":10651,"ura":10652,"ĠLiga":10653,"ĠPit":10654,"Ġnewborn":10655,"ĠOnline":10656,"ĠCust":10657,"ĠFashion":10658,"ĠObs":10659,"ortmund":10660,"Ġexperim":10661,"Ġtalented":10662,"ĠValent":10663,"Ġdivorced":10664,"Ġgate":10665,"ĠSilva":10666,"ĠJews":10667,"Ġstupid":10668,"Ġawful":10669,"Ġviolation":10670,"ĠAlexis":10671,"ĠWor":10672,"ementia":10673,"Ġrobot":10674,"ĠHud":10675,"ouses":10676,"Ġmail":10677,"Ġprivile":10678,"ĠAbdul":10679,"itol":10680,"ĠPerez":10681,"Or":10682,"Ġ700":10683,"atural":10684,"Ġstatistics":10685,"enh":10686,"osexual":10687,"ĠNSW":10688,"Ġgod":10689,"Ġspray":10690,"azed":10691,"Ġharsh":10692,"Ġracism":10693,"Ġunacceptable":10694,"Ġclimbing":10695,"di":10696,"Ġbasically":10697,"Ġsomehow":10698,"ĠGlobal":10699,"arded":10700,"Ġarguments":10701,"Ġstrain":10702,"ĠKaren":10703,"weather":10704,"Ġpublication":10705,"Ġscientist":10706,"Ġflex":10707,"ipper":10708,"ĠBund":10709,"Ġleather":10710,"ghazi":10711,"ĠBlake":10712,"Ġawaiting":10713,"Ġrecognize":10714,"Ġclosest":10715,"ci":10716,"ĠShan":10717,"ĠInspector":10718,"Ġsued":10719,"annon":10720,"Ġgru":10721,"Ġradiation":10722,"Ġpointing":10723,"Ġprompting":10724,"ĠUEFA":10725,"Ġcarpet":10726,"rena":10727,"ĠAdrian":10728,"Ġankle":10729,"Dav":10730,"iang":10731,"ocated":10732,"Ġspotlight":10733,"Ġsteel":10734,"ĠCairo":10735,"ĠAlexand":10736,"tail":10737,"orey":10738,"itar":10739,"Ġendors":10740,"Ġapologise":10741,"Ġlun":10742,"ibilities":10743,"ĠPerhaps":10744,"ĠSpeaker":10745,"Ġtermin":10746,"Ġforensic":10747,"Ġpercentage":10748,"Ġindictment":10749,"ĠID":10750,"threat":10751,"orters":10752,"ĠMall":10753,"Ġgovern":10754,"ĠJill":10755,"Ġcomprehens":10756,"Ġjewell":10757,"LS":10758,"Yes":10759,"power":10760,"idance":10761,"OT":10762,"grini":10763,"ĠIndeed":10764,"Ġnightmare":10765,"Ġfunded":10766,"gans":10767,"Ġpresidency":10768,"05":10769,"95":10770,"alo":10771,"Ġcontam":10772,"atching":10773,"Ġclinical":10774,"ĠPardew":10775,"Ġunidentified":10776,"Ġattrib":10777,"ormal":10778,"Ġautopsy":10779,"ĠGuardian":10780,"Ġborders":10781,"ĠConf":10782,"Ġflooded":10783,"Ġresolve":10784,"sized":10785,"Ġcraft":10786,"asp":10787,"Ġmotivated":10788,"mine":10789,"ĠSuch":10790,"ĠHarrison":10791,"ĠPeru":10792,"ĠMembers":10793,"ĠProsecutor":10794,"Ġhoney":10795,"ifting":10796,"aria":10797,"Ġaccusing":10798,"you":10799,"then":10800,"rowing":10801,"Ġrises":10802,"Ġunt":10803,"May":10804,"Ġinner":10805,"Ġattacker":10806,"Ġliberal":10807,"Ġdeliberately":10808,"Ġdign":10809,"dro":10810,"Ġrecognised":10811,"dles":10812,"Ġbutter":10813,"Ġmentally":10814,"ĠHus":10815,"Ġlists":10816,"Ġguarantee":10817,"ĠDortmund":10818,"Ġranked":10819,"Ġequally":10820,"Ġbattles":10821,"ĠMurdoch":10822,"Ġreasonable":10823,"Ġunderwater":10824,"Ġcomparison":10825,"Ġperspective":10826,"Ġphr":10827,"ectives":10828,"Ġdangers":10829,"ĠHappy":10830,"ĠArthur":10831,"Ġsponsors":10832,"Ġheels":10833,"ĠGame":10834,"Ġunrest":10835,"heimer":10836,"kg":10837,"idges":10838,"Ġacres":10839,"Ġfamously":10840,"ĠNat":10841,"ĠHop":10842,"Ġavoided":10843,"ĠJav":10844,"enna":10845,"ĠBenghazi":10846,"Ġforgotten":10847,"Ġreluct":10848,"Ġcarrier":10849,"Ġcontinent":10850,"Ġemerging":10851,"Ġelabor":10852,"Ġdefeated":10853,"ĠCroat":10854,"osa":10855,"ĠRosberg":10856,"Des":10857,"Ġpresents":10858,"Ġdivided":10859,"ĠStephan":10860,"Ġundergoing":10861,"olan":10862,"):":10863,"Ġfever":10864,"Ġexplore":10865,"Ġsubmitted":10866,"Ġemployers":10867,"ĠLamb":10868,"Ġwarns":10869,"ĠCampaign":10870,"Ġslipped":10871,"Ġreaders":10872,"gement":10873,"ĠSpr":10874,"Ġscreens":10875,"Ġvolunt":10876,"Ġconsent":10877,"ĠVeter":10878,"Ġcafe":10879,"Ġmissiles":10880,"Ġrecognise":10881,"riot":10882,"Ġratings":10883,"Ġlets":10884,"Ġassaulting":10885,"Ġconstitu":10886,"iscal":10887,"Ġhighlighted":10888,"Ġcord":10889,"rien":10890,"Ġeligible":10891,"daughter":10892,"Ġdisappointing":10893,"ĠSaint":10894,"Ġpetrol":10895,"ĠBelgian":10896,"Ġgross":10897,"Ġproven":10898,"Ġestimate":10899,"ĠRobertson":10900,"ĠToy":10901,"Ġstaggering":10902,"Ġjunior":10903,"ĠIII":10904,"ĠUr":10905,"Ġorbit":10906,"Ġshake":10907,"Ġqualifying":10908,"idav":10909,"ĠAge":10910,"bes":10911,"ĠAbbey":10912,"ĠOrlando":10913,"regas":10914,"Ġappreciate":10915,"ĠPellegrini":10916,"Ġbackl":10917,"ĠFront":10918,"Ġoperator":10919,"Ġconverted":10920,"Car":10921,"ĠLight":10922,"Ġdepth":10923,"Ġnaturally":10924,"ĠTeh":10925,"ĠBase":10926,"Ġgrandchildren":10927,"Ġcoinc":10928,"Ġfiles":10929,"Ġstabbing":10930,"ĠToronto":10931,"Ġperpet":10932,"Ġ73":10933,"Ġdeport":10934,"avez":10935,"01":10936,"Ġvanished":10937,"ĠMH":10938,"ĠSenior":10939,"hedral":10940,"ĠBilly":10941,"bye":10942,"Bay":10943,"Ġkinds":10944,"Ġclosure":10945,"ilia":10946,"aders":10947,"aired":10948,"ĠCow":10949,"Ġtumour":10950,"Ġpole":10951,"ĠAirways":10952,"Eng":10953,"Go":10954,"Ġsignature":10955,"feed":10956,"Ġchemotherapy":10957,"65":10958,"HO":10959,"selling":10960,"onso":10961,"Ġdonor":10962,"Ġspirits":10963,"ĠBloomberg":10964,"Let":10965,"Ġrestore":10966,"ĠFalcao":10967,"Ġsophist":10968,"iped":10969,"ĠSenator":10970,"Ġdetective":10971,"ĠCzech":10972,"ubarak":10973,"09":10974,"US":10975,"anor":10976,"Ġeager":10977,"astro":10978,"Ġbron":10979,"Ġportrait":10980,"Ġexistence":10981,"07":10982,"Ġsolve":10983,"ĠLin":10984,"Ġfranch":10985,"Ġresponding":10986,"finals":10987,"zh":10988,"Ġdyn":10989,"ĠFoster":10990,"Ġconsumption":10991,"Ġmotorc":10992,"ĠBradford":10993,"amic":10994,"ĠEight":10995,"Ġformally":10996,"Ġcalend":10997,"Ġdining":10998,"Ġparticipate":10999,"Ġnewspapers":11000,"good":11001,"ĠSwedish":11002,"ousand":11003,"ĠFall":11004,"Ġregardless":11005,"Ġhostages":11006,"vo":11007,"Ġacceler":11008,"Ġrating":11009,"Ġsuing":11010,"years":11011,"ĠPolitical":11012,"Ġseas":11013,"Ġsearches":11014,"Ġgallery":11015,"pret":11016,"ĠPoll":11017,"Ġhailed":11018,"name":11019,"Ġcoma":11020,"Ġvegetables":11021,"Ġphenomen":11022,"Ġ74":11023,"Ġaffidav":11024,"Ġfairly":11025,"ĠOperation":11026,"urst":11027,"Ġqualified":11028,"uese":11029,"Ġrelation":11030,"ĠArn":11031,"ensus":11032,"ĠMusic":11033,"Ġrely":11034,"Ġtracking":11035,"ĠIV":11036,"ĠStra":11037,"Ġrecognized":11038,"haul":11039,"heless":11040,"Ġgraphic":11041,"ifford":11042,"Ġtrio":11043,"Ġrelevant":11044,"Ġautumn":11045,"ĠValencia":11046,"Ġattractive":11047,"rac":11048,"Ġwww":11049,"itement":11050,"ĠCold":11051,"iper":11052,"ĠNearly":11053,"orset":11054,"Ġmosque":11055,"Ġbeaches":11056,"ĠHass":11057,"Ġbasement":11058,"Gen":11059,"ĠDJ":11060,"Ġexamination":11061,"Ġvessels":11062,"ĠCommunity":11063,"Ġreducing":11064,"ĠWas":11065,"ĠKu":11066,"ĠBath":11067,"Ġtheater":11068,"Ġfurniture":11069,"zes":11070,"Ġchronic":11071,"Ġast":11072,"ĠStamford":11073,"ĠLiberia":11074,"Ġsubsequently":11075,"moon":11076,"embers":11077,"ĠHunter":11078,"ĠKy":11079,"Ġfrustration":11080,"ĠLancaster":11081,"doing":11082,"ĠSex":11083,"Ġmall":11084,"knapp":11085,"Ġbullets":11086,"Ġpod":11087,"Ġdementia":11088,"ĠET":11089,"ĠHispan":11090,"Ġhandled":11091,"EC":11092,"ika":11093,"say":11094,"Ġbanking":11095,"arity":11096,"ĠJerry":11097,"Ġlethal":11098,"ĠGabri":11099,"Ġseiz":11100,"Ġsubjected":11101,"Ġurge":11102,"Ġripped":11103,"Ġflee":11104,"Ġhik":11105,"Ġmissions":11106,"Ġsubstitute":11107,"yes":11108,"Ġfestive":11109,"ĠIndependent":11110,"Am":11111,"Ġyard":11112,"Ġdemocratic":11113,"ĠBernard":11114,"Ġdraft":11115,"Ġradar":11116,"Ġbutt":11117,"Ġbeef":11118,"ework":11119,"Ġsupporter":11120,"ĠDelhi":11121,"Ġmirror":11122,"rupted":11123,"Ġhalt":11124,"ĠCro":11125,"Ġunions":11126,"Ġstripped":11127,"ĠFabregas":11128,"Ġpraise":11129,"Ġfare":11130,"oting":11131,"utt":11132,"emies":11133,"ĠJuventus":11134,"Ġstrateg":11135,"Ġwreckage":11136,"Ġcoaches":11137,"Ġguidance":11138,"ĠRoberto":11139,"ĠMerkel":11140,"Ġappealed":11141,"ĠLampard":11142,"ĠDead":11143,"Ġuploaded":11144,"Ġnomination":11145,"comfortable":11146,"Ġmenu":11147,"Ġcoastal":11148,"Will":11149,"Ġrespected":11150,"Ġshouted":11151,"ĠArsene":11152,"Ġlongtime":11153,"Ġterrifying":11154,"ĠWeather":11155,"ĠResp":11156,"yer":11157,"Ġphase":11158,"Ġgrief":11159,"Ġintroduce":11160,"Ġanyway":11161,"Ġgolden":11162,"ĠArmed":11163,"Ġcontracts":11164,"Ġles":11165,"Ġjets":11166,"Ġpartly":11167,"ĠMarie":11168,"ĠAward":11169,"Ġstability":11170,"Ġhandcuff":11171,"ĠRafael":11172,"rated":11173,"Ġoffender":11174,"Ġedition":11175,"Ġrolling":11176,"ĠKel":11177,"Ġarranged":11178,"respons":11179,"sl":11180,"ĠChavez":11181,"ĠSunni":11182,"Ġnowhere":11183,"ĠSingh":11184,"ĠJoshua":11185,"Ġclassified":11186,"Ġnetworking":11187,"ĠSara":11188,"ĠAst":11189,"Ġmortgage":11190,"ĠAguero":11191,"Ġnavig":11192,"Ġfreezing":11193,"Ġexplaining":11194,"ĠRic":11195,"Ġfundamental":11196,"ĠCasey":11197,"Because":11198,"uccess":11199,"ĠDennis":11200,"isp":11201,"Ġelectrical":11202,"Ġextremist":11203,"ansion":11204,"ĠDak":11205,"Ġdies":11206,"iege":11207,"Ġregarded":11208,"ĠInformation":11209,"eating":11210,"oped":11211,"Ġartific":11212,"ĠPalestinians":11213,"Ġash":11214,"Ġcommunicate":11215,"igration":11216,"Ġepid":11217,"olded":11218,"inding":11219,"Ġacademic":11220,"06":11221,"Ġlesson":11222,"Ġsurviving":11223,"fa":11224,"ĠThai":11225,"Ġwaist":11226,"Ġvit":11227,"ĠBoris":11228,"ĠArgentine":11229,"Ġqualify":11230,"vity":11231,"Ġattackers":11232,"ullivan":11233,"Ġantib":11234,"Ġvirtually":11235,"ĠRou":11236,"iere":11237,"ĠBes":11238,"Ġendang":11239,"Ġspacecraft":11240,"Ġcharities":11241,"Ġlap":11242,"alking":11243,"Ġautomatically":11244,"gain":11245,"Ġcomeback":11246,"kick":11247,"Ġgrade":11248,"Ġfirearms":11249,"stitutes":11250,"Ġcargo":11251,"Ġcanceled":11252,"Ġslip":11253,"umping":11254,"umbled":11255,"ĠRedknapp":11256,"Ġstance":11257,"ĠGro":11258,"Ġorgans":11259,"zai":11260,"Ġhij":11261,"Ġflags":11262,"Ġdrones":11263,"Ġchemicals":11264,"ĠScene":11265,"Ġ02":11266,"ĠPortuguese":11267,"ĠAber":11268,"ĠReagan":11269,"AN":11270,"ĠMors":11271,"mission":11272,"Ġremoving":11273,"ĠWay":11274,"lain":11275,"Ġaide":11276,"ĠFarm":11277,"ĠNine":11278,"ĠThames":11279,"Ġemotions":11280,"otal":11281,"Ġpreliminary":11282,"Ġsuits":11283,"Ġdonate":11284,"Ġconsecutive":11285,"Ġjewellery":11286,"rae":11287,"Ġsufficient":11288,"ĠMason":11289,"ĠPalmer":11290,"parents":11291,"Ġindication":11292,"Ġrisen":11293,"Ġportion":11294,"Ġspan":11295,"ieves":11296,"ĠCapitol":11297,"ĠGene":11298,"ĠCountry":11299,"scale":11300,"ĠCurrent":11301,"ĠDrug":11302,"ĠCer":11303,"Everyone":11304,"ĠLine":11305,"ĠNever":11306,"Ġtone":11307,"icting":11308,"Ġbarr":11309,"Ġtouching":11310,"Ġrubb":11311,"Ġprofessionals":11312,"fers":11313,"itious":11314,"oh":11315,"Ġperce":11316,"affe":11317,"Ġserves":11318,"Ġbust":11319,"broken":11320,"Ġmarathon":11321,"Ġevil":11322,"Ġraises":11323,"ĠBarn":11324,"agle":11325,"being":11326,"Ġaunt":11327,"vet":11328,"rawn":11329,"neath":11330,"ĠLeone":11331,"Ġpolitically":11332,"Ġgadget":11333,"Ġrevelations":11334,"actions":11335,"Ġsubsequent":11336,"Ġjeans":11337,"ĠBieber":11338,"ĠTehran":11339,"51":11340,"Of":11341,"Ġunnamed":11342,"ĠVar":11343,"ĠAustralians":11344,"ĠColin":11345,"Ġdoubled":11346,"ĠNatal":11347,"Ġdepend":11348,"ortunate":11349,"Ġarts":11350,"Ġnursing":11351,"Ġheader":11352,"Ġstruggles":11353,"Ġvirtual":11354,"jud":11355,"ewhat":11356,"Ġsmooth":11357,"ĠRogers":11358,"ĠNik":11359,"onder":11360,"folk":11361,"ĠAN":11362,"Ġcontext":11363,"ĠCohen":11364,"ĠMubarak":11365,"cr":11366,"ocation":11367,"ĠKenn":11368,"Ġlegitimate":11369,"ĠRand":11370,"apolis":11371,"Ġweighing":11372,"Ġcycling":11373,"raught":11374,"Ġslept":11375,"Ġfleet":11376,"Ġaviation":11377,"Ġ1986":11378,"Ġinev":11379,"ĠGarden":11380,"Ġtunnel":11381,"ulting":11382,"ensed":11383,"Ġcoup":11384,"Ġminds":11385,"ĠTiger":11386,"ĠAbove":11387,"cribed":11388,"Ġscrutiny":11389,"Ġendured":11390,"eter":11391,"ulent":11392,"ĠHurricane":11393,"ĠMaine":11394,"ĠKr":11395,"Ġviolated":11396,"Ġceiling":11397,"fordshire":11398,"steroid":11399,"Ġtracked":11400,"Ġcreatures":11401,"Ġabusing":11402,"Ġapologized":11403,"ĠNYPD":11404,"ommy":11405,"hal":11406,"ĠMasters":11407,"IDS":11408,"Ġdemonstration":11409,"Ġbomber":11410,"Ġorganis":11411,"ĠCuban":11412,"Ġdisturbing":11413,"ĠSuff":11414,"iler":11415,"outheast":11416,"ĠChristine":11417,"sein":11418,"Ph":11419,"ĠImp":11420,"ĠOpp":11421,"Ġ1988":11422,"ephew":11423,"Ġinfections":11424,"ĠCorp":11425,"bast":11426,"casters":11427,"ĠBarnes":11428,"Ġcommissioner":11429,"Ġconfidential":11430,"ĠDise":11431,"Ġreduction":11432,"Ġbiological":11433,"ingu":11434,"ongyang":11435,"Res":11436,"Ġprince":11437,"Ġsubstantial":11438,"four":11439,"ĠWithout":11440,"umm":11441,"Ġstatue":11442,"IL":11443,"ĠFo":11444,"Ġspare":11445,"Ġinterrog":11446,"Ġcenturies":11447,"Ġconfused":11448,"spec":11449,"Ġunaware":11450,"Ġloans":11451,"ĠPrize":11452,"ĠPeterson":11453,"ĠDeath":11454,"Ġremoval":11455,"ĠLuk":11456,"Ġunderwear":11457,"Ġspeeds":11458,"Ġfleeing":11459,"Ġaffidavit":11460,"Ġhaz":11461,"Ġfrequent":11462,"Ġ1982":11463,"cest":11464,"ĠiReport":11465,"IM":11466,"ĠDiamond":11467,"Ġpsychological":11468,"Ġbattled":11469,"Ġlined":11470,"ĠEsp":11471,"Ġpatterns":11472,"Ġingredients":11473,"Ġyacht":11474,"ĠTM":11475,"Ġraping":11476,"ĠCoalition":11477,"Ġbeds":11478,"tion":11479,"believ":11480,"ĠBashar":11481,"Ġpolar":11482,"ĠRyder":11483,"lu":11484,"ĠHind":11485,"udes":11486,"Ġinsisting":11487,"ĠNicholas":11488,"Ġaccurate":11489,"Ġpaedoph":11490,"ĠHerald":11491,"Ġdepos":11492,"ĠHenderson":11493,"Ġcharging":11494,"Ġengineers":11495,"Ġexceed":11496,"Ġjokes":11497,"Ġparks":11498,"ĠMoss":11499,"ĠKiev":11500,"Ġviolations":11501,"ylan":11502,"iy":11503,"Ġseal":11504,"Ġprescription":11505,"Ġresidential":11506,"rawl":11507,"Ġinstructions":11508,"Ġadjust":11509,"ĠPrison":11510,"Ġprestigious":11511,"Ġqueen":11512,"Ġflav":11513,"Ġappealing":11514,"Ġtipped":11515,"izer":11516,"Ġexception":11517,"Ġdated":11518,"ĠAth":11519,"Ġlibrary":11520,"Ġmembership":11521,"Ġcure":11522,"Ġlone":11523,"icy":11524,"aka":11525,"assion":11526,"Ġraw":11527,"ĠBennett":11528,"ĠPriv":11529,"Ġspaces":11530,"Ġproducers":11531,"ĠHung":11532,"ablo":11533,"Ġgoverning":11534,"Ġvet":11535,"ĠGuinea":11536,"Ġimmune":11537,"ĠSamar":11538,"ĠHistory":11539,"Ġsealed":11540,"Ġtribunal":11541,"Ġpants":11542,"ĠPolish":11543,"ĠResidents":11544,"ĠTai":11545,"ĠLucas":11546,"President":11547,"Ġrunner":11548,"Ġtransformed":11549,"intendent":11550,"ĠAgain":11551,"ĠBerry":11552,"ĠSamuel":11553,"Ġboxing":11554,"rieve":11555,"Ġpublicity":11556,"Ġcommonly":11557,"Ġate":11558,"ĠTransportation":11559,"ĠNorman":11560,"orton":11561,"ĠWarner":11562,"Ġrecalls":11563,"Ġterminal":11564,"Ġwings":11565,"ĠAbdullah":11566,"Ġkicking":11567,"Ġprecise":11568,"Ġhorm":11569,"Ġmanip":11570,"Ġcasualties":11571,"hend":11572,"ERE":11573,"App":11574,"Ġdiving":11575,"munition":11576,"ĠFrances":11577,"urred":11578,"ĠBeth":11579,"Ġunnecess":11580,"Ġdisability":11581,"ĠGlass":11582,"erie":11583,"ĠAlz":11584,"Ġtravelers":11585,"Ġbillionaire":11586,"Ġhelicopters":11587,"Ġsatisfied":11588,"ĠTunis":11589,"Ġtong":11590,"Ġdifficulty":11591,"Ġrab":11592,"Ġengines":11593,"Ġairpl":11594,"ĠPrim":11595,"umps":11596,"Ġdelivering":11597,"Ġspreading":11598,"Ġfoss":11599,"ometown":11600,"Ġretailers":11601,"ht":11602,"Ġembarrassing":11603,"Bar":11604,"ancial":11605,"Ġfights":11606,"ĠGas":11607,"Ġsheet":11608,"Ġvillages":11609,"Ġvoices":11610,"Ġrevenge":11611,"Ġdesp":11612,"Ġ82":11613,"Ġbillions":11614,"Ġgreeted":11615,"Ġplain":11616,"Ġfocusing":11617,"Ġupdate":11618,"ouds":11619,"ĠOrganization":11620,"Ġconceded":11621,"ĠChes":11622,"ĠPoc":11623,"Ġbug":11624,"Ġthousand":11625,"Ġpreventing":11626,"Ġunderneath":11627,"ĠRichardson":11628,"ilitation":11629,"opes":11630,"Ġfloating":11631,"ĠArena":11632,"ĠChristians":11633,"85":11634,"ĠKas":11635,"ĠInterior":11636,"Ġoverweight":11637,"Ġcreates":11638,"Ġembrace":11639,"Ġrelating":11640,"Ġfatally":11641,"Ġleak":11642,"about":11643,"Ġpharm":11644,"Ġgesture":11645,"Ġmate":11646,"Ġexpression":11647,"Ġannouncing":11648,"Ġtrucks":11649,"ĠBudd":11650,"uers":11651,"Ġlatter":11652,"Ġammunition":11653,"ĠCorps":11654,"Ġdollar":11655,"ste":11656,"anyahu":11657,"Ġswing":11658,"Ġpromotion":11659,"Ġsink":11660,"Ġexplicit":11661,"Ġclimbed":11662,"ĠDevelopment":11663,"ĠZh":11664,"ĠLock":11665,"ardash":11666,"Ġcampaigners":11667,"ĠOrange":11668,"child":11669,"Ġdisappoint":11670,"ĠGriffith":11671,"ĠPyongyang":11672,"ĠHag":11673,"una":11674,"Neill":11675,"Ġownership":11676,"Ġreunited":11677,"sers":11678,"ĠGot":11679,"Ġretain":11680,"Ġpunch":11681,"usky":11682,"Ġpurposes":11683,"ĠCho":11684,"ĠEp":11685,"Ġswift":11686,"Ġmoral":11687,"ĠChairman":11688,"Ġinvent":11689,"Ġhugely":11690,"usalem":11691,"Ġnominated":11692,"rying":11693,"Ġsignals":11694,"Ġmotorists":11695,"Ġhaul":11696,"Ġuseful":11697,"Ġdemol":11698,"cal":11699,"olo":11700,"ologies":11701,"Ġspends":11702,"Ġcalendar":11703,"western":11704,"ĠKings":11705,"Ġnephew":11706,"Ġstarred":11707,"Ġ+":11708,"ĠArkansas":11709,"rising":11710,"ĠTake":11711,"Ġproportion":11712,"icians":11713,"Ġuniversities":11714,"Ġrestored":11715,"ĠSturridge":11716,"Ġheritage":11717,"Ġdevoted":11718,"Ġ1984":11719,"Ġpione":11720,"ĠFederation":11721,"ĠShah":11722,"Ġassociate":11723,"Ġecho":11724,"Ġx":11725,"Ġcops":11726,"olks":11727,"adi":11728,"Ġcompon":11729,"ĠTyler":11730,"Ġtexts":11731,"Ġindecent":11732,"ascus":11733,"Ġshooter":11734,"Ġcollecting":11735,"ĠHomeland":11736,"there":11737,"ĠReed":11738,"Ġpupil":11739,"Ġgiants":11740,"ducted":11741,"Ġ95":11742,"inge":11743,"ĠAnimal":11744,"ĠRest":11745,"Ġcopies":11746,"luded":11747,"lining":11748,"timore":11749,"ampa":11750,"Ġimprovement":11751,"Ġdisplays":11752,"ĠCre":11753,"ĠPa":11754,"Ġdeciding":11755,"ĠMaybe":11756,"Ġvom":11757,"Ġballoon":11758,"Ġsuggestion":11759,"ĠWool":11760,"ĠNaz":11761,"ĠThrough":11762,"ĠAlzheimer":11763,"oub":11764,"Ġconvent":11765,"Ġselfie":11766,"word":11767,"ĠBear":11768,"Ġprinted":11769,"ressing":11770,"Ġfines":11771,"Ġbankrupt":11772,"ĠDivision":11773,"ĠBever":11774,"ĠStanley":11775,"mid":11776,"ĠTorres":11777,"Ġfiling":11778,"ĠNorfolk":11779,"gener":11780,"Ġpornography":11781,"Ġsophisticated":11782,"agu":11783,"ĠAlmost":11784,"lon":11785,"Ġhood":11786,"ĠCarroll":11787,"Ġpreparation":11788,"Ġrefuse":11789,"SE":11790,"Ġpizza":11791,"Ġrespectively":11792,"Ġcared":11793,"Ġhometown":11794,"Ġopener":11795,"Ġbeside":11796,"ĠDorset":11797,"Ġspill":11798,"ĠAlice":11799,"mith":11800,"Ġstir":11801,"ĠBorder":11802,"ĠExt":11803,"Ġurgent":11804,"ĠGhana":11805,"Ġboom":11806,"Ġcoaching":11807,"Ġundercover":11808,"ĠAM":11809,"ĠInvestigation":11810,"ĠMountain":11811,"Ġtravellers":11812,"ĠLinda":11813,"ĠHudson":11814,"Ġshield":11815,"Ġblonde":11816,"Ġshoulders":11817,"ĠEuropa":11818,"ĠJobs":11819,"ĠKardash":11820,"Ġmotive":11821,"Ġacademy":11822,"Ġacid":11823,"Ġreceives":11824,"Ġpubl":11825,"Ġsomewhat":11826,"Offic":11827,"ricted":11828,"Ġversions":11829,"ĠLiam":11830,"Ġenv":11831,"Ġlandmark":11832,"Ġquant":11833,"Ġfool":11834,"Ġdeserves":11835,"tenance":11836,"ĠFalk":11837,"Ġmonarch":11838,"ĠDamascus":11839,"ĠWi":11840,"Ġlegendary":11841,"ĠTob":11842,"Ġstranded":11843,"Ġicon":11844,"ĠBaby":11845,"ĠAlger":11846,"Ġreleg":11847,"ĠMilitary":11848,"Ġacceptable":11849,"inity":11850,"Ġwhale":11851,"Ġcenters":11852,"ĠNetanyahu":11853,"ĠToure":11854,"ignment":11855,"ĠDurham":11856,"ĠAndrea":11857,"Ġbout":11858,"Ġhandgun":11859,"Ġstructures":11860,"ĠIntelligence":11861,"Ġneighboring":11862,"Ġelaborate":11863,"Ġdolph":11864,"Ġspeeding":11865,"uthors":11866,"omething":11867,"Ġconvince":11868,"ĠChad":11869,"ippers":11870,"04":11871,"oker":11872,"Ġchecking":11873,"Sc":11874,"ĠBP":11875,"Ġdiscussing":11876,"Ġdemonstrate":11877,"Ġhabits":11878,"Ġcountryside":11879,"ĠManagement":11880,"Ġcommissioned":11881,"Ġparliamentary":11882,"Ġwarming":11883,"Ġauthen":11884,"ĠPotter":11885,"ĠSale":11886,"ĠKob":11887,"hard":11888,"ĠBened":11889,"abad":11890,"ĠJulia":11891,"Ġcosmet":11892,"Ġcosting":11893,"Ġfrag":11894,"ĠUg":11895,"iah":11896,"Ġinaug":11897,"Ġferry":11898,"elta":11899,"Ġrailway":11900,"empt":11901,"ĠFC":11902,"rane":11903,"ĠDian":11904,"Ġloaded":11905,"Ġcontribute":11906,"Both":11907,"ĠHaram":11908,"ĠPrevention":11909,"Ġridiculous":11910,"Ġuncon":11911,"Ġdecre":11912,"ructive":11913,"Ġtub":11914,"Ġpel":11915,"Ġlion":11916,"ĠCamb":11917,"West":11918,"hop":11919,"Ġdock":11920,"atab":11921,"Ġmourn":11922,"asting":11923,"Ġtornado":11924,"Ġairstrikes":11925,"ĠFulham":11926,"angel":11927,"ĠArctic":11928,"Ġschoolgirl":11929,"ozy":11930,"Ġgangs":11931,"02":11932,"ĠPap":11933,"ĠVik":11934,"Ġmart":11935,"Ġdisciplinary":11936,"onies":11937,"ĠIT":11938,"Ġadvis":11939,"rose":11940,"hr":11941,"Ġabusive":11942,"Ġexamine":11943,"Ġtemporarily":11944,"Ġhouseholds":11945,"Ġrubbish":11946,"ĠExecutive":11947,"Ġrequirements":11948,"John":11949,"Ġinfamous":11950,"Ġconducting":11951,"ĠHans":11952,"ĠUntil":11953,"Ġcontribution":11954,"ĠKeane":11955,"ĠBrotherhood":11956,"Ġrefugee":11957,"Ġfundraising":11958,"ĠWalsh":11959,"Ġbrace":11960,"Ġbronze":11961,"ĠBanks":11962,"Ġencl":11963,"aha":11964,"ĠHarper":11965,"ĠCox":11966,"Ġdivers":11967,"Ġattraction":11968,"Ġlorry":11969,"hor":11970,"Ġbold":11971,"Ġcondol":11972,"BO":11973,"Ġdescription":11974,"Ġnerve":11975,"umbling":11976,"ĠJeffrey":11977,"ĠRaj":11978,"ĠJama":11979,"Ġscam":11980,"Ġslaughter":11981,"Ġperiods":11982,"OWN":11983,"mons":11984,"ĠDC":11985,"sun":11986,"ubble":11987,"pit":11988,"Ġfiscal":11989,"ĠFull":11990,"Ġmath":11991,"Ġhelmet":11992,"Se":11993,"Ġmuscles":11994,"Ġunhappy":11995,"ĠStephanie":11996,"enter":11997,"Ġabducted":11998,"ĠLanka":11999,"Ġseparat":12000,"Ġarchae":12001,"ĠNigerian":12002,"Ġthigh":12003,"Ġconstitution":12004,"ĠMarshall":12005,"po":12006,"Ġok":12007,"ĠCommand":12008,"Ġviewing":12009,"Ġallegation":12010,"ĠPR":12011,"Ġheated":12012,"ĠBald":12013,"licted":12014,"aman":12015,"ĠBaltimore":12016,"Ġenjoys":12017,"Ġcreature":12018,"Ġcircle":12019,"Ġcroc":12020,"ĠEqu":12021,"ollah":12022,"ĠImm":12023,"Ġ88":12024,"Ġtooth":12025,"Ġpills":12026,"Ġvisa":12027,"Ġuncomfortable":12028,"Ġ1979":12029,"ĠDenmark":12030,"Well":12031,"Ġasteroid":12032,"ĠTrade":12033,"ĠMelissa":12034,"Ġdecent":12035,"ĠKarl":12036,"match":12037,"Ġfinals":12038,"Ġhumanity":12039,"Ġobese":12040,"ĠLenn":12041,"ĠWithin":12042,"utenant":12043,"Ġleaf":12044,"Ġtap":12045,"ternal":12046,"Ġcertific":12047,"Ġwash":12048,"Ġ79":12049,"Ġtestify":12050,"abwe":12051,"Ġdetermination":12052,"Ġunlaw":12053,"Ġdonors":12054,"ĠSalv":12055,"Ġsmartphones":12056,"03":12057,"ĠDV":12058,"ghai":12059,"ĠHook":12060,"Ġprosecuting":12061,"Ġaccidents":12062,"Ġscri":12063,"Ġbelonging":12064,"Ġwashed":12065,"Ġbeliefs":12066,"sa":12067,"Ġextension":12068,"Ġdetected":12069,"imbabwe":12070,"Ġsweat":12071,"Ġcigarettes":12072,"Pl":12073,"umer":12074,"Ġinstantly":12075,"Ġdisputed":12076,"Ġlavish":12077,"Ġwheels":12078,"Ġtrace":12079,"Ġwears":12080,"Ġcigarette":12081,"ĠPep":12082,"Ġexcitement":12083,"Ġsilent":12084,"Ġbacks":12085,"rina":12086,"Ġrevers":12087,"Ġstored":12088,"ĠRail":12089,"Ġphenomenon":12090,"Ġmarine":12091,"ĠSharon":12092,"ET":12093,"Ġdirty":12094,"Ġcompetitions":12095,"Ġbroadcaster":12096,"threatening":12097,"aganda":12098,"Ġgunshot":12099,"Ġemissions":12100,"ĠLiving":12101,"ĠEri":12102,"Ġchiefs":12103,"Ġburial":12104,"Ġweighs":12105,"Ġmoderate":12106,"Ġphotography":12107,"ĠSaints":12108,"Ġbedrooms":12109,"Ġexcessive":12110,"Ġ99":12111,"Ġreviews":12112,"Ġresearcher":12113,"Ġsubjects":12114,"ĠLiz":12115,"Ġfriendship":12116,"Ġdesigners":12117,"Ġexcuse":12118,"terrorism":12119,"ĠThanksgiving":12120,"health":12121,"ori":12122,"ĠAustria":12123,"itches":12124,"otes":12125,"amily":12126,"ĠManning":12127,"inted":12128,"Ġreject":12129,"Ġretreat":12130,"Ġtopped":12131,"Ġopted":12132,"Ġhospitalized":12133,"Ġrenov":12134,"ĠĠ":12135,"Ġsin":12136,"Ġsample":12137,"elesc":12138,"ships":12139,"Ġfranchise":12140,"Ġbehead":12141,"ĠPerth":12142,"aab":12143,"Ġhill":12144,"ĠMayweather":12145,"gian":12146,"uration":12147,"Ġtanks":12148,"loe":12149,"Ġpaintings":12150,"she":12151,"alle":12152,"Ġrevol":12153,"ĠSold":12154,"Ġgren":12155,"rice":12156,"Ġtube":12157,"ĠProp":12158,"ĠMarathon":12159,"Ġneglig":12160,"ĠEcu":12161,"pher":12162,"pled":12163,"Ġinvestigator":12164,"Last":12165,"Ġuniverse":12166,"Ġbarrier":12167,"Ġthanked":12168,"Ġconservation":12169,"Ġrumours":12170,"Ġsacrif":12171,"race":12172,"Ġhosting":12173,"Ġaccommodation":12174,"Ġwars":12175,"ĠJacob":12176,"gie":12177,"World":12178,"ĠST":12179,"ĠBot":12180,"Ġboarding":12181,"rary":12182,"Ġobsc":12183,"Ġpledge":12184,"Ġspeaker":12185,"Ġhappiness":12186,"ĠIP":12187,"ĠHague":12188,"cillor":12189,"ĠBeaut":12190,"Ġmerely":12191,"Ġefficient":12192,"Ġapproaching":12193,"iva":12194,"Ġobserved":12195,"Ġhire":12196,"Ġranging":12197,"Their":12198,"ĠStaffordshire":12199,"De":12200,"ĠNash":12201,"Ġtransported":12202,"Ġtwist":12203,"Ġblew":12204,"ifications":12205,"Ġimpose":12206,"achers":12207,"celand":12208,"umper":12209,"ĠMcN":12210,"Ġgenerated":12211,"Ġdemonstrated":12212,"ĠSpani":12213,"iop":12214,"ĠPick":12215,"ĠScar":12216,"Ġbreasts":12217,"Ġresistance":12218,"owder":12219,"Ġet":12220,"Ġdialogue":12221,"Can":12222,"iao":12223,"thouse":12224,"ĠLang":12225,"Ġmanufacturers":12226,"ĠDisease":12227,"ĠTheres":12228,"Ġenable":12229,"Ġeuros":12230,"amel":12231,"Ġdeck":12232,"ĠHoff":12233,"Ġreleasing":12234,"Ġmeets":12235,"ĠJackie":12236,"awi":12237,"ĠExpress":12238,"prise":12239,"ĠHarvey":12240,"ĠAction":12241,"David":12242,"ĠAlonso":12243,"ĠPay":12244,"aines":12245,"ĠProgram":12246,"Ġgenerous":12247,"Ġunfortunate":12248,"iola":12249,"Ġtrailer":12250,"Ġbelonged":12251,"ĠPas":12252,"Ġaudio":12253,"ĠSi":12254,"isive":12255,"ĠTSA":12256,"Ġmodest":12257,"ĠSebast":12258,"ĠLux":12259,"Ġmistaken":12260,"Ġchampagne":12261,"cm":12262,"Ġgrandson":12263,"Ġburden":12264,"Ġpermit":12265,"Ġalleges":12266,"Ġbreathe":12267,"ĠSark":12268,"ĠGat":12269,"author":12270,"pot":12271,"Ġexpanded":12272,"deep":12273,"iples":12274,"Ġfu":12275,"ĠRichards":12276,"Ġinflation":12277,"antan":12278,"Ġstranger":12279,"Ġfisher":12280,"ĠHERE":12281,"ĠDylan":12282,"Ġwrist":12283,"Ġcaption":12284,"Ġaerial":12285,"ĠTHE":12286,"Ġmild":12287,"omic":12288,"founder":12289,"heastern":12290,"Ġchamber":12291,"Ġsou":12292,"Ġpile":12293,"Ġshoe":12294,"asses":12295,"Ġcircuit":12296,"ussia":12297,"Ġdepending":12298,"Ġprivately":12299,"Ġgunmen":12300,"ĠNobel":12301,"Once":12302,"Ġmakers":12303,"after":12304,"ealous":12305,"ĠPreston":12306,"ĠNav":12307,"zb":12308,"ĠDOWN":12309,"arthy":12310,"Ġachievement":12311,"Ġcondemn":12312,"ĠCritics":12313,"Over":12314,"ĠCant":12315,"Ġelephant":12316,"olutely":12317,"erman":12318,"ĠZimbabwe":12319,"ĠDew":12320,"ĠFDA":12321,"Ġpray":12322,"arest":12323,"apper":12324,"Ġsuperb":12325,"sor":12326,"only":12327,"Ġprayer":12328,"Ġsupportive":12329,"Ġstormed":12330,"oft":12331,"elligent":12332,"ĠHayes":12333,"emark":12334,"ĠVenezuela":12335,"iffer":12336,"Ġbarrel":12337,"from":12338,"Ġplum":12339,"great":12340,"ĠVick":12341,"ozone":12342,"Ġsod":12343,"Ġinstrum":12344,"ĠRamsey":12345,"Ġnarr":12346,"Ġears":12347,"Ġmerc":12348,"ĠBoko":12349,"Ġsecretly":12350,"Ġtiming":12351,"bn":12352,"dahl":12353,"Those":12354,"ĠReyn":12355,"ĠShanghai":12356,"ĠMagn":12357,"ĠGlenn":12358,"gone":12359,"ĠWeekly":12360,"ĠCriminal":12361,"enk":12362,"ĠMills":12363,"Ġconsideration":12364,"Ġchoosing":12365,"Ġhungry":12366,"unity":12367,"Ġnoting":12368,"ĠHugo":12369,"Ġtransportation":12370,"Ġdonation":12371,"Ġguitar":12372,"expl":12373,"Ġlungs":12374,"Ġartificial":12375,"EL":12376,"fair":12377,"Ġsiege":12378,"Ġov":12379,"Ġreverse":12380,"Ġpalace":12381,"Ġhealthcare":12382,"Ġsolic":12383,"EP":12384,"ĠTib":12385,"nings":12386,"Ġdifferently":12387,"Ġgig":12388,"ĠMom":12389,"Ġsafer":12390,"ĠRun":12391,"ĠMarines":12392,"Although":12393,"Ġadoption":12394,"lects":12395,"ĠBian":12396,"rawling":12397,"ifies":12398,"Ġcartoon":12399,"ĠNorwich":12400,"ĠWelbeck":12401,"Russian":12402,"idy":12403,"ĠBuff":12404,"uming":12405,"see":12406,"ista":12407,"Ġ84":12408,"ĠBlackpool":12409,"ĠPhillip":12410,"placed":12411,"ĠEddie":12412,"Ġadminister":12413,"Ġdrives":12414,"Ġswall":12415,"drop":12416,"Ġstaged":12417,"ĠPam":12418,"Ġdrun":12419,"Ġpremature":12420,"Ġtours":12421,"Ġcommemor":12422,"ĠMcM":12423,"ĠAssistant":12424,"ĠCurt":12425,"ĠJerusalem":12426,"ĠMorrison":12427,"Ġpassionate":12428,"ĠWitnesses":12429,"Ġthrilled":12430,"Ġadventure":12431,"alez":12432,"Ġcoal":12433,"Ġcomplaining":12434,"Ġsew":12435,"ROLL":12436,"ĠEcuador":12437,"mal":12438,"amas":12439,"ĠIceland":12440,"riots":12441,"pack":12442,"Ġsensation":12443,"amine":12444,"ĠSochi":12445,"Ab":12446,"Ġfolks":12447,"Ġassumed":12448,"Ġaddresses":12449,"Ġcooperation":12450,"uis":12451,"Ġrall":12452,"Ġcostume":12453,"Ġcomplications":12454,"ĠTax":12455,"Ġgrandparents":12456,"Ġconfrontation":12457,"Ġpollution":12458,"Ġmonthly":12459,"Ġglamorous":12460,"Ġdischarged":12461,"Since":12462,"emouth":12463,"Ġjaw":12464,"ĠAj":12465,"Ġprecious":12466,"hurst":12467,"ĠNeville":12468,"Ġunderway":12469,"cut":12470,"rera":12471,"ĠKi":12472,"ĠBlues":12473,"Ġscare":12474,"ĠHighway":12475,"sur":12476,"Ġorph":12477,"Ġstairs":12478,"Ġlect":12479,"Ġinfluential":12480,"Ġadvocates":12481,"Ġbic":12482,"Ġdelight":12483,"Ġinspire":12484,"Three":12485,"uro":12486,"Ġraids":12487,"Ġpromoted":12488,"ĠYah":12489,"Ġswitched":12490,"Ġrend":12491,"Ġoutdoor":12492,"Ġgardens":12493,"ĠLen":12494,"Ġrecommendations":12495,"Ġtremend":12496,"Ġ81":12497,"Ġformation":12498,"ĠSandusky":12499,"Ġcomprehensive":12500,"inh":12501,"Ġequality":12502,"working":12503,"ĠGunners":12504,"ĠFranklin":12505,"ĠUKIP":12506,"ICK":12507,"entry":12508,"ĠRepresent":12509,"ĠEaster":12510,"ĠKane":12511,"Ġsnake":12512,"Ġreconst":12513,"Ġexperiencing":12514,"rieving":12515,"friendly":12516,"Ġscenario":12517,"Ġworrying":12518,"ĠBenedict":12519,"Ġtob":12520,"Ġprovision":12521,"ĠUsing":12522,"Ġpave":12523,"Ġaspects":12524,"Ġladies":12525,"Ġcrushed":12526,"Ġestranged":12527,"Ġlane":12528,"Ġinspector":12529,"vereign":12530,"Ġmaintenance":12531,"Ġballot":12532,"Ġjudicial":12533,"ishers":12534,"Ġpedest":12535,"ĠWrit":12536,"Ġneglect":12537,"Ġcitizenship":12538,"Ġrings":12539,"Ġ86":12540,"osc":12541,"Ġshy":12542,"ĠBrew":12543,"Ġspo":12544,"Ġ1987":12545,"Ġmysterious":12546,"ulus":12547,"urious":12548,"Ġprotein":12549,"porary":12550,"stage":12551,"Ġcompromise":12552,"ĠSCROLL":12553,"ĠGuy":12554,"Ġinnocence":12555,"ĠMotor":12556,"ĠJenkins":12557,"ĠStef":12558,"ĠAdeb":12559,"Ġdevelopers":12560,"ĠSuz":12561,"ĠConservatives":12562,"Ġinch":12563,"Ġoutlets":12564,"Ġpeer":12565,"ĠVictorian":12566,"Ġmeasured":12567,"ĠWigan":12568,"throp":12569,"ĠRud":12570,"Ġdeserved":12571,"Ġessentially":12572,"aned":12573,"ĠJar":12574,"Ġcontracted":12575,"Ġpunished":12576,"Ġpredecess":12577,"Ġignore":12578,"Ġphilos":12579,"Ġclick":12580,"Ġ83":12581,"iri":12582,"Ġblown":12583,"ĠEvent":12584,"Ġroutes":12585,"ĠSummer":12586,"Ġpoliceman":12587,"ĠDakota":12588,"ĠDist":12589,"Ġtriple":12590,"Ġfitting":12591,"Ġexped":12592,"grand":12593,"Ġpleading":12594,"Ġvalued":12595,"Ġconnections":12596,"Ġportray":12597,"ĠCapt":12598,"Ġsends":12599,"Ġunsuccess":12600,"boat":12601,"sic":12602,"ĠIRS":12603,"Ġintegrity":12604,"EG":12605,"Ġmaker":12606,"ĠHob":12607,"ĠKatherine":12608,"Ġfixture":12609,"Ġastonishing":12610,"ĠNicolas":12611,"nia":12612,"Ġexamples":12613,"Ġhub":12614,"ĠMes":12615,"ĠClay":12616,"ervatory":12617,"Ġroots":12618,"Ġcommented":12619,"Ġpremium":12620,"sted":12621,"Ġembarrassed":12622,"ĠSlo":12623,"Ġmarriages":12624,"Ġdistribution":12625,"ĠGrey":12626,"adesh":12627,"Ġgrocer":12628,"ĠLions":12629,"ĠMcCarthy":12630,"Sec":12631,"Ġresume":12632,"ĠVA":12633,"Ġinstitution":12634,"Ġtitled":12635,"ĠPortland":12636,"Ġconservatives":12637,"Ġstrangers":12638,"Ġtrousers":12639,"Ġsid":12640,"roe":12641,"ĠInside":12642,"ĠWildlife":12643,"ĠBab":12644,"opard":12645,"abouts":12646,"vol":12647,"ĠDra":12648,"Ġmanufacturing":12649,"ĠSerb":12650,"!âĢĻ":12651,"had":12652,"ĠMuch":12653,"Ġ87":12654,"Islam":12655,"Ġcomic":12656,"Ġtongue":12657,"ĠRush":12658,"Ġamateur":12659,"ottage":12660,"Ġvisual":12661,"ĠMarket":12662,"Ġentrepreneur":12663,"turn":12664,"ĠCit":12665,"ĠIron":12666,"ĠNation":12667,"ĠHeather":12668,"ĠKens":12669,"Ġglory":12670,"Ġbip":12671,"ĠIce":12672,"Ġrented":12673,"ĠMahm":12674,"Ġnude":12675,"intage":12676,"ĠColeman":12677,"ĠOsama":12678,"Ġstere":12679,"rock":12680,"Ġcommitting":12681,"Ġpriest":12682,"ji":12683,"ĠFinancial":12684,"believable":12685,"Ġfet":12686,"ige":12687,"ĠAntar":12688,"ĠTampa":12689,"Ġmonitored":12690,"stanbul":12691,"Ġlightning":12692,"uma":12693,"ĠAlv":12694,"Ġprepares":12695,"Ġjuven":12696,"Ġmaps":12697,"ĠGirls":12698,"hers":12699,"Ġoverturned":12700,"Ġsadd":12701,"ĠPul":12702,"aims":12703,"Ġmagic":12704,"Ġrelieved":12705,"Ġtobacco":12706,"ĠSha":12707,"Ġgradu":12708,"Ġlaptop":12709,"Ġscrap":12710,"Ġensuring":12711,"shaw":12712,"Ġfemin":12713,"ranean":12714,"Ġpy":12715,"Ġancest":12716,"backs":12717,"ĠRuth":12718,"ĠThank":12719,"Ġsovereign":12720,"ugly":12721,"ĠGardner":12722,"Ġwashing":12723,"ĠKal":12724,"cony":12725,"ripp":12726,"ĠPie":12727,"ĠDelta":12728,"ĠLook":12729,"ĠChallen":12730,"Ġannoy":12731,"Ġstrategic":12732,"aste":12733,"Ġeaten":12734,"Ġassaults":12735,"igers":12736,"Ġally":12737,"ĠSystem":12738,"cor":12739,"wegian":12740,"ĠWhich":12741,"fare":12742,"ĠEmp":12743,"ĠUnlike":12744,"Ġshutdown":12745,"ĠRobb":12746,"Ġpreferred":12747,"antanamo":12748,"ĠMS":12749,"Ġhomosexual":12750,"Ġreminder":12751,"alymp":12752,"PA":12753,"Ġlasting":12754,"Ġnominee":12755,"Ġisolation":12756,"Ġteammates":12757,"Ġteammate":12758,"Ġhardest":12759,"ĠKardashian":12760,"Other":12761,"Ġdatab":12762,"Ġdrunken":12763,"Ġunderstands":12764,"ĠSally":12765,"ushes":12766,"Ġtrash":12767,"ĠCarney":12768,"ĠCoul":12769,"Ġsharks":12770,"Ġcampaigning":12771,"ĠMalaysian":12772,"ĠVillage":12773,"Ġwand":12774,"ĠClose":12775,"Ġ01":12776,"Ġutter":12777,"acles":12778,"Ġdirectors":12779,"Ġpractical":12780,"ĠHem":12781,"itudes":12782,"Ġshaking":12783,"Ġaffecting":12784,"ĠAlong":12785,"Ġblanket":12786,"Ġninth":12787,"Ġchann":12788,"ĠRevolution":12789,"Ġscary":12790,"Ġrapper":12791,"ĠSerie":12792,"SPCA":12793,"Ġcried":12794,"ĠBorn":12795,"ĠPoint":12796,"ĠRu":12797,"ĠMarco":12798,"ĠThor":12799,"Ġprost":12800,"Ġstepping":12801,"Ġventure":12802,"unct":12803,"ĠManager":12804,"ĠeBay":12805,"Ġsuburban":12806,"anches":12807,"Ġepic":12808,"ĠDame":12809,"Ġattendance":12810,"Ġtrusted":12811,"Ġbalcony":12812,"Shab":12813,"OL":12814,"aments":12815,"Ġpassage":12816,"ĠEngine":12817,"Ġprosecuted":12818,"Ġ1985":12819,"Ġadvocate":12820,"Ġdetainees":12821,"ĠTechnology":12822,"Ġcave":12823,"ĠEle":12824,"plus":12825,"otype":12826,"inos":12827,"Ġlod":12828,"teen":12829,"ĠChampionships":12830,"Ġeuro":12831,"Ġ*":12832,"Ġtropical":12833,"Ġtheatre":12834,"Ġmug":12835,"Ġcrashing":12836,"Ġbodily":12837,"ĠAS":12838,"Ġagric":12839,"Ġobservers":12840,"Ġgut":12841,"Ġpros":12842,"anting":12843,"Ġraided":12844,"Ġgam":12845,"ĠCav":12846,"etsk":12847,"Ġpremier":12848,"Ġinsurgents":12849,"ĠHussein":12850,"Ġshorts":12851,"cÃ©":12852,"Ġconvert":12853,"Ġprogrammes":12854,"nie":12855,"Ġcompleting":12856,"ĠGuantanamo":12857,"ĠRica":12858,"ĠConstitution":12859,"ĠDesign":12860,"ĠMiddles":12861,"Ġwoods":12862,"âĢĶ":12863,"Ġintimate":12864,"Ġmatching":12865,"ÂłÂłÂłÂłÂłÂłÂłÂłÂłÂłÂłÂłÂłÂłÂłÂł":12866,"keys":12867,"spoken":12868,"ĠEllis":12869,"ĠMey":12870,"ĠGem":12871,"ĠKa":12872,"ĠMans":12873,"Ġexpansion":12874,"Ġsurely":12875,"ĠWallace":12876,"ĠPochettino":12877,"new":12878,"ĠSullivan":12879,"ĠMatch":12880,"Ġchains":12881,"ĠPatrol":12882,"ĠRosie":12883,"agles":12884,"ĠFans":12885,"Ġdisrupt":12886,"Ġcruelty":12887,"Ġauthors":12888,"itzer":12889,"Ġautom":12890,"London":12891,"gi":12892,"Ġhacked":12893,"Ġalien":12894,"Ġexpense":12895,"ĠJoan":12896,"Ġrestricted":12897,"ĠAdv":12898,"ĠMoroc":12899,"Ġconvention":12900,"proof":12901,"ĠTaiwan":12902,"Ġinmate":12903,"Ġhanding":12904,"ĠReading":12905,"Ġfoster":12906,"ĠEveryone":12907,"Ġmerch":12908,"who":12909,"Ġconsiderable":12910,"stock":12911,"illas":12912,"ĠHeritage":12913,"Ġemerge":12914,"Ġpensioner":12915,"Ġrehabilitation":12916,"Ġscholar":12917,"ĠTheresa":12918,"ĠLooking":12919,"Ġneut":12920,"Ġreserve":12921,"Ġbreakthrough":12922,"Ġarrangements":12923,"Mc":12924,"upt":12925,"Ġmyth":12926,"Ġprinciple":12927,"wind":12928,"ĠRory":12929,"Ġprey":12930,"Ġrubber":12931,"Ġbacklash":12932,"ĠDawn":12933,"Ġequipped":12934,"bishop":12935,"vas":12936,"Ġtension":12937,"ĠWils":12938,"Ġsunshine":12939,"itter":12940,"usc":12941,"Ġshipping":12942,"Ġcours":12943,"Ġclues":12944,"normal":12945,"sign":12946,"Ġdrought":12947,"powered":12948,"Ġcompetitors":12949,"ĠTMZ":12950,"otion":12951,"Ġrage":12952,"ĠCrimea":12953,"Ġevolution":12954,"Ġconfusion":12955,"Ġreviewed":12956,"Ġunnecessary":12957,"Ġlips":12958,"Ġshirts":12959,"ĠChange":12960,"Ġadequ":12961,"ĠEditor":12962,"ĠWang":12963,"Ġpeers":12964,"oyle":12965,"Ġindicted":12966,"ĠZucker":12967,"Ġsemif":12968,"impse":12969,"Ġimprisonment":12970,"reated":12971,"Ġ130":12972,"onel":12973,"otton":12974,"Ġdevelopments":12975,"kok":12976,"net":12977,"Ġclouds":12978,"Ġbonus":12979,"ĠBMW":12980,"Ġwrongdoing":12981,"ĠLeft":12982,"Ġcabinet":12983,"Ġearnings":12984,"Obama":12985,"fts":12986,"Ġcentres":12987,"Ġlighting":12988,"Ġstrengthen":12989,"ĠOmar":12990,"Ġplanets":12991,"Ġargues":12992,"Ġnicknamed":12993,");":12994,"Ġpostp":12995,"Ġgates":12996,"Ġweird":12997,"amped":12998,"Ġchips":12999,"Ġclever":13000,"Ġblasted":13001,"Ġmanufacturer":13002,"ĠLindsay":13003,"Ġbats":13004,"Ġoutfits":13005,"Ġpoured":13006,"Ġdeputies":13007,"aughed":13008,"ĠChapman":13009,"ĠGolf":13010,"Ġbelieving":13011,"Ġdepartments":13012,"Mal":13013,"iors":13014,"heart":13015,"Ġserial":13016,"Ġepidemic":13017,"ĠHugh":13018,"ĠReport":13019,"Ġinspection":13020,"Ġoverhaul":13021,"ĠBali":13022,"Ġaffordable":13023,"Ġdealer":13024,"Ġtougher":13025,"Ġinstant":13026,"Ġbreakdown":13027,"iffe":13028,"Ġdecorated":13029,"Ġreckless":13030,"ĠRab":13031,"ocial":13032,"Ġenemies":13033,"iffs":13034,"jection":13035,"Ġregulation":13036,"Ġrenowned":13037,"ĠBryan":13038,"ĠBergdahl":13039,"jad":13040,"Ġtsun":13041,"Ġdiscipline":13042,"ĠRah":13043,"igue":13044,"ĠNatalie":13045,"ĠLim":13046,"Ġdeeper":13047,"Ġcredited":13048,"dem":13049,"erts":13050,"ilies":13051,"Ġreflected":13052,"Ġ1981":13053,"Ġkeys":13054,"ĠCarn":13055,"Ġvolume":13056,"Ġunfortunately":13057,"uter":13058,"Ġglimpse":13059,"Ġambitious":13060,"ĠDark":13061,"Ġpartially":13062,"sky":13063,"Ġsheep":13064,"Ġkillers":13065,"Ġanchor":13066,"Despite":13067,"ammar":13068,"âĢĿ.":13069,"ĠThorn":13070,"Ġmusician":13071,"Ġromance":13072,"isha":13073,"Ġsolutions":13074,"Ġembark":13075,"Ġpoisoning":13076,"hift":13077,"lav":13078,"Â¿":13079,"aran":13080,"Ġcareers":13081,"Ġtravels":13082,"ĠPel":13083,"offs":13084,"Ġeleg":13085,"err":13086,"Ġlaser":13087,"Ġnegotiate":13088,"Ġrenewed":13089,"rique":13090,"ĠPlace":13091,"Ġunemployed":13092,"ĠAthlet":13093,"ĠJake":13094,"Ġsurvivor":13095,"kill":13096,"ĠLis":13097,"ucked":13098,"senal":13099,"enberg":13100,"Ġreacted":13101,"ĠHS":13102,"ĠRain":13103,"ĠBlackburn":13104,"ĠSuffolk":13105,"Ġcatching":13106,"Ġprinciples":13107,"Ġbuzz":13108,"Ġquake":13109,"Ġgoodbye":13110,"Ġpropaganda":13111,"Ġimmigrant":13112,"Ġapologize":13113,"Americans":13114,"Ġfloors":13115,"ski":13116,"Ġadmission":13117,"Ġ,":13118,"Ġthus":13119,"Ġgene":13120,"ĠTrump":13121,"Ġvolley":13122,"ĠSergeant":13123,"CO":13124,"Ġnavy":13125,"Ġsuggestions":13126,"orable":13127,"Ġpope":13128,"ĠRoom":13129,"Ġgrip":13130,"ĠLie":13131,"Ġrecl":13132,"Ġgrid":13133,"shore":13134,"Ġdeton":13135,"Ind":13136,"Ġupdates":13137,"ĠSarkozy":13138,"kward":13139,"ĠGran":13140,"rics":13141,"Ġmainstream":13142,"Ġdoubts":13143,"Ġshotgun":13144,"Ġgenerate":13145,"Ġgraduated":13146,"ĠCroatia":13147,"ĠMerc":13148,"Ġprostitution":13149,"Ġassured":13150,"Ġhorrified":13151,"Ġcondolences":13152,"eded":13153,"ĠBritt":13154,"Ġstrongest":13155,"iability":13156,"ĠBin":13157,"ĠGove":13158,"sson":13159,"Ġtrademark":13160,"Ġexercises":13161,"ĠKier":13162,"ihanna":13163,"Ġconcentration":13164,"got":13165,"rise":13166,".âĢĿ":13167,"Ġengaging":13168,"ippa":13169,"Ġcrocod":13170,"Ġchasing":13171,"ĠAP":13172,"ĠParents":13173,"Ġsteep":13174,"Ġassassination":13175,"Ġorganisations":13176,"Ġdug":13177,"Ġestablishment":13178,"Ġcinema":13179,"range":13180,"Ġu":13181,"Ġlaughed":13182,"Ġgloves":13183,"iago":13184,"Ġauthentic":13185,"Ġpad":13186,"ozens":13187,"Ġphrase":13188,"hetor":13189,"Ġjumps":13190,"have":13191,"Ġtale":13192,"ĠHalf":13193,"ĠAndrews":13194,"Ġfeedback":13195,"Ġvocal":13196,"Ġbuses":13197,"Ġdebts":13198,"ĠLawson":13199,"Ġpleasure":13200,"Ġreaches":13201,"ĠHorn":13202,"ĠDonetsk":13203,"ĠCov":13204,"ĠKaz":13205,"aternity":13206,"ricia":13207,"Ġphotographers":13208,"ĠWhether":13209,"yers":13210,"eries":13211,"Ġnod":13212,"ĠIstanbul":13213,"ĠBaron":13214,"ĠDetectives":13215,"ĠWells":13216,"east":13217,"Ġcemetery":13218,"Ġapplaud":13219,"Ġcoffin":13220,"Ġretailer":13221,"Ġflaw":13222,"ĠCoroner":13223,"RI":13224,"size":13225,"Ġstroll":13226,"hydr":13227,"Ġinterim":13228,"ĠRamos":13229,"First":13230,"Ġpresidents":13231,"ĠSalt":13232,"ĠKensington":13233,"Ġlied":13234,"Ġpursuit":13235,"ĠWilshere":13236,"Mart":13237,"Was":13238,"fi":13239,"ĠEsc":13240,"ĠStorm":13241,"ĠConcer":13242,"inded":13243,"Ġsubway":13244,"ĠBangl":13245,"Ġextradition":13246,"Ġdent":13247,"ĠMI":13248,"ĠHey":13249,"rin":13250,"uri":13251,"ĠCraw":13252,"Ġvary":13253,"Ġunarmed":13254,"Ġhumil":13255,"Ġanonymity":13256,"Ġsteady":13257,"ĠFrancois":13258,"listed":13259,"Ġ140":13260,"Ms":13261,"Ġpays":13262,"ĠChambers":13263,"ĠBeyon":13264,"Ġthreaten":13265,"Ġplunged":13266,"ĠNixon":13267,"white":13268,"Ġperceived":13269,"Ġemployer":13270,"ĠTibet":13271,"Fr":13272,"atoes":13273,"oween":13274,"ĠFat":13275,"Ġvalid":13276,"change":13277,"Ġremorse":13278,"ĠFAA":13279,"pered":13280,"ĠReuters":13281,"Ġheroes":13282,"ĠBourn":13283,"Ġpreced":13284,"Ġbanning":13285,"Ġspiritual":13286,"uns":13287,"Ġsells":13288,"Ġunpaid":13289,"Ġdisplaced":13290,"Ġpir":13291,"Ġseeks":13292,"Ġassume":13293,"ĠGonzalez":13294,"Ġsorts":13295,"ĠFried":13296,"ĠElection":13297,"Ġpreserve":13298,"Ġinsight":13299,"ĠParalymp":13300,"ĠWend":13301,"ĠAmnesty":13302,"Ġendangered":13303,"hester":13304,"Ġchased":13305,"Ġplacing":13306,"Ġreflects":13307,"Ġmatched":13308,"Ġcater":13309,"holders":13310,"Ġoccupied":13311,"ĠTarget":13312,"ĠRig":13313,"ifty":13314,"ĠOprah":13315,"ĠLaz":13316,"ĠNeither":13317,"ĠVerm":13318,"Ġreserv":13319,"Ġremembers":13320,"ĠFig":13321,"Ġrhetor":13322,"ulum":13323,"ĠDisc":13324,"umin":13325,"Ġwhereabouts":13326,"Ġresolved":13327,"ĠPearson":13328,"ĠWo":13329,"ĠGarner":13330,"husband":13331,"oser":13332,"Ġrang":13333,"Dr":13334,"Ġthieves":13335,"ĠGir":13336,"Ġdestinations":13337,"Ġerrors":13338,"Ġsweeping":13339,"ĠTa":13340,"ĠPic":13341,"ĠPage":13342,"Ġdestro":13343,"mand":13344,"oto":13345,"Ġsubmar":13346,"ikes":13347,"Ġfirearm":13348,"Ġpursuing":13349,"Ġconsistently":13350,"Ġmiracle":13351,"OU":13352,"Ġstones":13353,"ĠOcc":13354,"overs":13355,"coni":13356,"Ġidentification":13357,"onnie":13358,"Ġcouncils":13359,"Ġpsychiatric":13360,"gender":13361,"ĠCour":13362,"ĠReds":13363,"ĠRolling":13364,"ĠLiberty":13365,"ĠSometimes":13366,"Ġexists":13367,"Ġtables":13368,"heem":13369,"Ġrubble":13370,"Manchester":13371,"Ġrockets":13372,"ĠSebastian":13373,"deme":13374,"Ġdisappointment":13375,"Ġposters":13376,"ĠRomania":13377,"Ġinspectors":13378,"Christ":13379,"taking":13380,"inction":13381,"otta":13382,"Ġtribal":13383,"Ġfloods":13384,"ĠMontana":13385,"Ġhackers":13386,"ĠMul":13387,"Ġsect":13388,"robe":13389,"ĠPast":13390,"ĠIndust":13391,"ĠConference":13392,"ĠNorwegian":13393,"Ġultra":13394,"ĠFilm":13395,"ĠKenneth":13396,"acer":13397,"ophob":13398,"Ġgonna":13399,"uman":13400,"Ġlifting":13401,"Ġtraditionally":13402,"Ġwives":13403,"ourage":13404,"Ġrit":13405,"Ġmedium":13406,"ĠPaula":13407,"66":13408,"ĠVi":13409,"uced":13410,"Ġrespects":13411,"Ġconvoy":13412,"ĠAshton":13413,"ĠElement":13414,"ĠKle":13415,"team":13416,"ppo":13417,"Ġcompat":13418,"ĠUnfortunately":13419,"Ġcompassion":13420,"Ġbreed":13421,"iosity":13422,"ĠJol":13423,"party":13424,"organ":13425,"manuel":13426,"Ġskies":13427,"ĠFast":13428,"yanmar":13429,"iggins":13430,"wyn":13431,"ĠFactor":13432,"Ġdimin":13433,"ĠShiite":13434,"nell":13435,"Ġcage":13436,"ĠWW":13437,"ĠBrig":13438,"Ġtopic":13439,"Ġskill":13440,"Ġinternation":13441,"Ġsuitable":13442,"iterranean":13443,"ĠFun":13444,"ĠJail":13445,"shaped":13446,"Ġbullied":13447,"ĠSomali":13448,"Ġunl":13449,"Ġrealistic":13450,"Ġknees":13451,"Ġdictator":13452,"ĠDow":13453,"quer":13454,"Ġwhenever":13455,"never":13456,"leading":13457,"eled":13458,"Ġspecially":13459,"Ġshelves":13460,"Ġelephants":13461,"Ġhorn":13462,"Ġtoss":13463,"Ġprimarily":13464,"ĠFinally":13465,"ĠHispanic":13466,"Tr":13467,"Ġbunch":13468,"ĠGermans":13469,"Ġguilt":13470,"Ġintelligent":13471,"ĠBurg":13472,"Ġlottery":13473,"Har":13474,"ĠSong":13475,"ĠPorts":13476,"Ġtopp":13477,"iciency":13478,"Ġhomeown":13479,"ĠBarca":13480,"Ġsizes":13481,"ĠPlus":13482,"Ġcountless":13483,"extreme":13484,"ĠHistor":13485,"ĠAssembly":13486,"ĠAviation":13487,"ĠHazard":13488,"Brien":13489,"Ġincent":13490,"onymous":13491,"ĠHammond":13492,"Ġgradually":13493,"Ġruined":13494,"ĠTaking":13495,"ĠFinal":13496,"speed":13497,"Ġcro":13498,"ĠDanish":13499,"Ġcontractor":13500,"EAL":13501,"Ġdeceased":13502,"900":13503,"Ġsailing":13504,"Ġquarters":13505,"Ġpatch":13506,"ĠShin":13507,"Ġdrowned":13508,"hit":13509,"hole":13510,"ĠHalloween":13511,"Ġgaining":13512,"Ġtortured":13513,"LC":13514,"ĠPil":13515,"ĠJoel":13516,"Ġmakeshift":13517,"ĠReynolds":13518,"LICK":13519,"Ġassisted":13520,"Ġdefenders":13521,"Ġtsunami":13522,"Ġoutp":13523,"Ġarray":13524,"Ġadvances":13525,"letcher":13526,"markets":13527,"Ġdre":13528,"river":13529,"ĠRihanna":13530,"ieu":13531,"Ġpressed":13532,"Star":13533,"Ġchannels":13534,"ĠMadison":13535,"ĠValentine":13536,"Ġfib":13537,"ĠShane":13538,"Ġbargain":13539,"Ġimprovements":13540,"Ġaccompany":13541,"ĠFelipe":13542,"erek":13543,"ĠGlen":13544,"sub":13545,"Ġrans":13546,"Ġcomply":13547,"Ġsecrets":13548,"usterity":13549,"Ġtan":13550,"icating":13551,"ĠChurchill":13552,"ENT":13553,"Ġrefund":13554,"South":13555,"too":13556,"Ġmaintains":13557,"ĠPeninsula":13558,"Ġsympathy":13559,"Ġnortheast":13560,"ĠViol":13561,"Ġpor":13562,"Ġdrum":13563,"Ġepisodes":13564,"Ġnonprofit":13565,"ĠBournemouth":13566,"otted":13567,"Ġrebuild":13568,"fly":13569,"parts":13570,"ĠGibson":13571,"Ġoppose":13572,"Ġmour":13573,"ĠIsa":13574,"Ġnotified":13575,"hamed":13576,"Ġintroduction":13577,"Ġspectators":13578,"eness":13579,"urches":13580,"ĠIndonesian":13581,"ĠMediterranean":13582,"ĠAnyone":13583,"Ġpuppy":13584,"Ġreluctant":13585,"stop":13586,"ĠSearch":13587,"ĠIss":13588,"Ġdistributed":13589,"efin":13590,"Ġchapter":13591,"ĠSpaniard":13592,"Ġrice":13593,"Ġsung":13594,"Ġ2020":13595,"ĠBerks":13596,"Ġeurozone":13597,"Ġsubmit":13598,"Ġautism":13599,"Ed":13600,"kind":13601,"ĠFoley":13602,"etary":13603,"ĠHat":13604,"essa":13605,"Ġplates":13606,"Ġfarmer":13607,"ĠCongo":13608,"Ġoperators":13609,"Ġfilling":13610,"Ġdive":13611,"Ġ1983":13612,"Ġhunger":13613,"ĠCorporation":13614,"\",":13615,"Ġflies":13616,"Ġbrows":13617,"Ġpermanently":13618,"ĠBangkok":13619,"ĠTah":13620,"Ġdefined":13621,"Ġrequiring":13622,"Ġdistraught":13623,"ĠWalter":13624,"Ġslide":13625,"ĠTray":13626,"ĠMali":13627,"England":13628,"Ġdele":13629,"Ġprank":13630,"Ġtas":13631,"Ġthunder":13632,"avan":13633,"Ġsteam":13634,"Ġfluid":13635,"ĠRSPCA":13636,"ĠBulger":13637,"ĠAmendment":13638,"Ġsensors":13639,"Ġtire":13640,"Ġgambling":13641,"ĠBeh":13642,"attering":13643,"ĠBreak":13644,"Ġreactions":13645,"ĠAleppo":13646,"Ġpopulations":13647,"Ġoccurs":13648,"Ġaspect":13649,"bled":13650,"zo":13651,"Ġgre":13652,"arming":13653,"ĠCart":13654,"Ġdirt":13655,"ĠMyanmar":13656,"Ġaudiences":13657,"ĠCand":13658,"ĠMcLaren":13659,"Ġoptimistic":13660,"ĠRut":13661,"ĠMoon":13662,"ĠAlliance":13663,"Ġeducational":13664,"Ġtributes":13665,"ĠPictures":13666,"ĠCarr":13667,"Ġblocking":13668,"ĠWinston":13669,"Ġindicates":13670,"ĠUnit":13671,"ĠJohnny":13672,"Ġcorporation":13673,"omo":13674,"Ġsolo":13675,"ĠYahoo":13676,"ĠKabul":13677,"eption":13678,"ĠOrig":13679,"ĠJenny":13680,"ĠDoug":13681,"girlfriend":13682,"Ġdealers":13683,"vious":13684,"ucrative":13685,"rained":13686,"Ġbriefing":13687,"Ġsoap":13688,"Ġ999":13689,"ĠTravis":13690,"Ġphilosoph":13691,"ĠEcc":13692,"Ġchip":13693,"ĠEarly":13694,"Ġpistol":13695,"ĠEug":13696,"Who":13697,"fted":13698,"game":13699,"Ġuprising":13700,"Ġfinances":13701,"Ġrevelation":13702,"ĠWindsor":13703,"Ġoverwhelmed":13704,"ayor":13705,"Ġacquitted":13706,"Ġastronauts":13707,"unes":13708,"ĠSon":13709,"aku":13710,"ĠKur":13711,"Ġadap":13712,"ĠChuck":13713,"tech":13714,"ĠMartha":13715,"ĠPaulo":13716,"Ġabsor":13717,"qual":13718,"Ġworkplace":13719,"uggage":13720,"Ġrichest":13721,"ĠLennon":13722,"Ġnorthwest":13723,"Ġbroader":13724,"controlled":13725,"Ġdeveloper":13726,"ĠDems":13727,"Ġidentical":13728,"Ġpowder":13729,"ĠDug":13730,"Ġbuff":13731,"eston":13732,"learly":13733,"Ġdispos":13734,"Ġgains":13735,"Ġlogo":13736,"Ġsurgeons":13737,"Ġadministrative":13738,"beaten":13739,"inness":13740,"ĠSet":13741,"Ġflower":13742,"Ġproving":13743,"Ġcredits":13744,"ĠCheshire":13745,"Ġsheer":13746,"Ġ2018":13747,"Ġbrush":13748,"nut":13749,"zi":13750,"Ġstark":13751,"quez":13752,"Ġinquiries":13753,"Ġpersuade":13754,"atile":13755,"Ġlucrative":13756,"Ġcomet":13757,"Qu":13758,"fig":13759,"Ġhid":13760,"Ġdiverse":13761,"ĠJub":13762,"ĠKam":13763,"claimed":13764,"Ġlovers":13765,"lusconi":13766,"Ġbands":13767,"Ġ1978":13768,"Ġcontaminated":13769,"ĠPortsmouth":13770,"Ġhurricane":13771,"Ġcourses":13772,"Ġcontents":13773,"Ġoccasionally":13774,"ĠElementary":13775,"acent":13776,"Ġdignity":13777,"Ġanticipated":13778,"ĠDod":13779,"Ġtremendous":13780,"Ġloot":13781,"ilee":13782,"some":13783,"ĠCyr":13784,"ĠBelf":13785,"ĠGiven":13786,"Ġsecondary":13787,"Ġfails":13788,"ellect":13789,"Also":13790,"Ġclar":13791,"Ġescorted":13792,"Ġdraws":13793,"ĠPitts":13794,"Ġsounded":13795,"rob":13796,"Ġmelt":13797,"ronics":13798,"nest":13799,"Ġmomentum":13800,"ĠOlivia":13801,"lease":13802,"ĠTommy":13803,"ĠCome":13804,"far":13805,"utor":13806,"ĠHut":13807,"Ġcyclist":13808,"Ġinvested":13809,"Ġmounted":13810,"Ġrh":13811,"ĠHoly":13812,"habi":13813,"ĠFurther":13814,"seen":13815,"Ġfireworks":13816,"Ġabsent":13817,"ĠPippa":13818,"Ġ1969":13819,"ĠDVD":13820,"ĠMaid":13821,"ems":13822,"ĠGPS":13823,"raud":13824,"ĠPalm":13825,"Ġaccountable":13826,"Ġcounterparts":13827,"Ġumb":13828,"Ġloun":13829,"Ġwhales":13830,"Ġintox":13831,"aires":13832,"Ġharmful":13833,"ĠMersey":13834,"ĠJanet":13835,"Ġcardiac":13836,"Ġmandatory":13837,"Ġspree":13838,"marks":13839,"Ġpremiere":13840,"Ġquietly":13841,"fighters":13842,"embled":13843,"Ġsupervis":13844,"ĠBoxing":13845,"ĠTripoli":13846,"ulted":13847,"ĠJesse":13848,"feld":13849,"Ġincl":13850,"Ġirre":13851,"ĠAnti":13852,"ĠChi":13853,"ardyce":13854,"ammy":13855,"ĠJun":13856,"Ġprincess":13857,"backed":13858,"ĠKenyan":13859,"Ġdancer":13860,"Ġappalling":13861,"big":13862,"Ġstays":13863,"Ġfict":13864,"ĠDim":13865,"Ġworries":13866,"ĠCatal":13867,"ogen":13868,"ĠBerkshire":13869,"ĠPlease":13870,"Ġtreats":13871,"Ġfirmly":13872,"dep":13873,"ĠMang":13874,"ĠZe":13875,"ĠBlas":13876,"Ġoperates":13877,"ungle":13878,"Ġcere":13879,"ĠFletcher":13880,"Ġ1930":13881,"Ġmodelling":13882,"ĠZuckerberg":13883,"oppers":13884,"Ġexpanding":13885,"ĠNone":13886,"Ġgunfire":13887,"Ġcollective":13888,"ĠEtihad":13889,"asant":13890,"Ġvicious":13891,"Ġsenators":13892,"Ġcaut":13893,"arn":13894,"ĠWa":13895,"onga":13896,"Ġneighbourhood":13897,"orie":13898,"itans":13899,"ĠHand":13900,"Ġkm":13901,"cle":13902,"Ġ2017":13903,"Ġsuccessor":13904,"ĠCambod":13905,"Ġplummet":13906,"illery":13907,"omer":13908,"ĠBT":13909,"which":13910,"Ġmisdeme":13911,"Ġwithdrawn":13912,"aton":13913,"Ġfreeze":13914,"ĠPGA":13915,"coon":13916,"ĠSandra":13917,"hell":13918,"ĠLance":13919,"Ġreplacing":13920,"pound":13921,"ichael":13922,"Ġaisle":13923,"arting":13924,"iaz":13925,"Ġ1976":13926,"Ġbearing":13927,"ĠGeoff":13928,"ĠFisher":13929,"ĠFitz":13930,"Ġaffection":13931,"ĠTimothy":13932,"Ġhiring":13933,"Ġinjection":13934,"Ġacknowledge":13935,"ĠWorkers":13936,"ĠFu":13937,"Ġplug":13938,"ugar":13939,"Ġriots":13940,"ĠPrivate":13941,"ĠNep":13942,"Ġvolcano":13943,"ĠBundes":13944,"ĠSheikh":13945,"sterdam":13946,"Ġtroubles":13947,"ĠSusp":13948,"Ġupstairs":13949,"ĠRaymond":13950,"enkamp":13951,"gel":13952,"ĠLav":13953,"Ġtrends":13954,"AP":13955,"Ġshattered":13956,"Ġvib":13957,"Ġdeported":13958,"ĠDhabi":13959,"ĠNewtown":13960,"Ġsurfaced":13961,"Ġdiversity":13962,"ĠBible":13963,"Ġ180":13964,"chester":13965,"written":13966,"ĠRussians":13967,"Ġadvisers":13968,"erable":13969,"Ġfarms":13970,"Ġlandl":13971,"Ġgranddaughter":13972,"ĠVictim":13973,"iona":13974,"Ġallege":13975,"Ġgreatly":13976,"ĠAppeal":13977,"Ġjoins":13978,"engu":13979,"Ġsingles":13980,"Ġthrone":13981,"MP":13982,"Ġlimbs":13983,"ĠCommunist":13984,"Ġcertificate":13985,"itate":13986,"ĠMend":13987,"ĠHert":13988,"goers":13989,"ĠSprings":13990,"kee":13991,"Ġsuite":13992,"ĠEden":13993,"Ġsuccessive":13994,"Ġdocumented":13995,"iotics":13996,"Ġintervene":13997,"ĠEthiop":13998,"ĠBud":13999,"raham":14000,"arency":14001,"ĠBerlusconi":14002,"Ġunbelievable":14003,"ĠBahrain":14004,"ĠDrag":14005,"ollar":14006,"ĠÂ©":14007,"liga":14008,"ĠGetting":14009,"Ġairplane":14010,"iox":14011,"insp":14012,"Ġvisitor":14013,"ĠWilts":14014,"ĠSeoul":14015,"Ġabandon":14016,"Ġlinger":14017,"ulu":14018,"unders":14019,"Ġcheating":14020,"Ġrobust":14021,"Ġknives":14022,"Ġmast":14023,"BE":14024,"Ġugly":14025,"Ġsights":14026,"alid":14027,"ĠSue":14028,"ĠAllardyce":14029,"bage":14030,"Ġvintage":14031,"Ġtu":14032,"Ġbang":14033,"Ġnest":14034,"Ġawkward":14035,"ĠMagazine":14036,"leine":14037,"Ġjoking":14038,"inked":14039,"eria":14040,"Ġmock":14041,"ĠMain":14042,"ainted":14043,"Ġtraumatic":14044,"ĠLogan":14045,"Ġproviders":14046,"ĠCheryl":14047,"world":14048,"Ġbrains":14049,"raeus":14050,"Ġfert":14051,"Ġthief":14052,"verts":14053,"ĠNumber":14054,"ieties":14055,"ĠFloren":14056,"lamm":14057,"incere":14058,"ĠBudget":14059,"ĠRugby":14060,"Ġprisons":14061,"Ġconsp":14062,"Ġlayer":14063,"gom":14064,"leen":14065,"ĠMonica":14066,"ĠSteenkamp":14067,"ĠEarl":14068,"did":14069,"now":14070,"ĠMumb":14071,"Ġamongst":14072,"Ġbattered":14073,"ĠColombian":14074,"ĠAberde":14075,"ĠCurtis":14076,"Ġaides":14077,"ovich":14078,"ĠDa":14079,"aston":14080,"Ġpurple":14081,"ĠBoyle":14082,"Ġly":14083,"running":14084,"oppy":14085,"Ġjewel":14086,"ĠMedicine":14087,"Ġoutraged":14088,"Ġassigned":14089,"Ġluggage":14090,"Ġstating":14091,"ĠBatt":14092,"print":14093,"Ġauthorized":14094,"ĠCentury":14095,"ĠChester":14096,"Ġexchanged":14097,"ĠSac":14098,"Ġboxer":14099,"ĠIvory":14100,"British":14101,"Ġpipe":14102,"ĠTon":14103,"Ġsimpl":14104,"gue":14105,"ĠAIDS":14106,"ĠBil":14107,"Ġimper":14108,"Ġactively":14109,"Ġbases":14110,"ĠMake":14111,"ĠRams":14112,
[...]
