#version: 0.2
Ġ t
h e
Ġ a
i n
e r
Ġ s
Ġt he
o n
r e
Ġ w
e d
e n
Ġ c
o r
a t
Ġ b
a n
Ġ f
Ġ o
i s
in g
i t
e s
Ġ h
a r
Ġt o
Ġ p
Ġ in
n d
o u
a s
a l
Ġ m
Ġo f
Ġ d
i c
Ġa nd
l e
Ġ .
o m
i l
Ġt h
i d
i on
en t
Ġ l
Ġb e
Ġ n
Ġ he
Ġ re
s t
v e
Ġ T
a y
o t
Ġ S
Ġ g
o l
u t
Ġ on
a d
a m
Ġ A
a c
Ġ M
Ġ e
o w
l y
u r
Ġ C
Ġf or
i m
t er
i g
i r
Ġw as
e l
v er
Ġ I
e t
Ġs t
r o
Ġ is
u s
Ġ B
Ġth at
' s
Ġw h
e c
â Ģ
it h
ĠT he
Ġw ith
il l
Ġa t
l d
Ġs a
Ġ H
r i
Ġ '
Ġ P
Ġ it
Ġa s
u n
c e
Ġa n
at ion
Ġsa id
Ġa l
Ġ y
er s
he r
e ar
Ġh is
o s
r a
Ġh a
an d
c h
Ġ W
Ġ D
u l
t s
o p
ig h
t h
Ġ L
r om
Ġ R
a g
k e
e m
Ġc on
Ġ F
Ġ 2
es t
o re
Ġ 1
i f
p p
âĢ Ļ
Ġha ve
Ġf rom
Ġ r
Ġ N
Ġh as
ou r
Ġ E
Ġa re
Ġ G
Ġb y
Ġs h
a in
Ġhe r
e w
Ġc h
t ed
Ġc om
Ġ v
re s
Ġ J
o d
Ġ "
at e
0 0
ou ld
Ġd e
Ġ le
u p
en d
Ġw e
c t
as t
es s
Ġn ot
ac k
u m
Ġs e
igh t
g h
u st
al l
Ġe x
Ġ j
Ġ O
a b
it y
Ġwh o
Ġp ro
Ġa f
is t
s e
Ġh ad
ar d
i ve
Ġs p
Ġw he
Ġ U
ic e
ar t
er e
a k
o c
Ġ -
Ġ âĢ
m ent
o k
Ġs he
r ou
Ġs u
Ġp l
om e
i es
re d
or t
Ġa b
ou n
i v
Ġbe en
Ġthe y
Ġw ere
u d
Ġaf ter
Ġ k
ou t
g e
Ġthe ir
q u
ic h
o st
Ġb ut
Ġg o
Ġw or
Ġ K
id e
an t
el l
Ġ or
Ġo ut
Ġw ill
Ġof f
Ġth is
Ġc l
i al
r y
Ġy ear
i e
b er
ow n
a p
on e
e p
d ay
i a
on g
ĠâĢ ĺ
Ġ up
in e
f f
re n
c c
ou s
Ġd o
Ġa g
ay s
Ġa d
an s
Ġ un
or d
Ġ2 0
im e
Ġwh ich
u nd
Ġc an
Ġn e
ol d
m er
ĠS t
u b
ic t
Ġ (
Ġin t
Ġ us
ec t
ac e
ĠC h
am e
ar y
at ed
Ġon e
t her
Ġwhe n
al ly
u e
Ġab out
Ġal l
w o
ag e
a il
Ġm an
s o
Ġre s
Ġp e
p l
Ġm ore
a ke
ĠH e
u re
Ġy ou
Ġw ould
i le
ĠI n
Ġm e
Ġin c
T he
Ġh im
' t
ion s
op le
on d
a v
Ġo ver
. '
ol l
ver y
o ok
il d
Ġcon t
i an
en ce
ou nd
id ent
Ġa r
Ġal so
Ġ20 1
it e
os e
as s
i re
ig n
in d
o g
Ġd is
Ġs o
i p
Ġre p
Ġpe ople
re e
Ġ im
k s
r u
Ġp ol
Ġp r
, "
res s
Ġs c
i ke
Ġbe c
ot her
ĠT h
Ġt wo
n e
Ġat t
is h
Ġth an
a us
a re
m an
Ġa cc
p er
Ġe v
Ġcom p
Ġ V
oun t
he d
Ġf ir
Ġint o
f t
Ġa pp
o y
i b
ic k
Ġn ew
Ġ en
r it
Ġp er
ĠI t
ou gh
Ġj ust
Ġre c
Ġthe m
Ġt e
Ġ- -
v ed
ĠM r
ac t
or s
Ġto ld
Ġt ime
Ġc ould
ar k
Ġk n
Ġ 3
re at
Ġwor k
Ġo ther
Ġyear s
u c
ation s
Ġl ast
ac h
Ġp art
ad e
Ġthe re
is s
. "
n ing
p t
Ġfir st
Ġit s
if e
a w
o b
Ġ Y
g ed
i z
Â ł
f ore
an ce
Ġt r
i ed
ab le
o ve
as e
Ġl ike
an c
at h
Ġm y
en s
il y
Ġb l
o od
am p
rou nd
Ġ ro
aus e
Ġb ack
Ġs ome
Ġf am
Ġ1 9
Ġg et
l and
Ġp re
ĠB ut
Ġbe fore
Ġ qu
at er
ic al
Ġpl ay
n ed
t ing
Ġag ain
e k
or m
Ġf l
Ġwh at
Ġan y
Ġd own
Ġin v
Ġbe ing
o ol
in k
i ous
Ġn o
an g
Ġsh ow
und er
w e
Ġn ow
, '
Ġc ar
Ġs ec
on s
Ġt ra
ur ing
00 0
Ġch ild
Ġm on
Ġc r
ent s
ul t
Ġoff ic
ĠU n
Ġs er
Ġin ter
it ion
Ġs ay
at es
Ġd es
y ear
Ġh ome
Ġd id
ĠA l
Ġd ec
ve l
o in
Ġs ays
ing s
Ġa m
rou gh
l ic
l ud
or y
en c
Ġ Â
Ġa ct
Ġ under
ĠN ew
it ed
Ġ 4
o ver
Ġb r
Ġf ound
Ġc all
ter s
a u
Ġpol ice
w n
Ġ if
Ġwhe re
Ġf e
Ġp h
v ing
as h
ĠA n
Ġad d
ĠS he
in ce
Ġbec ause
t on
i ver
u red
al s
Ġre m
ill ion
o ot
i er
ĠÂ £
Ġth ree
Ġw om
Ġ2 00
Ġinc lud
ak ing
Ġon ly
oc k
at her
s s
Ġl ook
Ġbe l
Ġ ra
Ġmon th
Ġh ow
Ġch ar
Ġcom m
Ġs ur
f er
Ġfam ily
ĠL e
a ir
N N
ation al
Ġhe l
Ġc ent
Ġim p
Ġm ade
Ġ 5
Ġex p
Ġc ount
Ġbe t
ri end
Ġg r
s on
ri b
at ing
Ġo ur
Ġwh ile
Ġagain st
our t
os s
u es
er ed
ub lic
a im
Ġd uring
is e
Ġwe ek
l ed
t y
Ġm ost
ou se
I t
ĠA nd
Ġhel p
p h
Ġthe n
Ġa c
el f
ĠM ar
t e
Ġth rough
Ġa w
f ul
Ġin s
it al
Ġe ar
it ies
Ġcl aim
v en
W e
i x
h n
Ġd ay
Ġf in
Ġle ft
Ġrep or
ĠF r
em ber
res ident
Ġk ill
at ch
he n
Ġm in
op e
Ġsu pp
ur n
. âĢĻ
Ġev en
Ġle ad
Ġe very
Ġde f
as ed
ĠS c
ch ool
Ġm ake
or n
u g
t le
Ġre l
au gh
u ch
Ġ very
Ġwor ld
Ġe m
Ġkn ow
Ġcon s
Ġa round
ord ing
Ġ 6
a red
Ġt ri
ĠA f
o v
ir l
Ġl ife
a h
ĠS p
g er
l es
le ct
Ġst ar
al k
n ment
ĠB rit
m ed
Ġ ke
Ġre t
Ġne ed
mer ic
Ġo wn
he s
Ġs m
h ing
g et
ĠW h
or k
Ġchild ren
Ġbel ie
Ġ $
i ew
Ġt ake
Ġd on
Ġte am
Ġf our
s h
Ġse e
d er
Ġb u
ĠE n
u res
ec ted
ĠA r
Ġin f
Ġre g
x t
oll ow
ers on
rou p
Ġ end
Ġas s
ou th
Ġs et
od y
Ġw ay
b le
Ġman y
Ġl ong
Ġatt ack
Ġsh ould
Ġin d
r ic
Ġgo ver
g an
em ent
Ġw ar
Ġs ince
ĠB r
ul l
a ve
Ġth ink
u al
Ġl aw
al e
a z
Ġhe ad
w ard
Ġh and
c ed
iv es
ĠA meric
Ġinv est
Ġw ell
is ts
Ġm ay
Ġm ed
Ġw in
al th
Ġst ill
ot h
a ren
Ġst ud
Ġm il
Ġde ath
os p
i el
im es
on t
Ġgo ing
Ġpl an
Ġy our
ĠS h
Ġth ose
Ġha pp
en e
us s
Ġf riend
as on
ne y
Ġc o
ĠJ o
is ed
c er
ut h
E D
Ġp ict
am a
Ġh igh
Ġt er
l ing
ĠR e
Ġth ough
n er
Ġn ear
Ġg u
an k
Ġcon f
S T
Ġf ollow
Ġv ide
. .
an y
Ġoffic ial
am es
Ġg roup
Ġs chool
Ġres p
Ġo p
Ġcount ry
ĠW e
Ġr ight
l l
g g
is ter
we en
Ġc ap
Ġt ak
v es
Ġm other
ad y
Ġb o
ib le
Ġs ign
ro ss
ĠUn ited
it s
Ġn ight
le y
Ġus ed
Ġ1 0
ĠE ST
Ġgover nment
ul ar
Ġbet ween
Ġd if
c k
Ġdis c
m s
Ġinclud ing
Ġsu ch
Ġ 7
Ġm ar
Ġp ut
b r
t ain
Ġm uch
Ġfor mer
i o
Ġc ourt
an ge
an ts
ot t
Ġr un
ĠâĢ ĵ
ur y
Ġc ol
in a
Ġp ublic
b s
ter n
Ġw ant
ĠThe y
Ġle g
h am
re st
en ed
a x
ol og
r al
Ġc he
Ġsec ond
Ġp ass
H e
ur s
st er
ec ut
Ġpr ot
Ġs l
Ġd ri
ow er
ĠI s
ĠEn g
ĠC l
Ġto ok
Ġvide o
Ġy oun
Ġn um
Ġinvest ig
Ġcall ed
Ġ201 3
Ġgo od
Ġf r
re t
n ess
Ġas k
or th
Ġs ent
Ġwom en
g r
e ver
Ġacc ording
is ion
ic s
in es
Ġst r
in s
Ġne xt
ĠP ol
a pp
ĠC NN
ut e
s ide
ond on
Ġc are
Ġex t
osp ital
ĠCh r
er al
Ġp erson
ot e
Ġw r
p le
Ġd ays
Ġs y
Ġal le
Ġv ict
Ġf ive
Ġg irl
s elf
Ġcon d
Ġst at
Ġl ater
is on
Ġ ent
one y
our s
us ed
et s
Ġan other
b ers
Ġc le
ĠL ondon
re m
B y
Ġre f
Ġl oc
Ġa ir
om et
ĠM on
Ġne ver
ĠO b
Ġcont r
h ip
ĠA s
Ġadd ed
uth or
Ġre le
Ġb us
ĠP r
Ġph ot
iver s
ag es
at ive
Ġm em
Ġd r
Ġmonth s
Ġ Q
T h
Ġf il
Ġv is
Ġaw ay
Ġse en
Ġin j
Ġbe h
ment s
Ġad m
iv ing
ĠA t
ĠM c
Ġ Z
Ġrep ort
u ally
Ġcont in
Ġcom e
ver s
Ġp ost
Ġf ind
Ġm illion
om m
Ġs ame
Ġthe se
ĠD e
igh ts
Ġb re
p r
Ġg ot
v ice
Ġm en
l ine
i am
Ġc ase
Ġex per
id ay
ic es
Ġyoun g
Ġrepor ted
Ġb ig
Ġt ry
Ġdo es
Ġc amp
e x
b y
Ġc ame
Ġtak en
Ġb oth
Ġ 8
Ġw ent
Ġto day
os ed
Ġe ff
i ent
il ity
Ġpl ace
at ur
ag ue
g es
Ġ201 2
Ġc re
i red
Ġp oin
Ġsp e
al f
Ġ 9
ĠOb ama
Ġst ate
Ġar rest
ĠJo hn
Ġm iss
Ġc ur
Ġs ix
Ġse x
ĠTh is
ĠB ar
Ġan n
ĠC ar
us p
Ġto p
ire ct
on y
a j
Ġpro v
Ġd ied
i k
iv ed
and s
Ġf oot
Ġsp ok
n es
' re
Ġh ouse
ĠD av
Ġre al
Ġis s
enc y
Ġex pl
Ġwom an
Ġde p
Ġl it
I S
ri v
d uc
he l
ĠR ep
Ġc ou
c hed
ĠF or
Ġus e
Ġtr ans
Ġsp ec
Ġre ally
Ġre st
y s
c es
augh ter
or ld
Ġkill ed
if ic
Ġpre v
Ġs omet
u ct
Ġfe el
Ġs k
Ġ1 2
ĠS outh
Ġto o
ri ed
o ber
Ġf ather
Ġs usp
Ġd et
Ġdid n
Ġp ay
e le
Ġhe alth
at t
ĠS y
Ġf ar
Ġw ife
Ġre ce
Ġrem ain
Ġmil it
Ġnew s
Ġrec ent
iel d
Ġg l
ĠO n
ear ch
ĠB l
or ts
ir d
Ġf ac
Ġsu b
ĠY ork
ren t
Ġman ag
Ġsupp ort
Ġg reat
ĠE ur
ur ned
Ġg en
a ff
t il
Ġse ver
o ved
b all
ĠPol ice
Ġp resident
Ġaf f
in ess
t en
Ġm et
Ġl ar
Ġnum ber
Ġb est
Ġall ow
Ġb oy
Ġs w
in ed
Ġs on
am er
ĠChr ist
pp ed
Ġp ar
ru g
ur ity
Ġper f
Ġ1 5
ĠW orld
Ġin st
i et
ist r
Ġst op
Ġg ame
Ġspok es
C NN
u ed
Ġs it
er ing
ĠA ust
ĠEng land
v iew
Ġm oney
Ġ1 8
Ġf ace
iv en
Ġb ody
A T
ĠBrit ish
th ing
Ġh ospital
' .
ĠM ay
an n
Ġs im
Ġm ove
Ġke ep
Ġdif fer
Ġp at
Ġa uthor
uc k
c on
Ġsh ot
Ġp oss
en se
Ġp res
Ġ ve
an e
c om
Ġre ve
Ġsu ff
Ġd em
Ġf ew
Ġd irect
i ol
is m
ĠS und
Ġcl ub
an ted
Ġle t
w ays
id ed
it ted
Ġd el
art ment
in al
Ġapp ear
t o
Ġl ot
Ġse ason
Ġpol it
Ġs ide
Ġo pp
en n
ion al
Ġhe re
ĠB e
Ġ1 1
is hed
Ġrec ord
Ġp aren
ĠSund ay
Ġvict im
Ġinter n
Ġp op
Ġun til
end ing
Ġthough t
ate ly
Ġcomp any
Ġbu ild
Ġst art
Ġwith out
ĠH ow
Ġm ur
Ġh it
Ġh ours
c o
at s
Ġw on
Ġf ire
Ġop en
Ġag o
ĠU K
ĠP resident
Ġdes c
Ġo ld
Ġinv ol
Ġpro ble
ĠW est
Ġsay ing
Ġha ving
id ence
p ort
Ġcomm un
end ed
ĠMon day
Ġc ity
on es
ĠM in
ĠC ity
r or
ie f
ivers ity
at ic
Ġj ob
b e
Ġs oc
st em
el s
' m
Ġp ast
Ġm od
ĠH ar
r oll
Ġo per
Ġt imes
ues day
ial ly
ĠT uesday
Ġh um
a ign
Ġd aughter
Ġe ach
a ul
Ġalle ged
ĠEur ope
Ġcomp le
Ġapp e
c l
Ġde ad
Ġw ater
Ġask ed
Ġp rom
am ed
Ġac ross
Ġfollow ing
is ing
og ra
ent ion
ĠO ne
ail ed
Ġtra in
i or
a id
Ġqu est
' ve
Ġc ost
Ġst and
Ġkn own
Ġlit tle
Ġb ro
ĠFr iday
ĠM iss
al ed
re ady
ĠI nd
i ence
vel op
Ġsomet hing
r ow
ĠS e
Ġofficial s
Ġstat ement
ro p
l ier
ut es
Ġh ard
Ġst ri
g y
er v
Ġg iven
us e
Ġde al
ĠA m
y ing
P D
ĠW ed
Ġd rug
Ġcle ar
ĠDav id
o ke
Ġe lect
p ite
Ġm id
Ġv iol
ĠAust ral
Ġsy stem
Ġab le
iz ed
ĠG er
b and
Ġare a
ĠR uss
ĠAmeric an
Ġtra vel
Ġm ark
ĠThe re
a un
ĠA d
over ed
Ġal ready
Ġal ong
e ks
Ġa v
pl oy
Ġ 0
Ġcou ple
re en
un e
Ġp os
c ess
Ġst ru
ĠJ an
Ġcamp aign
it ing
Ġt est
Ġ3 0
nes day
Ġc oun
ec ts
Ġmem bers
ĠP h
ard s
aj or
um p
ĠWed nesday
Ġo b
Ġbus iness
atur day
re et
Ġpict ured
Ġsa f
ect ion
Ġt ell
ar ing
a f
ĠC up
Ġfriend s
Ġbelie ve
c ent
Ġwork ing
Ġad v
Ġinf orm
Ġh alf
ri es
if ied
ĠLe ague
Ġparen ts
ĠS aturday
ĠP e
ĠN orth
Ġf ight
p e
Ġout side
Ġal ways
ĠC o
Ġc aus
Ġ19 9
ĠTh at
ĠG e
Ġmilit ary
Ġme et
Ġcur rent
ĠH er
Ġj oin
ĠC ol
Ġcl ose
Ġt reat
o or
r ight
ĠF l
Ġcon cer
Ġar t
Ġf act
Ġdesc rib
Ġinc ident
Ġ est
t he
Ġwe eks
, âĢĻ
Ġstar ted
Ġm or
Ġt aking
ep t
anc he
ĠW ill
Ġinc re
Ġp ower
at ter
ut ion
Ġbeh ind
urs day
i ans
Ġev ent
re w
Ġre qu
ĠTh ursday
Ġl ess
us band
Ġear ly
Ġbec ome
ak es
AT ED
Ġde velop
Ġc ele
ĠU PD
es ts
Ġ1 6
ĠUPD ATED
) ,
ĠA b
m ing
he ad
Ġpro f
ious ly
ĠC omm
Ġs old
Ġus ing
Ġwhe ther
r an
cc ess
Ġg un
ce pt
Ġw alk
Th is
Ġpr ison
Ġloc al
Ġh old
Ġf ore
Ġg ive
Ġcon v
Ġhe ard
ĠS ec
ra in
B L
Ġa p
Ġsever al
ar s
ain ed
b ook
Ġm om
o on
Ġle ast
Ġ |
al es
Ġc er
Ġm aking
Ġsec urity
Ġl ost
Ġ ed
Ġdiffer ent
l ess
Ġp ress
Ġhis t
es ter
IS H
ore d
u ary
Ġth reat
Ġdes ign
Ġs n
ĠW hen
Ġsm all
Ġrele ased
U BL
up er
Ġv iew
Ġann oun
ISH ED
ĠM s
UBL ISHED
a el
Ġb ook
Ġw anted
ĠH is
Ġ es
Ġc rit
gr am
en g
ĠP ro
Ġse em
Ġm ight
Ġclaim s
j ect
ĠP UBLISHED
at ors
as es
Ġh usband
ĠM ich
Ġl ove
5 0
Ġarrest ed
ĠAf ter
ud ge
B C
ĠJ u
m ost
f ic
Ġc ut
w ay
Ġsa w
Ġmur der
us h
Ġr is
Ġspokes man
s ecut
ĠH ouse
Ġ1 4
Ġm ajor
Ġth ings
Ġm ess
Ġ1 3
Ġe ver
e b
ing ton
Ġbet ter
Ġb ab
m illion
Ġs um
Ġt ax
S he
ĠC ourt
Ġshow s
Ġs ing
e v
Ġf ood
Ġtry ing
m y
Ġt alk
Ġfr ont
Ġplay ers
Ġ1 7
ĠAf ric
Ġpart y
Ġm ust
ĠAl l
con om
at or
ĠE d
ist an
Ġe l
ĠMr s
Ġf ull
o f
Ġro om
Ġre d
en al
ĠBrit ain
Ġpro per
Ġc ust
ĠT r
el t
ĠD r
Ġmed ia
Ġam ong
iz e
Ġcons id
he re
ĠD ec
Ġf ree
Ġfin al
w it
c her
Ġsh oot
ĠJan uary
Ġ201 1
Ġsu ccess
i um
ĠSt ates
Ġoffic ers
ĠSc roll
al if
ĠUn iversity
ic ally
The y
Ġm ain
Ġf ur
Ġd ra
le t
g o
ress ed
qu e
Ġh ot
Ġe mer
Ġp ain
Ġr ul
anche ster
Ġsh ort
Ġhe ld
get her
Ġto gether
Ġhim self
ĠSy ri
Ġpro gram
Ġcele br
Ġd i
Ġclaim ed
Ġn ame
Ġw atch
Ġbe gan
Ġlook ing
Ġl ive
anc es
ec hn
Ġor gan
Ġear lier
g in
Ġatt em
Ġsu gg
Ġt re
ĠD ep
er n
id es
ĠC r
Ġst aff
Ġmin utes
ac y
Ġmor ning
Ġch ange
st r
Ġpart ic
Ġdec ision
ur ch
Ġst ay
ĠF ace
Ġimp ort
Ġreve aled
l er
Ġwr ote
Ġo cc
Ġl aun
Ġl and
Ġinvestig ation
ĠM ail
oc r
ĠG r
g est
Ġw a
Ġgr ow
Ġapp ro
Ġ ident
Ġle vel
Ġar ri
Ġe conom
Ġdo g
u ge
Ġinform ation
il le
Ġp riv
Ġb an
Ġc or
Ġbec ame
Ġcom pl
a i
ec h
Ġh om
ĠFace book
op s
ĠC ent
Ġauthor ities
Ġhe art
Ġexp ected
Ġon ce
ĠGe or
ĠS ept
ĠM anchester
ro om
all en
b ed
ac ed
Ġvis it
Ġen ough
Ġth ird
Ġfor m
Ġde b
ester day
f ord
al d
ĠP ar
Ġpoin t
e y
Ġg round
ail y
Ġk id
olog y
Ġre ad
at ure
Ġd ist
Ġgo al
m ber
ĠD em
ĠC on
Ġother s
Ġe y
un g
Ġev idence
Ġwh y
l ish
ter m
Ġfoot ball
Ġdo ct
ĠO ff
enc es
Ġlar ge
re ed
Ġbl ack
o le
Ġw ear
ĠY ou
ĠI f
Ġret urn
ĠSept ember
d en
Âł Âł
ward s
c il
Ġd one
ove mber
ĠO ct
ĠN ational
a ut
Ġacc used
ĠRep ublic
le ft
e e
Ġp le
e ad
Ġph one
Ġc our
Ġh ope
The re
Ġen g
Ġse ven
ĠN ovember
Ġget ting
Ġlike ly
ĠHow ever
av ing
Ġdo ing
ĠGer man
Ġt ar
Ġbre ak
ĠDec ember
Ġs ite
ĠG u
Ġrel ations
ĠA ug
Ġd am
ĠM an
Ġd en
Ġb ar
Ġser vice
I n
Ġcomp et
al y
Ġe as
ab ly
âĢĻ .
Ġinter view
st and
se a
ĠMich ael
Ġcl ass
igh b
Ġsoc ial
m p
re am
Ġcom es
Ġw rit
ĠOct ober
Ġal most
Ġe ight
Ġd ue
ĠE l
ĠMar ch
Ġ2 5
Ġf ell
o x
om b
Ġcontr ol
ĠWill iam
id ge
Ġl ives
Ġpol ic
Ġchar ges
ĠAug ust
Ġhapp ened
d s
iss ion
ĠJ une
as ter
e f
ur g
Ġsp ent
Ġ ide
ĠW ar
Ġm atch
Ġpro duc
ĠC ount
ĠU S
Ġf ut
Ġt echn
c hes
ĠN o
Ġro ad
Ġl ist
Ġbr other
Ġa ge
Ġtri ed
th ough
Ġf un
l am
Ġp ot
Ġth ing
d le
Ġhum an
her n
B ut
Ġintern ational
Ġpolit ical
Ġh op
s p
ogra ph
st it
Ġter ror
Ġf ans
Ġh ost
Ġl ate
ra z
s el
Ġ201 0
ĠP ark
Ġof ten
Ġtri al
ap er
ang er
Ġins ide
Ġf und
Ġw ind
ĠS er
Ġl o
Ġl ine
Ġto wn
Ġoff ice
Ġex ecut
amp ions
ĠP al
i ents
Ġimport ant
ir th
ail s
Ġan im
Ġm us
Ġle ave
Ġinvol ved
it ness
Ġstr ong
ĠCh ar
Ġb all
Ġbelie ved
Ġchar ged
Ġconf ir
f riend
ĠJu ly
oc i
our n
Ġrece ived
pr il
Ġwe bs
Ġgr and
Ġbab y
Ġfil m
Ġsp ot
it ions
Ġspec ial
Ġ2 4
ĠCh ina
Ġfut ure
an a
Ġem ploy
ock ed
Ġf ig
ĠH am
in ation
p ed
Ġquest ion
Ġan t
Ġfur ther
ĠA pril
ĠSt ate
Ġg ave
Ġdescrib ed
ig r
p ar
Ġe qu
Ġn ational
Ġon line
Ġplay ed
ap e
Ġtar get
Ġy et
Ġl ed
ect ive
ra q
or ies
ĠA cc
Ġmanag er
ĠO r
Ġ5 0
a ur
Ġy esterday
ĠAn g
n s
wit ter
ap s
w ork
u ff
ĠA ss
ough t
p ool
ĠS m
Ġcol le
Ġoffic er
Ġpro secut
f or
Ġ2 1
ĠIn tern
or ney
ĠT V
oc um
ĠJ ames
Ġcommun ity
ĠI raq
Ġleg al
Ġt w
Ġdoes n
i pp
Ġl iving
Ġor der
Ġbr ing
Ġpro cess
ĠP aul
Ġd ou
Ġne ighb
Ġsugg est
Ġc over
ĠJ ack
ort un
Ġact ion
Ġwith in
Ġsc ene
Ġdes pite
e al
Ġcom ment
iv il
en ing
Ġle ar
Ġb it
il ar
ict ured
Ġinter est
Ġposs ible
le x
ĠS o
fic ult
Ġb ad
Ġbl ood
in c
rem e
y le
n ot
ut ed
Ġact iv
Ġlead ers
Ġl ight
r ing
ic le
Ġris k
ĠT witter
Ġim m
Ġsome one
Ġte en
o ff
v ices
Ġb irth
ĠJ ust
ĠM art
ĠG l
ĠAmeric a
Ġt urned
Ġm ot
ren ch
as k
Ġs ol
Ġfam il
ed eral
ar m
ent ed
Ġt urn
Ġhist ory
ru ct
Ġb ed
Ġst ory
ĠDep artment
Ġf all
ĠMin ister
Ġor d
ac hed
2 0
Ġdif ficult
ill s
Ġ201 4
ens ive
ĠR o
alif orn
Ġb ene
Ġt y
ĠF eb
Ġ1 00
et y
i ber
Ġcap t
Ġfor ward
Ġk ind
Ġre pl
ret ary
Ġg ra
Ġp ub
ash ington
ĠE m
ĠS en
it ive
er ry
Ġtrain ing
Ġs our
Ġlead er
Ġa head
ec k
ru ary
ĠCount y
Ġrepor ts
ĠWh ite
ĠSt e
Ġadm itted
at tle
Ġn et
Ġappe ared
Ġrelations hip
Ġ4 0
Ġdirect or
Ġsu re
Ġbuild ing
g ency
ĠC aliforn
ĠFeb ruary
Ġplay er
Ġs earch
Ġn ation
ĠNew s
ĠK ore
Ġgu il
d uct
ir c
Ġwork ed
in t
Ġst ep
Ġcomple te
ĠM e
Ġwas n
ag n
Ġresp ons
Ġme an
Ġ19 8
ic ted
Ġmom ent
l o
r on
ac her
Ġv ot
r ay
Ġcar ry
ĠC hel
j oy
Ġany thing
ent ial
ĠR oy
Ġch ief
Ġser ies
rough t
Ġr ights
Ġwebs ite
Ġsum mer
Ġd ocum
Ġqu ick
ow s
m e
Ġm ass
id ing
* *
ous ands
I f
a ult
ĠR es
c ted
g ing
ĠM or
Ġcom ing
Ġ i
t ime
Ġto ur
Ġve h
Ġro le
ĠP l
ĠR om
iver pool
u ation
ĠCaliforn ia
sel ves
is ted
Ġmil es
Ġs qu
Ġcont rib
ĠS am
ĠE x
Ġh or
ĠA ir
Ġh ol
augh t
p ted
Ġstud ents
ĠAustral ia
Ġc amer
un t
ad ed
p or
Ġ2 2
Ġfor ced
Ġplay ing
Ġh ig
3 0
ound s
or ing
Ġpro p
Ġcontin ue
Ġannoun ced
ot s
Ġwr ong
Ġins p
ra el
Ġproble m
Ġcount ries
ĠE ar
' ,
ord er
Ġshow ed
Ġt em
Ġf av
Ġ ill
Ġex c
Ġvictim s
Ġpl ans
Ġar g
ad es
Ġmed ical
ĠS w
Ġcour se
ic o
ĠF rench
Ġp ick
Ġtreat ment
Ġcan cer
Ġnot hing
Ġcust om
ess ion
ĠG o
Ġpop ular
in o
g ress
at a
ĠM ad
Ġstri k
Ġl im
ac es
Ġstud y
Ġl ow
ĠEurope an
ĠC an
Ġiss ue
ul ts
Ġnear ly
ĠM il
Y ou
Ġsh op
Ġcaus ed
Ġalleged ly
Ġdef end
Ġf ear
om p
ĠM o
gh an
Ġen joy
ĠA pp
Ġguil ty
W h
on a
Ġsur v
Ġso on
Ġmark et
re ad
i ers
Ġs ell
Ġperson al
Ġrecent ly
med i
p ictured
Ġch allen
m in
Ġ200 9
Ġcond ition
ĠAcc ording
we et
Ġrep res
Ġh uge
er y
ĠDem ocr
Ġst ore
enc ed
Ġwh ose
ĠWh ile
Ġs en
Ġ ri
Ġhand s
av y
os ing
ĠL iverpool
u el
o o
Ġbe at
Ġm akes
ĠP rem
it her
ĠChel sea
Ġwh ite
Ġj udge
ĠD es
Ġres ident
Ġp air
m as
fer ence
ĠD aily
Ġproble ms
Ġfe at
s y
ĠR ober
Ġl at
Ġgen er
Ġc ivil
et h
l im
ĠW ashington
Ġkn ew
w h
Ġcer tain
ĠIs rael
Ġen c
s c
Ġto t
lect ion
ĠC amer
ro ve
Ġlook ed
f ield
Ġstru gg
Ġfor ces
i ec
l in
Ġd est
ourn al
ur ies
Ġsim ilar
Ġv al
Ġdec ided
Ġf elt
Ġsuff ered
Ġ2 3
Ġl if
d ing
ul ation
Ġor ig
ĠL ab
Ġpict ure
ĠW ith
Ġc oll
Ġg ames
Ġb rought
ĠAf ghan
Ġp aid
Ġme ans
ip s
Ġdis app
id a
Ġt ro
Ġs uper
y n
Ġinclud e
Ġres ult
Ġt it
' d
et t
Ġch o
Ġtr ad
iet y
Ġcare er
' ll
Ġp ark
Ġ er
Ġcurrent ly
s w
Ġpost ed
ĠE ast
le ar
Ġsex ual
Ġb ur
Ġr ad
Ġlat est
ĠN e
Ġm oved
Ġes c
ĠIs lam
Ġser ious
Ġim medi
Ġpriv ate
ĠR ich
ain s
ĠK ing
Ġch ance
ĠM ark
Ġfamil ies
c el
ĠAng el
Ġweek end
Ġviol ence
Ġm ov
Ġgirl s
Ġf ailed
Ġn amed
Ġlaw y
Ġacc ident
k y
wo od
ĠA lex
k n
Ġm ember
ĠPh il
ĠH ol
ĠâĢ Ķ
ĠM id
Ġremain s
ĠL ast
Ġacc ess
ar a
ĠI ran
Ġcr im
) .
ĠPrem ier
Ġin it
und red
ĠD an
ĠFr ance
ĠS ome
Ġtr ack
um b
ĠGeor ge
ĠQ ue
Ġc ases
le v
n a
ĠM ed
Ġbo ard
Ġwe ap
ĠR ob
Ġpartic ular
Ġth ousands
il t
c ast
Ġf oc
Ġattack s
ĠWh at
Ġfor ce
Ġmiss ing
Ġs le
Ġtri p
ĠChrist mas
ent al
ag ed
ĠSyri a
Ġproper ty
Ġrun ning
it ch
i j
re g
ĠM us
Ġc ause
Ġacc ount
Ġr ace
l ished
Ġa ut
Ġbene f
Ġpre p
Ġdec l
Ġpro b
Ġdisc overed
as ing
Ġ200 8
Ġn ine
Ġcomm it
Ġexper ience
ĠMc C
or man
ly ing
1 0
Ġthem selves
Ġhe aring
Ġ. ..
Ġfl ight
Ġevery thing
Ġme as
ib ility
Ġ2 6
ĠP at
ful ly
Ġany one
pt ion
Ġd anger
Ġf ederal
ra ft
Ġneed ed
Ġplan e
Ġcrit ic
ĠS ch
n ers
Ġdr ink
Ġsaf ety
is c
Ġunder stand
Ġallow ed
o id
is es
ak er
Ġw ants
ĠCamer on
b ack
at ives
Ġt al
st on
Ġhapp y
p ing
ir t
Ġkill ing
Ġshoot ing
r id
ĠBr own
Ġle aving
ĠC or
es e
Ġhelp ed
Ġmar ried
Ġarri ved
Ġchar ge
Ġresp ond
Ġd iv
Ġav ail
Ġf ail
Ġb ased
Ġne g
ut y
ĠB er
e ase
Ġmeet ing
Ġexp ect
Ġs elf
Ġsupp or
ĠAfric a
Ġcom ments
Ġp ri
as hed
Ġper cent
Ġb ank
Ġ2 7
Ġc reat
Ġres earch
Ġr ound
.. .
ĠFl or
ĠS u
O n
ĠM al
Ġwork ers
Ġ X
Ġpat ients
Ġc irc
ĠT ra
Ġr ather
Ġide a
ĠM ex
Ġh on
Ġmess age
Ġ [
Ġch ang
Ġcr ime
Ġsaf e
ir on
Ġlaw s
z e
Ġind ust
y an
ĠM ur
l ike
h ood
im ate
u ce
Ġact ually
Ġstud ent
ent ly
Ġcr ash
Ġc ross
Ġsp ace
ĠB en
ĠB BC
Ġmus ic
Ġf em
E O
ri age
Ġv ol
Ġst e
Ġ2 8
iv id
ly mp
Ġg one
Ġdri ver
Ġab use
ĠW il
Ġatt orney
ition al
ĠAr s
Ġinj uries
m on
Ġadm in
Ġrele ase
r up
ac ted
f orm
Ġpoin ts
Ġp un
Ġ19 7
an ged
h ire
Ġst ation
ap an
over nment
ĠRuss ia
Ġsit uation
Ġcon n
if f
Ġgroup s
i ant
raz il
Ġim ages
Ġdisc uss
ĠO lymp
Ġcould n
Ġlook s
Ġconfir med
Ġb ill
Ġwor th
i od
Ġde ep
Ġpr act
ĠCh ampions
ĠSm ith
ĠB ro
o ard
Ġare as
Ġun c
ĠL u
er gy
Ġc and
al ity
Ġb illion
Ġpolic y
Ġavail able
Ġevery one
Ġret urned
Ġdri ving
ver age
Ġd ress
Ġneed s
m a
ĠS an
Ġre ason
ĠRoy al
ĠFlor ida
n y
Ġiss ues
Ġr ac
Ġser vices
Ġcap ital
Ġbu y
ĠR ed
Ġhot el
ĠL ou
h an
k en
Ġpres ent
Ġs at
Ġre ach
Ġm ag
Ġem b
Ġc al
Ġw itness
Ġperf orm
ke y
on ald
Ġs ister
Ġche ck
Ġbe gin
ĠM P
Ġphot o
Ġl ab
ĠIntern ational
ĠPr ime
c he
Ġt en
Ġde term
W hen
Ġlong er
Ġwho le
ĠU k
Ġinj ured
og n
Ġke y
Ġim age
Ġab s
Ġam b
Ġw at
ĠB razil
Ġsing le
ag er
am b
ĠJ apan
Ġpos ition
Ġl oss
d e
Ġb orn
o e
ĠH ospital
ĠD ay
Ġcan not
ĠN ow
er t
iv al
Ġde v
Ġdrug s
Ġm atter
Ġsur pr
Ġ z
te e
Ġbo x
Ġcall s
Ġprot ect
ep end
u it
ĠEng lish
g n
Ġen s
Ġke pt
ĠS chool
undred s
Ġant i
Ġattem pt
Ġsen ior
Ġsur ger
ur b
Ġbe aut
r is
ĠC ong
all ed
Ġph ys
p ro
istr ation
Ġcon st
Ġlead ing
aren t
Ġprov ide
Ġb oss
ou ra
ĠN ot
ĠMart in
ĠH igh
re y
Ġpress ure
1 1
Ġper iod
Ġha ir
Ġc aught
Ġspe ak
Ġfir m
ic ated
Ġwear ing
ĠS im
Ġst reet
ol a
Ġopp ortun
om in
Ġst ra
Ġdo or
Ġcr ow
Ġpict ures
ac ter
Ġtak es
h ol
b ody
Ġb as
Ġb omb
ĠF er
Ġdoct ors
it or
Ġprof ess
Ġcre ated
om ing
ĠLab our
us hed
Ġco ach
Ġinj ury
Ġse par
Ġalle g
Ġr an
ak istan
ĠSec retary
Ġext ra
Ġind ivid
Ġed uc
Ġpro duct
ĠSt reet
Ġinf l
Ġn orm
Ġf at
Ġvict ory
Ġc ell
Ġcompl ain
Ġp ack
ĠT wo
Ġfin anc
ĠSc ot
Ġcent re
Ġcomp an
Ġro ck
istr ict
if t
oin t
Ġdra w
cher s
m ar
ĠAmeric ans
Ġm at
Ġcar ried
Ġre b
Ġcom b
Ġte acher
Ġv ote
Ġse ek
ĠRuss ian
ur t
Ġhow ever
act ion
Ġinclud ed
pl ay
op h
Ġreg ion
Ġbeh av
Ġqu ite
il ed
Ġwar ned
ines e
ĠI S
Ġst orm
ĠC oun
Ġgl ob
eng ers
Ġj ail
ĠT ex
ĠK en
ĠSc ott
Ġw ed
Ġres c
Ġfe et
Ġ2 9
Ġlet ter
Ġe le
ro y
Ġp red
Ġdem and
Ġfore ign
Ġmod el
Ġwe ight
Ġd ata
Ġre fer
ĠP akistan
Ġphot ograph
on se
ro vers
o ving
Ġhom es
Ġab ove
ud e
Ġv ar
Ġlaun ched
Ġs un
Ġn orth
Ġp age
Ġbig gest
Ġoff er
Ġp iec
Ġcontin ued
Ġass ist
Ġhe ar
ĠM y
ce ment
ash ion
if y
ic a
Ġsur ve
ĠT e
Ġcrim inal
Ġdis ease
Ġm ob
Ġa verage
Ġro b
Ġs al
Ġch air
Ġimm igr
Ġelect ion
Ġag ency
Ġgo als
Ġst age
Ġan sw
Ġs outh
Ġperf orman
ĠG en
Ġst ates
ĠM ore
Ġsent ence
ific ant
ou l
Ġre n
Ġass ault
ĠGerman y
Ġt ru
and er
land s
Ġl ink
Ġdis p
Ġsurger y
Ġtot al
ĠV ict
Ġquick ly
er c
ur ning
Ġf ield
Ġwor ks
ad a
Ġj ournal
Ġprev ious
Ġphot os
ir st
Ġac cept
Ġb attle
Ġcamer a
Ġn on
ĠS ir
ĠArs enal
n ight
Ġp ort
Ġm ult
ber g
ĠT o
u gh
Ġ6 0
Ġb rain
op er
ĠBl ack
Ġm ind
av es
Ġinst ead
ĠPr ince
Ġv ill
ĠAustral ian
ĠTex as
Ġmar riage
iz ation
Ġprev iously
p ly
Ġv an
i que
Ġown er
Ġal though
p m
Ġbelie ves
Ġmin ister
Ġc ult
Ġfight ing
Ġent ire
Ġ19 6
or ter
Ġus ers
Ġ200 7
Ġpr ice
o es
ĠCl in
ĠCh inese
sh ire
Ġsour ce
e es
Ġpot ential
ic ide
Ġ Âł
y l
Ġfam ous
p s
em y
Ġey e
Ġsh are
5 00
Ġb ag
ĠAss oci
Ġc red
Ġref used
Ġcre w
Ġp oll
es tern
in ks
Ġkid s
Ġexecut ive
Ġresp onse
ver t
Ġg iving
u k
in ary
Ġcontrib uted
Ġsc ient
Ġpre gn
Ġs il
ĠRich ard
id er
e at
og le
Ġfem ale
Ġp enal
Ġex am
od e
Ġimmedi ately
y a
ĠApp le
Ġh our
ing er
Ġveh icle
Ġjoin ed
ĠChr is
Ġdou b
Ġbu ilt
Ġreg ular
ĠAfghan istan
Ġrepres ent
ra b
ab ility
Ġopp os
Ġatt ention
Ġconv icted
he st
Ġd ro
g al
ĠT ur
Ġgen eral
Ġden ied
ogra p
Ġsle ep
Ġi P
ĠB el
ill ed
ĠO p
om an
ĠV al
ĠMus lim
ĠP art
Ġra ised
Ġt rou
Ġt able
ĠG overnment
ol f
Ġtechn ology
Ġre view
u le
Ġdam age
on str
Ġresident s
Ġcomm on
d own
Ġcomp ut
Ġhol iday
Ġsp oke
ort hern
Ġis n
Ġh ous
Ġcont act
Ġcl ot
ĠWilliam s
Ġdet ails
Ġl ived
v iron
ĠP er
Ġcre ate
Ġes p
Ġspe ed
Ġcond itions
Ġcompan ies
Ġc it
Ġcand id
I D
om s
ĠL ib
Ġth r
b or
Ġh ar
Ġc ard
Ġext reme
Ġpro ject
Ġsc ored
Ġtit le
Ġfollow ed
Ġadd ress
ĠCong ress
Ġrec ogn
Ġqu ar
Ġte lev
Ġev ents
amp le
M y
Ġsp end
Ġbro ad
ĠHe alth
ec ially
ĠScot land
T V
Ġher self
ĠRepublic an
ĠCoun cil
Ġoper ation
Ġcontr act
im b
Ġcont rovers
Ġcon ference
ĠAfric an
Ġg old
Ġr ange
Ġc at
Ġter m
Ġquest ions
ĠP ort
ĠJ e
Ġrest aur
i res
ec ess
c a
Ġst re
Ġwor ds
Ġm is
Ġpre t
Ġin qu
ĠE v
ĠA ct
Ġc ru
Ġp il
Ġto wards
Ġpass ed
Ġtro ops
Ġpe ace
Ġb id
Ġ ur
b ased
Ġsign ificant
ur al
Ġm ist
g u
Ġoff ered
Ġnews p
ĠFr anc
ast ic
he t
y c
Ġe ither
Ġpass engers
Ġimp act
ĠQue en
Ġcar s
ict ion
e ated
Ġgo es
se x
ĠPe ter
c ome
ĠB y
or ks
Ġt rib
Ġindust ry
Ġend ed
Ġprob ably
Ġres ults
ĠKore a
Ġ vers
Ġa ud
Ġcustom ers
ĠOff ice
Ġsh own
Ġhapp en
Ġatt r
anc y
Ġpub lished
Ġalleg ations
Ġr out
Ġwin ning
ĠGo ogle
Ġra re
ell ig
Ġfin ally
om as
Ġ ille
ĠR od
Ġre v
Ġdel iver
ĠJack son
Ġcr is
Ġfinanc ial
Ġapp arent
Ġp oor
Ġfoc us
Ġj ump
Ġw ide
g round
Ġo il
Ġseem s
Ġel se
ĠJohn son
Ġincre ase
end er
f ort
Ġt weet
Ġlaun ch
Ġocc ur
Ġrem ember
Ġeconom ic
Ġh undreds
Ġwe ather
Ġp ul
Ġsp ending
viron ment
Ġpart ner
ĠB ay
a ud
pt on
Ġemer gency
ĠSp e
Ġstop ped
m ark
Ġgrow ing
ar r
Ġprev ent
Ġcle an
H S
Ġal one
ce ed
Ġch anged
Ġesp ecially
ig er
as ons
ĠM att
un k
ra w
Ġfl oor
ear chers
ĠDes pite
ĠMad rid
ĠClin ton
Ġm ill
Ġp et
ch ie
Ġsn ow
ĠC am
am ent
Ġcons um
ĠAn other
ĠM ic
Ġappear s
ott en
ell ing
Ġsign ed
Ġb ul
a ed
Ġdem onstr
Ġp an
Ġopen ing
Ġweap ons
ĠCar ol
Ġpar ts
en ger
Ġtra ff
ĠK e
Ġop ened
Ġfac es
Ġent er
Ġfig ures
ol ution
Ġl ack
ri ff
Ġag reed
Ġb order
ad o
ib ly
air s
Ġg as
Ġsim ply
Ġenc oura
Ġen ergy
S A
all s
wh ile
o very
Ġcost s
Ġest im
S t
ĠInd ia
rup t
Ġcl os
Ġspe ech
Ġtre ated
s et
Ġo bs
Ġlawy er
Ġconsid er
ĠL os
Ġsur round
Ġj ud
Ġbro ke
ĠOff ic
ish ing
ens ion
Ġ3 1
ĠDe f
ĠCent er
Ġm ater
Ġreported ly
or ry
Ġatt end
in i
Ġsh ock
ĠAngel es
Ġbr and
Ġf ra
Ġag ed
ou d
ĠC ap
u x
Ġcoun cil
Ġb od
A s
Ġsold iers
Ġb ase
Ġnet work
Ġwed ding
ĠC he
ĠK im
Ġappe al
Ġa im
Ġafter n
Ġind epend
m en
Ġconsid ered
Ġdanger ous
u ing
Ġs ize
Ġshow ing
h o
r ol
Ġchallen ge
Ġsk in
Ġeconom y
Ġb ought
Ġam ount
co hol
nd er
Ġs ens
gy pt
Ġdri ve
Ġsur f
i ation
o z
ĠRe al
Ġsh ip
Ġey es
ĠJ ones
Ġaftern oon
Ġstrik er
Ġc ash
Ġ &
Ġun f
Ġdoct or
a res
c raft
Ġnear by
Ġord ered
Ġcit iz
ĠF ore
Ġtr ust
Ġeng ine
at ory
ak ed
ĠW ales
Ġeff ort
Ġj ury
ri ef
b re
ĠS al
Ġcrow d
ĠQ u
Ġ ver
Ġexper ts
ĠMex ico
Ġre ady
Ġto uch
ĠH ill
Ġwar ning
Ġem ot
Ġn atur
Ġd in
Ġeven ing
Ġan g
Ġb ott
Ġv o
Ġk ick
Ġeff orts
Ġperforman ce
ic ation
Ġschool s
ĠS and
ĠT om
ad ium
Ġtelev ision
il s
and a
h old
Ġcap tain
Ġcall ing
Ġchang es
Ġsusp ect
Ġemer ged
ĠLou is
ĠSp ain
Ġsc ore
Ġint ro
ĠC le
Ġco ast
Ġsec ret
4 0
Ġident ified
ill a
am s
Ġperf ect
Th at
Ġf ast
ri an
Ġconcer ns
Ġiss ued
duc ed
Ġsp read
Ġsqu ad
m it
ĠE gypt
Ġanim als
Ġadd ing
Ġav oid
ĠIn st
g ent
ri f
Ġdi agn
i h
Ġdesign ed
Ġun able
i pped
re l
ad d
Ġf le
ĠÂł ĠÂł
ick et
ar i
ĠG reen
Ġch amp
l iam
ĠRober t
Ġchar ity
ial s
1 5
Ġsy m
ÂłÂł ÂłÂł
it es
Ġcris is
Ġmid dle
Ġtw ice
ĠT od
ĠSt ep
Ġwould n
ac hes
il es
Ġrul es
g ic
pl es
ĠD on
Ġs end
Ġlar gest
ĠM ary
Ġe p
Ġf it
ad ing
Ġtem per
liam ent
uc lear
Ġboy s
Ġm oving
Ġevent ually
Ġf ashion
ĠL aw
Ġglob al
Ġopportun ity
Ġsp ort
ĠM el
Ġw ild
ear s
il ing
Ġair port
Ġa chie
ĠW ood
if ul
Ġl ik
Ġsa ve
Ġcon c
ĠSp an
Ġaw ard
Ġchar acter
l or
Ġdis play
Ġsuff ering
Ġ200 6
l ight
Ġex ample
Ġar m
Ġhig her
Ġser ved
w ell
Ġadmin istration
ĠVict or
ow ers
Ġter ms
A nd
ĠAnd rew
Ġw ond
is ters
Ġrequ est
v est
rou d
k i
oun ts
igh ters
Ġj ailed
Ġfl ood
out hern
ant a
Ġfell ow
2 5
Ġanim al
Ġo pt
Ġon to
Ġs ense
ĠIS IS
ic ks
Ġmov ie
ak ers
Ġme ant
Ġv ir
Ġparticular ly
ist ry
ĠT imes
Ġl oved
in y
Ġgirl friend
ĠO ther
Ġsc reen
Ġmanag ed
Ġche m
Ġimp rove
ĠJ os
ĠN or
ĠTh omas
t ies
ell ed
in son
ĠV an
Ġr ate
ĠIt aly
ĠB ill
il ities
ol ute
Ġnewsp aper
Ġexper i
Ġrem oved
ound ed
ĠPar is
Ġprot est
Ġsent enced
Ġal cohol
Ġtell ing
ĠF ar
Ġr ise
Ġdis m
Ġrel ig
Ġjob s
Ġch urch
Ġstre ets
ĠN HS
Ġattack ed
ellig ence
Ġd ate
sy ch
Ġp ur
riv al
ig g
Ġtalk ing
Ġp ers
Ġincre asing
az ine
Ġex act
ĠLe e
Ġpenal ty
ers ey
ĠL ord
Ġeff ect
Ġit em
Ġair craft
Ġp o
ag o
Ġf air
Ġpul led
Ġf ul
on ed
ĠDan iel
Ġb ra
Ġsee ing
ĠAr my
ĠChar l
Ġfig ure
ĠSen ate
Ġlevel s
Ġfoot age
ĠM ill
Ġexpl os
Ġ ice
Ġtr ue
Ġsu it
Ġwrit ten
ĠB al
ĠInd ian
g en
is l
ĠD uring
Ġcent ral
C h
Ġf ine
Ġdeath s
ĠR os
Ġhop es
er ve
Ġsc hed
ĠA rab
ub e
Ġget s
Ġrespons ible
ruct ion
Ġens ure
e z
Ġhe avy
Ġl ose
Ġinclud es
ĠG ar
Ġfour th
Ġcarry ing
Ġhe ro
Ġstra ight
Ġphot ograp
Ġra ise
ĠRep orter
uck y
ard en
Ġe at
Ġthrough out
r am
ĠV ir
Ġcomplete ly
n or
ĠA sh
Ġfav our
c ial
ĠA uthor
ĠS ur
Ġmiss ion
i ate
Ġn uclear
w oman
ack ed
Ġmob ile
Ġwa it
as ts
Ġ3 5
ress ion
ist ic
Ġsuppor ters
ĠIslam ic
Ġmin ute
ĠM any
Ġnum bers
ĠS ar
ĠJust ice
ĠCr own
Ġask ing
Ġty p
j ected
Ġh y
e ed
ĠH all
Ġre ached
B I
v ent
Ġcent er
Ġf re
Ġstru ck
Ġf an
F or
Ġits elf
it t
Ġcl osed
Ġass oci
ud get
Ġdo z
Ġwa iting
Ġsever e
Ġhold ing
ĠSyri an
r ick
rop ri
Ġeduc ation
Ġdocum ents
Ġf ired
om en
ĠC amp
ĠT al
Ġrep eated
Ġap olog
Ġtrans fer
ĠD o
Ġdro pped
Ġcompet ition
1 2
ĠC ons
Ġest ab
Ġmill ions
Ġbod ies
ĠO f
ct ion
Ġa id
ra p
cl us
Ġg ang
Ġrepor ters
Ġ9 0
Ġmot or
as c
Ġinc red
b l
ag ing
Ġmess ages
ĠIt al
ĠAt l
es ters
d ney
Ġv ac
ĠHar ry
Ġra in
Ġin n
Ġst ab
Ġp aper
z a
ĠAt t
Ġpop ulation
Ġdec ades
ĠUn ion
ĠF A
Ġse a
Ġact ions
Ġref orm
ra ine
Ġconcer ned
cel ona
Ġs ale
Ġwalk ing
Wh at
Ġhist or
ust r
Ġproduc ts
Ġown ers
az ing
Ġsl ow
Ġd ream
Ġsuggest ed
Ġfeel ing
go ing
h ib
Ġag re
ĠFor mer
âĢ Ŀ
Ġr oll
Ġ3 2
Ġnorm al
Ġbl ock
Ġquar ter
Ġinfl u
ip le
Ġ7 0
Ġbenef its
Ġjust ice
Ġen for
Ġsw im
Ġen vironment
Ġcer em
em ents
el ly
Ġsuccess ful
r im
Ġbl ue
ĠThe se
un ch
Ġappro ach
? '
Ġcol lect
Ġold er
Ġdocum ent
b it
ĠS un
Ġpl aced
Ġplan ned
Ġocc as
h aps
ang u
ild ren
Ġplan ning
Ġs ales
ĠS uper
Ġeas y
Ġap artment
Ġsu icide
Ġd ark
Ġstar s
ain e
Ġwor st
ĠL a
h a
ĠSy dney
Ġpret ty
ĠM er
Ġsh ut
Ġpri or
Ġm ach
Ġhelp ing
Ġw el
ĠFranc is
Ġdog s
Ġsp orts
ĠS oc
Ġbro ken
Ġorig inal
Ġhig hest
ect or
Ġmajor ity
ĠJ on
Ġp ull
Ġc op
use um
ic ations
Ġtal ks
Ġcomput er
ĠD et
stit ute
mon th
ĠG reat
Ġoppos ition
Ġo w
Ġappear ance
ĠPe ople
m ates
ber t
Ġmy self
Ġteam s
i est
w ide
ĠG od
ĠSer vice
Ġb al
Ġis land
w in
Ġdou ble
ĠEar th
Ġpos itive
g ree
Ġmass ive
Ġop in
pp ing
ĠS n
Ġm ount
f l
Ġpresident ial
Ġcapt ured
On line
ĠW atch
Ġg reen
Ġwh om
Ġalong side
A t
1 00
se qu
Ġc old
ĠH um
Ġbec oming
j ects
Ġd oll
ĠM ag
Ġb reat
ĠJ im
Ġd om
Ġs ong
ic les
Ġcomp ared
ĠBar ack
ar ian
Ġcont ain
Ġsp l
Ġl ay
and al
olog ical
ĠE b
ĠIn ter
ar ks
Ġwin ner
Ġdef ense
Ġl ower
ĠSec urity
ĠO ld
Ġ200 5
br idge
ĠBar celona
res h
uct ion
Ġnatur al
Ġcol lection
Ġdevelop ment
Ġsh ared
Ġsp ir
ĠVir gin
Ġa irl
Ġille gal
Ġreg ard
iel der
Ġrecord s
ĠGen eral
erv ative
ĠB ur
er o
c ks
6 0
Ġve ter
Ġwatch ing
Ġm ale
app ed
ĠN et
ĠG ood
ap ed
ĠJ udge
ĠD en
ĠF irst
Ġfeat ures
ĠPart y
Ġclaim ing
ID EO
b orn
Ġf reed
Ġgr ad
b our
Ġfil ed
1 9
Ġf ix
ĠV IDEO
ic ed
Ġdeb ate
Ġd ie
Ġfl ag
Ġcust ody
ĠMid dle
Ġ8 0
Ġpl aces
Ġdef eat
m ond
Ġrestaur ant
Ġchamp ion
N A
Ġcoun ter
m ail
F A
ĠE ven
ad or
A n
f ielder
ĠF BI
Ġcontin ues
Ġmain tain
h ab
ĠRepublic ans
ĠSte ve
an ia
Ġ und
Ġlear n
ĠComm ission
ud d
Ġw ays
ĠItal ian
ĠB ush
ke ep
Ġins isted
Ġto urn
Ġr ow
Ġstart ing
ul ed
ĠM et
Ġneighb or
Ġmag azine
Ġwor d
ĠL ew
Ġreve al
Ġ4 5
Ġre asons
ĠO l
ĠU nder
Ġpr im
Ġra pe
Ġdep artment
ri e
Ġsm art
E W
ur ance
an ks
y ond
Ġad op
ĠP ost
Ġcertain ly
Ġseem ed
Ġn ecess
ang ing
ren g
ĠAl though
Ġar med
Ġn ames
Ġaw are
Ġrul ed
Ġde vice
c an
y m
ed s
Ġstri ke
ir ing
Ġbeaut iful
ĠM os
âĢĻ ,
u pp
Ġchair man
Ġbe ach
Ġrece ive
ĠD is
Ġd ig
Ġst yle
an while
Ġp sych
Ġcomm itted
ĠGeor g
Ġpartic ip
Ġintern et
ĠE U
ĠMail Online
Ġaff ected
ĠâĢ ľ
ĠChar les
Ġteen ager
est ic
ĠAr gent
ĠHol ly
Ġl osing
ra ge
he w
Ġput ting
Ġdev ast
ĠOlymp ic
u f
ĠG old
n el
Ġar ch
Ġle ague
Ġsign s
ĠSpan ish
Ġvers ion
ĠW at
v al
aed a
v ille
2 00
Ġinvestig ators
Ġsomet imes
ĠJ ul
Ġprov ided
k a
ĠN ick
Ġvill age
Ġpro gress
or row
f ess
Ġbe g
ĠW in
Ġg ay
Ġ3 3
ĠFr ank
ĠH el
Ġ ult
Ġpat ient
ant ic
Ġmod ern
Ġmin or
ĠR yan
Ġwalk ed
ĠUk raine
Ġsp ark
ĠD ar
Ġk it
Ġcent ury
ĠMur ray
ĠCh ief
ĠG re
Ġfac ing
Ġst un
ĠP ress
p ts
ĠAssoci ation
Ġbehav i
Ġspot ted
Ġexp ressed
Ġp roud
Ġcaus ing
Ġprofess ional
us ing
Ġorig in
Ġrun s
res p
. ,
el ess
a it
ĠRom ney
Ġestim ated
Ġresp ect
Ġd rop
Ġb rief
ĠA ri
Ġpiec e
ĠF am
Ġsusp ended
is er
Ġexpl ained
ĠB oth
h ouse
Ġb and
Ġlink ed
Ġc overed
Ġbel ow
Ġm ental
ig an
Ġcon vers
Ġatt ended
Ġshe l
Ġcitiz ens
ĠT ay
Ġspec ific
or ial
Ġgl ass
Ġclear ly
Ġm ix
Ġs em
Ġpregn ant
on n
Ġleg isl
ĠT im
Ġeff ective
ĠWe b
k ins
Ġcom fort
im um
Ġse at
ĠO s
Ġscient ists
ĠB re
ost on
Ġtraff ic
ĠMe anwhile
Ġint elligence
Ġmid fielder
an i
c hen
Ġhealth y
Ġcho ice
Ġthink ing
Ġwind ow
Ġab ility
ĠTod ay
ĠPal ace
Ġview s
Ġc ry
Ġcolle ge
sh ip
our ney
ĠChrist ian
Ġabs olute
Ġg iant
? "
Ġitem s
ot ed
Ġon es
Ġb udget
ĠR iver
ĠK ar
ĠS ince
Ġsusp ic
Ġus ually
a e
ĠM ass
Ġpr ices
Ġapparent ly
cast le
ĠR ec
ann el
Ġvis ited
Ġex erc
d o
ill ing
ĠG ra
Ġdest roy
are t
c y
Ġple aded
Ġbo at
1 4
Ġc orn
ĠV e
Ġoccur red
Ġimmigr ation
Ġann ual
Ġindivid ual
Ġun s
Ġbirth day
ut ch
ĠCh urch
Ġ200 4
ĠGr and
Ġar ms
ok ing
Ġsurve y
ĠF in
E R
m et
ĠD el
Ġcond uct
Ġto ugh
ĠH ot
Ġcerem ony
is ions
ang ers
Ġstand ing
Ġst reng
ĠG a
Ġban ned
Ġstr ate
Ġf ly
i qu
ĠEb ola
Ġreal ity
ĠR ad
Ġknow s
Ġact or
im ately
ĠS om
Ġimp ro
Ġad vert
Ġprot esters
he red
ul a
Ġres earchers
at ures
Ġhand ed
ar ily
Ġincre ased
c ious
Ġex ist
Ġch ampions
Ġso ft
Ġoper ations
Ġe ating
Ġresc ue
ĠSpe aking
um e
ian ce
Ġl angu
Ġrec omm
ĠB ob
Ġb i
k ed
er ved
Ġyoun ger
Ġcl in
g ar
Ġdec ade
ĠThe n
ĠB oston
Ġviol ent
b oard
Ġim ag
Ġs ick
Ġb ath
Ġl ic
ĠD u
Ġful ly
Ġp ounds
d uce
Ġattem pted
am pton
Ġal ive
Ġb ail
ed er
Ġc ast
n o
Ġpart ies
Ġpract ice
z z
oin ted
ĠR onald
Ġbe yond
ĠW al
Ġh arm
Ġemploy ees
igh ter
Ġpre m
Ġcr imes
Ġres ign
ropri ate
ĠK n
Ġvot ers
ph one
A l
Ġsusp ected
Ġmove ment
ĠE ver
Ġb ird
Ġspokes woman
Ġfl at
Ġp ool
ĠJo e
in ho
b ury
Ġwat ched
al a
Ġconf l
ĠIs land
ĠM ac
end s
Ġansw er
ar ies
ĠS il
ĠC om
ĠH en
Ġsit ting
Ġinvestig ating
Ġpolit ic
Ġgrow th
Ġex ch
Ġconcer n
Ġextreme ly
Ġwond er
Ġexper t
us es
Ġfe ed
Ġs ad
ĠI r
ĠH oll
om atic
Ġtrad itional
Ġw ood
Ġrad io
Ġbehavi our
Ġlear ned
Ġat h
Ġinit ially
ĠK ate
Ġhop ing
Ġf lying
led ge
ĠK ent
Ġdevelop ed
ĠDemocr atic
ap t
ant ly
Ġr ing
ĠB ir
Ġrespons ibility
ĠT y
er m
ac ts
Ġt ests
Ġbegin ning
ce an
4 5
kn own
Ġh urt
Ġreg ime
ĠD own
ĠDemocr ats
Ġob v
Ġv ia
Ġtourn ament
l ife
ow ing
Ġl ux
a ire
Ġsoc iety
Ġconfl ict
Ġremain ed
Ġun iversity
Ġte xt
Ġdef in
re land
ĠOp en
Ġsc en
ĠI I
Ġrul ing
Ġp urch
e in
ent ially
c ing
Ġunder st
Ġmur d
ad s
ĠL iber
ĠNew castle
ĠBro ok
ord an
iz ing
Ġboy friend
Ġfra ud
Ġw all
Ġfind ing
Ġmiss ed
Ġpro ced
Ġc ities
ĠTay lor
ous ly
Ġj ourney
ĠJ ersey
Ġterror ist
al ys
Ġf resh
re ct
Ġ ic
Ġconf ident
Ġdrink ing
Ġdr am
ĠiP h
Ġcoun ts
Ġneg ot
ĠSt ar
Ġfav or
it tee
a ith
ĠBr ad
Ġty pe
Ġbl og
i us
ack ing
' :
ow ed
ĠCol le
Ġphys ical
Ġqu ality
Ġpower ful
enn is
Ġdism iss
Ġdiv or
ay ers
ĠI reland
w here
ĠD i
ok ed
Ġth row
Ġam azing
Ġshort ly
Ġval ue
Ġexact ly
Ġvo ice
g ra
Ġto m
1 6
1 3
1 7
Ġcult ure
ĠC ost
Ġprot ests
Ġpick ed
Ġdiagn osed
en a
Ġg ives
ag ues
if th
Ġs ort
oun g
ou red
ĠM ike
Ġro y
z er
Ġn eck
Ġfor t
ic ate
Ġsing er
ĠC ont
ĠWil son
Ġdoub t
Ġs an
Ġsepar ate
Ġagre ement
ĠKore an
u als
Ġprosecut ors
ĠB ig
Ġthreat ened
Ġseek ing
ew here
Ġsell ing
Ġ ign
Ġc ab
A meric
Ġwor se
Ġgu ard
Ġp ath
Ġfar m
ĠW all
Ġcontrovers ial
ĠC ast
it ting
Ġmeas ures
ĠM ost
ĠP ut
Ġ3 4
Ġwork er
m ate
Ġprop os
ot a
Ġrequ ired
ĠCh ic
ĠSh ar
ook ing
ĠP enn
Ġphotograp her
ĠG roup
Ġlo an
O ur
ĠQ aeda
Ġtweet ed
Ġsecond s
se y
Ġapp l
Ġspe aking
ĠD un
ac ing
ath an
lic op
un te
Ġadd ition
Ġr id
Ġbott om
Ġ3 6
Ġcirc um
ged y
ĠMo ham
Ġcomple x
ĠCo ast
igh ted
Ġf al
it ude
Ġhe licop
th ony
ĠTr ans
ĠH ome
Ġmet h
Ġexpl ain
1 8
ro g
Ġb om
Ġn orthern
an ch
Ġsc andal
ay ne
Ġdom estic
ian a
Ġest ate
Ġdeterm ined
Ġf uel
ru it
ell ow
Ġsc r
ĠTh ree
ĠStep hen
Ġser ving
Ġc atch
ess ed
Ġbel ong
Ġbed room
Ġcommit tee
Ġap art
Ġmean ing
ri er
m ore
Ġpil ot
Ġsit es
ov ic
il ton
ĠR am
ĠSt ud
Ġleg s
oc ks
ĠThe ir
Ġfin ished
Ġprep ared
ĠVictor ia
el a
ĠP et
ĠB ank
Ġvisit ors
Ġser ve
Ġcomm ission
Ġkid n
Ġhe av
N o
l aw
Ġmult iple
ĠK at
um ent
ĠPro fess
Ġan aly
Ġg ar
Ġe ld
Ġs ound
Ġprogram me
Ġsub ject
ul ated
Ġfac ed
ol es
is ation
ph y
ib an
ues ts
Ġenfor cement
Ġwe alth
r un
Ġt ack
Ġact ress
Ġun like
g ers
Ġd aily
ĠSar ah
Ġd istrict
ĠIsrael i
Ġb att
eng th
ell a
ic an
ann y
Ġp up
in als
ĠD istrict
Ġclot hes
O ne
! '
ĠComm ittee
ĠGeorg ia
ive ly
g a
ĠH aw
Ġhigh ly
Ġup d
ĠT ony
ĠG ames
Ġactiv ity
ect ions
Ġe ast
Ġdefend er
ict ions
Ġdram atic
Ġha ven
are z
id s
Ġveh icles
Ġunder w
Ġcut s
us hing
r ist
w are
ĠCarol ina
Ġp urs
Ġl ines
Ġrequ ire
rib le
le ment
b ur
ĠW estern
st ances
up reme
ent y
om es
ou ts
ĠS l
Ġup on
ĠJ er
Ġgu y
Ġill ness
ĠP re
ĠJ ew
ĠE ll
ec ause
ĠChic ago
Ġf est
Ġdes per
Ġart ist
ĠGa al
ĠAn thony
Ġs outhern
ĠJ ordan
ĠL uc
Ġam id
Ġus es
ĠY ear
Ġvar ious
Ġst ories
Ġsched uled
Ġh un
Ġapp lic
H is
ĠS us
ĠP ri
Ġp ra
b urg
ĠAn n
Ġp itch
O P
r ig
Ġst ands
Ġexp ensive
Ġg arden
A ll
Ġcom mer
Ġorgan ization
vest ig
as ted
Ġyou th
Ġto ward
ol ic
Ġ200 3
Ġchem ical
Ġcred it
Ġthan ks
Ġbook s
ĠHolly wood
it ation
ĠW el
Ġfear s
enc ing
Ġpay ing
ĠGu ard
em an
Ġoff ers
Ġsim ple
Ġmat ches
Ġequ ip
Ġn ature
ev in
ol s
Ġrecord ed
Ġsour ces
ĠTal iban
Ġ3 7
r ison
ĠPro secut
Ġnot e
Ġr ule
ĠT or
Ġvide os
Ġloc ation
ĠK h
b illion
Ġw est
Ġpart ners
Ġr ates
om a
ĠF ire
Ġpl ant
Ġser iously
Ġrec overy
ĠCar l
Ġper haps
anc ed
Ġs ides
ly n
Ġass aul
Ġsc oring
Ġrem ove
enc ies
Ġkeep ing
r ont
im ent
Ġmater ial
Ġad vice
Ġins urance
w est
g us
otten ham
d den
ĠN ic
ĠF rom
our ces
Ġsp ect
Ġar my
ov a
olog ist
ĠiPh one
or ted
ug g
ĠT ory
ĠVirgin ia
Ġrec over
and ed
Ġra p
Ġbo ost
Ġcrit ical
Ġtru ck
ĠIntern et
ĠCan ada
Ġwar m
ĠJ ess
Ġun it
ĠColle ge
Ġb ot
ĠE ric
Ġrepeated ly
ĠI m
.. ..
Ġequip ment
m other
Ġd iet
Ġfin ish
Ġroy al
Ġcandid ate
Ġrel ative
Ġfal se
ĠSim on
Ġdiffer ence
ĠS ky
Ġdel ay
Ġb atter
ony m
Ġtr ade
Ġrespond ed
ĠA c
Ġindepend ent
Ġesc ape
Ġbenef it
Ġconf idence
Ġpr ime
Ġun us
Ġsurf ace
ip e
Ġsu dden
ĠJ enn
Ġshop ping
ul ate
ĠRo ad
Ġleaders hip
i ar
kn ow
ĠO ver
Ġf ish
Ġab and
ĠM ess
Ġco ff
ick ing
Ġfe ature
Ġdri vers
P e
Ġm ans
Ġtrou ble
Ġc ool
ĠF ox
Ġsh ocked
Ġachie ve
Ġinqu ir
l ers
Ġdef ence
Ġart icle
Ġrelig ious
Ġr ub
Ġvol unte
p ir
ĠJe ff
d d
ĠAir port
in er
em b
Ġto w
i en
I A
Ġst uff
ite ly
ol en
ĠAnd y
app ing
ĠSp orts
ific ation
Ġsc he
Ġset ting
Ġfun eral
Ġdi pl
ĠD ie
uf act
Ġabsolute ly
Ġper m
ĠB eck
ĠLew is
9 9
Ġst ood
Ġup set
ĠEar lier
ĠCam bridge
Ġag ent
ĠN iger
ĠPal est
Ġdecl ined
ĠM em
Ġproduc ed
Ġpro ve
b on
Ġfail ure
ĠS qu
Ġn urs
ĠO h
Ġear th
Ġt ree
anc ing
Ġconn ection
Ġcon stit
A f
ĠDe v
ĠB oy
ĠCent ral
Ġbre ast
ĠB o
Ġstep s
ĠMP s
c ri
ĠCl ub
ĠB or
Ġlaws uit
Ġstru ct
Ġwin ter
Ġob tain
b o
ĠFore ign
own ed
Ġclub s
g as
ĠO x
ĠK evin
8 0
Ġp ush
ih ad
ĠAuthor ities
Ġprom ot
Ġf ifth
ĠMic hel
Ġlangu age
O R
in cess
ĠT re
Ġcelebr ate
Ġk ne
ĠT er
e en
b ing
ach ing
Ġcolle agues
S o
Ġhas n
em en
ĠMc D
c ow
Ġw ish
k in
ri al
in ated
ĠMar ia
Ġsec retary
Ġtarget ed
Ġst ret
Ġphotograph s
Ġdecl ared
ĠN ations
Ġacc ounts
ĠC EO
Ġst ress
Ġattr act
Ġmeas ure
Ġang ry
Ġdin ner
f it
u a
re c
ĠT ottenham
Ġus er
ul ance
Ġwhe el
ĠProfess or
Ġh ur
O N
l ig
re p
ĠKen ned
ĠS av
Ġ201 5
Ġlawy ers
ĠY oung
ce pted
Ġac know
Ġimp ress
gus on
ens ions
Ġstat us
Ġstrugg ling
Ġgra b
is her
Ġe th
T ube
v is
Ġp en
le ts
Ġtell s
Ġtre nd
Ġur ged
Ġrel ated
bre ak
ĠChampions hip
pt oms
ming ham
Ġaff ord
Ġcontr oll
Ġemot ional
Ġcont est
Ġproduct ion
Ġwor ried
ĠSt r
m akers
ĠHoll and
Ġshot s
Ġun p
N ew
Ġent ered
Ġelect ric
it als
Ġpolit ics
ĠAtt orney
P ol
az a
C A
Ġsurpr ise
Ġwith d
Ġg uests
ov es
E very
Ġ200 1
ĠH ug
augh ters
M r
Ġdirect ly
ĠTur key
Ġare n
Ġsuff er
Ġover se
ian o
f ile
ĠM ont
ĠF oot
in ing
Ġoff ering
Ġfl ights
as hes
Ġim pl
Ġallow ing
Ġsign ing
al ition
Ġw ake
Ġset tle
Ġb le
ĠK elly
ĠKenned y
Ġred uce
Ġret urning
Ġs we
um n
Ġ ir
Ġde vices
Ġvir us
Ġaud ience
Ġlux ury
Ġsupp osed
Ġpass enger
Ġmilit ants
ĠE very
ĠYou Tube
ĠM our
all ing
Ġun ique
Ġinsp ired
ĠJ ose
Ġn ice
ut ions
Ġfl ed
ĠC ur
Ġmom ents
ĠB u
H ow
ĠBir mingham
Ġ4 2
ore s
Ġtrans port
ĠO ut
il ly
ul ations
Ġc as
ĠRe g
Ġconfir m
Ġtra gedy
ĠB a
it an
ĠAb d
ĠFer guson
Ġcom ed
am ing
Ġm ention
Ġcritic ism
Ġelect ions
on er
Ġwill ing
z ona
ay er
Ġag ree
Ġ3 8
B S
ĠS upreme
ic it
Ġd uty
ile y
Ġfall ing
Ġman ufact
Ġquestion ed
ĠR og
ĠFam ily
ul f
d om
t r
Ġsec ure
Ġhor se
Ġ5 00
Ġconc lud
Ġpro ceed
ap ers
uc he
Ġwrit ing
Ġcont ent
Â £
Ġassist ant
ĠZ eal
Ġl og
Ġad ults
Ġ3 00
Ġc art
Ġcomple ted
Ġfl u
ven ue
ĠAd am
v a
Ġg ain
ĠSte ven
Ġex cept
ĠBe ach
Ã ©
v ention
Ġs ending
ĠH ere
ĠL ind
keep er
Ġs and
Ġlim it
Ġd er
ick en
f oot
ri fic
ĠRober ts
ant age
ĠF ord
The se
Ġinvol ve
Ġtemper atures
ate ver
ĠCon n
Ġm um
Ġg rew
ĠA gency
ĠL ong
Ġreg ister
r ant
ĠTh ose
ĠF ound
Ġst olen
Ġbuild ings
ĠPut in
Ġbr ight
m es
Ġ200 2
ĠB ow
Ġadd itional
Ġ4 8
Ġfr ustr
Ġcond em
Ġaff ect
ĠL at
ĠM ir
ĠF ollow
id el
Ġgreat er
Ġback ground
Ġintro duced
f ire
ct ions
Ġl ength
ĠIn vestig
Ġinvol ving
ab les
l ong
ab eth
ĠSouth ampton
Ġrece iving
Ġfavour ite
Ġpl ot
Ġsk y
Ġthan k
Ġcr ack
Ġf aith
ch ing
Ġhe at
Ġdec ide
Ġmach ine
Ġa uction
ot ic
is a
com ing
Ġsusp ects
ĠScott ish
ĠRo oney
Ġs ession
Ġbeaut y
Ġfre qu
ĠMor gan
Ġdeb ut
Ġinn oc
u ated
Ġc y
Ġd aughters
Ġw ounded
ĠA h
Ġprot ection
Ġow ned
ĠD ou
ĠS a
ĠC orn
er ous
Ġfeel s
Ġstand ards
rupt ion
ĠPr ot
Ġnecess ary
Ġcamer as
3 5
ĠZeal and
os es
Ġthreat s
ĠPalest in
Ġb urn
Ġwor ry
b ro
Ġcorn er
ter y
Ġrel atives
uche ss
ĠM ount
Ġweap on
Ġb ow
Ġindivid uals
e ared
Ġdeb t
ĠN avy
ĠJapan ese
Ġsur ge
ĠAri zona
az i
Ġincred ible
Ġl augh
Ġ ess
ĠW alk
Ġt on
Ġt urning
ĠR ay
Ġsugg ests
ĠC ath
Ġdead ly
Ġret ired
Ġfreed om
or ado
ĠMill er
Ġt iny
Ġcircum stances
i pl
ĠB ol
ĠT our
2 2
ĠE s
ĠEl iz
Ġqu iet
Ġag ents
Ġw ore
Ġsurv ived
Ġsold ier
k es
Ġkn ife
Ġopp on
Ġs ust
Ġenjoy ed
st ar
Ġbring ing
Ġbe ar
ĠC ub
Ġf ant
Ġtr uth
qu ar
ivers ary
Ġre action
ĠG OP
ĠBe fore
ĠC ard
ĠJ am
Ġpr inc
Ġaff air
Ġnot ed
Ġneighbor hood
ul ner
ak en
Ġg ather
Ġd ad
ĠN EW
ĠC omp
ĠA g
ĠFor ce
Ġunus ual
Ġsym ptoms
in n
ĠW ell
Ġkit chen
Ġ #
Ġregular ly
Ġh at
ĠY orks
ĠD NA
oc al
Ġso le
ĠMed ical
F L
Ġlim ited
Ġcl ash
Ġd rove
c ient
ĠE r
Ġle aves
Ġbusiness es
az e
Ġqu alif
ĠK ong
ĠS ing
iam i
Ġm igr
b el
Ġsystem s
w ar
Ġd ressed
Ġag gress
ĠH ay
Ġd ating
Ġeff ects
Ġf ighters
Ġpur p
on ic
ĠArgent ina
ĠMatt hew
Ġ rival
ĠD irect
Ġactiv ities
Ġdestroy ed
Ġp ushed
k er
it z
Ġdam aged
ĠSt adium
Ġdet ect
Ġd ed
Ġres ul
ĠMour inho
ĠOlymp ics
l a
Ġcommer cial
Ġr ank
i at
Ġbeat en
Ġcr ashed
Ġneighb our
arr ass
b oy
Ġke en
Ġsa ved
Ġ4 3
Ġret ail
ĠAl an
Ġhold s
Ġinflu ence
Ġt ight
Ġfail ing
Ġspl it
Ġprov iding
et te
ro ad
ĠDie go
Ġexerc ise
ur se
ĠS ol
g l
ĠCh ildren
ĠL o
ell i
re ll
Ġallow s
Ġact ive
ĠIn stitute
ĠL ake
Ġ2 000
ĠMin istry
Ġinc ome
ĠCost a
b a
Ġorigin ally
ĠG P
Ġdisapp ear
Ġmon it
Pe ople
ĠD am
l v
it tle
ain t
Ġac qu
Ġm outh
ib and
Ġbr ut
ag ers
Ġr ide
Ġnegot i
ĠM un
ĠO sc
ĠDav is
ick ets
et ts
Ġenter tain
Ġh am
ĠYorks hire
Ġspok en
Ġpolic ies
Ġann iversary
Pol ice
af e
Ġpres ence
ĠF our
Ġhous es
ĠH art
Ġs ight
yc le
ĠÂ »
el le
ill ance
Ġche st
S ome
Ġlar ger
Ġbrother s
Ġstore s
Ġsurround ing
Ġmay be
i os
I C
ad emy
Ġgover nor
P R
Ġeld er
Ġprim ary
w orks
as ters
ter ed
app y
ĠG al
Ġmem ory
ĠC oll
Ġincreasing ly
w ich
ĠBel g
ad er
Ġep is
Ġbab ies
ĠD uchess
Ġread ing
Ġm ort
Ġg at
Ġcomplain t
Ġsupp l
ĠCol orado
Ġcaus es
id den
Ġdep art
ĠG ary
ĠHum an
Ġsl ight
Ġtrib ute
Ġj et
Ġem ail
Ġfund ing
uc ted
ag h
Ġ3 9
Ġspec ies
Ġarg ued
ass y
ann a
Ġsh ape
Ġcoll aps
Ġmanag ement
ĠM iami
Ġ4 4
Ġfac ility
ĠInst ead
Ġcons ult
Ġ199 0
u ana
ĠA v
ĠM a
Ġph ones
os ure
Ġ urg
le cted
Ġs ons
ĠH ong
Ġpro duce
Ġexp ress
iv ity
Ġdesign er
7 0
ĠMil iband
ĠEver ton
ĠF I
Ġb in
Ġs ear
ove l
Ġext rem
le g
Ġannoun cement
Ġgun s
ag ram
Ġunderst ood
iz z
h our
Ġad ult
Ġmod els
Ġbig ger
Ġmay or
ĠCent re
Ġinterest ed
ur d
Ġfor g
Ġv ess
Ġrem ind
t own
Ġsub st
bour ne
ĠRonald o
Ġver d
Ġr ushed
p erson
ĠN orthern
ĠEliz abeth
Ġhelicop ter
Ġcl imate
f ather
ĠS aud
Ġun ve
Ġpar liament
Ġde ploy
er a
Ġd omin
ĠB urn
Ġv ulner
Ġal tern
ock ing
I N
h att
Ġexperi enced
Ġed itor
ĠA BC
Ġra il
in et
Ġsh irt
Ġm ic
Ġprofess or
ĠEv ans
T o
Ġs ought
ij uana
Ġan alys
ach us
h alf
Ġcol our
im mer
ĠD ub
Ġath let
Ġfat al
st ers
Ġcont acted
Ġdis aster
osp itals
Ġstreng th
w orth
ch ar
ĠAb b
b an
ve y
Ġdeterm ine
Ġh al
Ġdoz ens
Ġex hib
Ġinst it
ut ation
Ġbe ating
ĠC al
Ġwitness es
Ġpl ays
p art
m ad
and ez
Ġpiec es
Ġknow ledge
Ġcreat ing
S h
Ġac cepted
w ise
ĠIn c
Ġact ing
ust ed
ĠSu arez
Ġo ption
Ġplan et
ĠH or
Ġestab lish
Ġst one
Ġg olf
Ġl ands
Ġfeat ured
Ġlegisl ation
achus etts
ĠD utch
ab or
ĠAl i
Ġpl at
Ġbus y
Ġspark ed
ĠHot el
Ġs om
ĠAr t
Ġrec overed
Ġbl ame
Ġadv antage
ad en
ic ient
Ġstrugg le
Ġeas ily
ograph y
ĠOh io
Ġ19 5
if er
Ġpl astic
Ġst adium
ak s
Ġpan el
ri p
ĠI v
re ck
ĠAtl anta
st ate
Ġsk ills
ay ing
Ġsm oke
Ġr ising
it er
p et
Ġm ir
Ġt ort
Ġb oot
E A
ĠPar liament
Ġkill er
ĠP ac
Ġ4 6
ĠPort ug
Ġsche me
Ġattem pts
Ġhapp ens
ĠTr ust
Ġl ucky
riv als
Ġeas tern
ĠH od
Ġlik es
Ġhous ing
Ġon going
Ġb ond
Ġpro ved
Ġinit ial
Ġident ity
Ġmy ster
Ġun ion
u ate
n i
st s
ij ing
Ġ @
Ġpot entially
Ġvis iting
Ġn ations
Ġprosecut or
Ġprosecut ion
Ġchang ing
Ġref uge
end ers
Ġc oc
Ġinqu est
Ġre jected
Ġinquir y
Ġsc ience
Ġbre aking
Ġb ars
ist ol
Ġpun ish
et ic
Ġ201 6
oc ol
ĠRes earch
Ġri ver
Americ an
Ġev ac
Ġdep uty
Ġident ify
ĠSn ow
Ġl ying
Ġint ended
Ġdem ocr
Ġt ast
Ġsex ually
ĠWh y
em ploy
Ġhead s
Ġloc ated
ĠN A
Ġgener ation
Ġex clus
ron ic
os is
ask et
Ġb are
Ġdec isions
Ġrem ark
r ad
Ġcommun ities
Ġfil med
Ġunlike ly
Ġme at
ep h
i as
ĠDef ense
Ġtem por
b ell
Ġspir it
ĠT en
Ġk il
Ġf allen
Ġlet ters
m osp
Ġprop osed
Ġ5 5
ĠMass achusetts
Ġwe ak
ĠP an
ĠCo le
Ġsc ream
pp er
ĠIraq i
ĠMil an
Ġl iber
ra h
Ġposs ibility
ĠHam ilton
Ġprov ince
ĠC ru
op p
stand ing
Ġlear ning
o om
Ġt um
ĠO k
Ġv ast
ĠAn t
U n
Ġleg end
ĠSw ed
Ġob ject
Ġoccas ion
Ġconvers ation
ĠB ern
Ġhapp ening
Ġf illed
ĠAnd erson
Ġe gg
Ġstrugg led
Ġjournal ist
ist or
Ġper man
hatt an
Ġdoll ars
Ġre act
ĠF eder
Ġr um
is f
Ġperform ed
ro at
ĠMc G
ĠBr idge
Ġtravel ling
Ġgat hered
Ġamb ulance
Ġcor rect
ol k
ĠHar ris
ter ling
Ġpl ed
Ġcomplain ts
ĠFound ation
Ġteacher s
Ġfind ings
Ġmist ake
ipp ing
ĠC ross
oss ible
Ġt icket
Ġhistor ic
Ġal b
Ġw ine
Ġc up
es c
Ġaff il
ĠMan hattan
Ġrout e
Ġstand ard
Ġc ook
ĠM and
Ġbehav ior
Ġdeliver ed
Ġcond ucted
ump ed
Ġt ears
Ġjournal ists
Ġv ice
Ġwe igh
ĠU s
ĠComm un
Ġclos er
Ġrem ote
Ġmurd ered
Ġr ough
Ġdevelop ing
I s
ĠSt aff
Ġass ess
ob ody
an o
ĠSaud i
Ġreb els
Ġ4 1
Ġinc hes
ow ell
Ġtax p
e xt
Ġfl o
Ġp al
Ġimmedi ate
Ġrob ber
ĠB oe
Ġfil ms
Ġenc oun
Ġemb arrass
ĠI an
Ġpublic ly
ortun ately
Ġf ought
Ġst eal
Ġde gree
us ion
Ġequ al
Ġ ut
ĠV illa
ec e
3 00
Ġcho ose
bor ne
Af ter
Ġfund s
ĠMichel le
Ġinvest ment
ĠBar b
Ġtrans form
Ġopin ion
Ġsurpr ised
ĠC ab
Ġear ned
ĠFrancis co
im p
ĠMos cow
Ġb urg
Ġnot ice
Ġacknow led
Ġland ing
Ġcandid ates
ĠC ook
ĠAll en
Ġnot iced
rel ated
Ġfoc used
Ġbl amed
Ġincident s
we ight
ĠRe ad
Ġcons ervative
ĠHen ry
h i
Ġmost ly
ĠD er
er en
Ġorgan iz
Ġcell s
el ine
Ġstay ed
Ġ4 7
Ġcover age
ing ly
ĠT w
Ġdivor ce
ĠMay or
ĠL ady
Ġview ers
Ġemploy ee
Ġcelebr ates
Ġchallen ges
Ġrel ax
Ġsmall er
Ġroom s
Ġl ights
Ġb ull
Ġcomp ens
Ġtest ing
Ġac ts
min ute
k o
Ġ198 0
Ġprom ised
ĠSe a
Ġcor por
Ġn ar
ĠH un
c ont
oun ced
Ġopt ions
Ġexch ange
ĠJ ay
Ġcl ient
ĠB us
Ġs orry
Ġsem i
Ġairl ine
Ġsurve illance
Ġtour ists
Ġbroad cast
Ġtom orrow
ĠL anc
Ġres ort
Ġtra gic
Ġpass ing
str ong
Ġjoin t
Ġmeth od
Ġpain ting
Ġwide ly
Ġpres ented
aw ay
Ġparen t
Ġch ances
em e
A r
ĠA irl
ĠBe ijing
ĠF ab
it a
ĠN BC
ĠSqu are
Ġres ources
ĠMess i
Ġpro sp
Ġbl ow
Ġcompl ained
Ġhelp s
L e
s ec
Ġl unch
Ġmus c
ĠT own
as tern
Ġte le
ff ord
Ġn urse
Ġgrand mother
ĠLib ya
st al
Ġro of
ĠF ort
ag ement
ĠR ock
ĠInst agram
Ġdefin itely
op her
Ġt all
ĠLe ices
i ated
Ġse ats
Ġconsid ering
at al
ĠPr incess
Ġpre fer
Ġstay ing
Ġover all
ord on
Ġthr own
I P
Ġadv oc
Ġpolitic ians
ust er
Ġm agn
Ġverd ict
ĠL ar
Ġfire f
el and
if orm
Ġmar ijuana
Ġst ick
Ġland ed
ens es
Ġch ain
ĠAs ia
ĠN FL
Ġlarge ly
Ġpre c
ĠPh ill
Ġcon sequ
Ġcomm and
est yle
W ith
Ġsl am
ĠMar c
Ġbur ied
Ġbas is
Ġst uck
ass ador
Ġw al
Ġperson nel
Ġoper ating
ĠU t
ĠR a
Ġmet al
ree k
Ġbu ying
Ġt im
Ġhouse hold
Ġs up
Ġgreat est
ĠFoot ball
ĠY et
ĠJ ac
Ġposs ession
ĠT s
Ġstab bed
ĠAb u
ĠK ir
Ġpass ion
Ġcelebr ity
Ġrout ine
Ġinvestig ate
Ġp orn
Ġdri ven
Ġmount ain
B A
Ġclot hing
ĠC ra
Ġveter an
Ġt ask
Ġtre es
Ġc ards
ĠB rian
Ġsqu are
Ġst ock
ĠAlex ander
Ġv en
Ġ0 8
Ġhop ed
ĠL y
2 4
Ġoff ences
Ġh ole
Ġ4 9
Ġdismiss ed
Ġ6 5
ĠR ights
oun ted
j ust
Ġbath room
Ġwr ite
ĠCo oper
Ġnum erous
ĠS her
ate g
ĠH amp
Ġret ire
ĠL am
en ch
og ue
Ġsh ar
Ġag encies
Ġposs ibly
Ġwat ers
st one
ĠL au
Ġter rit
Ġhead ing
ut s
Ġm ax
Ġactiv ists
ĠS terling
ĠW ayne
ans as
we ek
Ġhead ed
Ġcomb at
est y
Ġcons ist
Ġrest r
is hes
Ġpriv acy
ag on
Ġdra g
ĠMex ican
Ġconst ruction
iam ond
th a
Ġd ance
Ġ15 0
Ġremain ing
Ġtra ined
Ġheav ily
i able
ack s
Ġat mosp
Ġm useum
Ġvulner able
Ġadd s
ĠMar s
ĠCh annel
ĠFI FA
N ow
Ġcivil ians
Ġn or
ol i
Ġdist rib
ir ts
e ing
Ġ( Â£
ĠDu ke
Ġgr own
Ġocc up
bur gh
ĠOn ce
ab led
Ġprof ile
Ġcal m
ĠI ll
Ġpr in
Ġsuppor ted
ĠT op
ĠVal ley
ĠS ant
Ġ19 4
ĠOsc ar
ĠAm ong
Ġed ge
Ġw eren
Ġcrit ics
p oint
ar re
ĠH ou
Ġs ection
ri a
Ġinf ection
Ġhum ans
rif ied
ĠC are
ug by
st ein
Ġan onym
ĠL as
Ġdisapp eared
sy lv
Ġwel come
h y
ĠW omen
H er
ĠC C
Ġalb um
R A
Ġacc us
ĠR oss
ign ed
ĠS ix
Ġcapt ure
Ġrepl aced
Ġse ized
ell or
Ġe ur
Ġsa v
Ġsh oes
ĠShe riff
Ġauthor ity
Ġvot ed
ĠB uck
ear ing
Ġproper ly
Ġk iss
in ct
Ġaband oned
ost er
Ġteen age
ash ing
sylv ania
Ġ7 5
ĠPat rick
ist ics
Ġhon or
Ġwh atever
str on
Ġg ym
Ġsupp ly
Ġban ks
Ġswim ming
Ġdis order
ĠOn ly
st yle
in ent
ar ch
Ġtest ed
Ġt ennis
og an
ĠGra ham
ĠU p
R ep
Ġroad s
ĠCharl ie
Ġqu al
m ph
Ġem pt
ĠIran ian
ĠL et
as y
Ġpark ing
hen s
Ġterror ism
Ġwin s
ul ous
Ġy ellow
Ġstrate gy
ad ian
Ġacc omp
ĠJ ane
Ġcl imb
ĠV er
Ġt end
em ic
Ġneg ative
ĠJos h
ren ce
Ġ rom
Ġh all
ĠB ul
Ġback ed
Ġtarget s
Ġre vel
Ġch ose
Ġstun ning
Ġp ension
Ġobv iously
l an
ag ger
Ġdist ance
Ġscen es
Ġrem arks
ĠW ork
ĠSom al
Ġfound er
Ġworld wide
Ġdo ors
Ġsc ale
Ġt ie
Ġh ospitals
ic ip
Ġyour self
Ġbag s
y r
re es
s ewhere
Ġbelie f
mark et
rom e
Ġn ovel
ac he
ĠPenn sylvania
ĠB et
Ġgu ys
ĠSt an
Ġc oin
Ġm ap
l ook
p orts
Ġj ack
Ġelder ly
Ġpup ils
Ġun iform
Ġstud ies
w hel
Ġr ich
Ġse es
Ġexc ited
Ġint ent
elf are
Ġaward ed
Ġdet ail
ĠL ike
Ġins ists
Ġlot s
ĠM ax
ĠMal ays
Ġan ger
ĠAirl ines
urb an
Ġn om
ĠJos eph
Ġte a
Ġra ising
Ġpoin ted
Ġcontrovers y
Ġrep utation
Ġsp ring
Ġtalk ed
ac le
ĠJ ason
ĠSw an
Ġb ills
Ġcollaps ed
Ġprison ers
Ġarri ve
Ġplat form
ĠIr ish
Ġtra um
ĠSh ow
af i
Ġtra il
Ġgr anted
ĠM useum
ĠLe on
f ast
Ġprogram s
ĠK erry
ĠF ern
Ġbot tle
ĠU N
ĠP ublic
ĠVe gas
Ġn one
Ġth inks
ÂłÂłÂłÂł ÂłÂłÂłÂł
Ġst om
Ġadm its
ĠDo ct
Ġexp osed
Ġterror ists
Ġimpress ive
ĠQue ens
l ines
Ġtrad ition
Ġreve als
ĠWat son
Ġv irt
ĠR ick
Ġt un
Ġis ol
ĠJ r
Ġbr idge
erv ation
cent re
Ġmed al
** **
Ġr at
Ġmot iv
Ġlit er
Ġ197 0
ok es
Ġmem orial
ĠM u
Ġ5 2
Ġappro ved
Ġfriend ly
ĠTur k
Ġgoal keeper
all as
ar ant
y e
Ġcour ts
ĠCol omb
Ġn ose
pl ace
Ġl ady
il a
Ġrefer red
aw n
Ġeas ier
ĠRom an
Ġcan c
S P
Ġground s
ĠK han
Ġcritic ised
ĠWh o
ĠCr ime
ĠR el
Ġre duced
Ġz one
Ġdesper ate
Ġkne e
Ġg all
ĠT erry
Ġout break
Ġfle w
f all
Ġmed ic
Ġstrik es
um ber
Ġthe rap
ĠL aur
ĠM en
Ġt act
Ġsurv ive
ĠUS A
ĠB ru
Ġ4 00
Ġsym b
Ġcoff ee
Ġassoci ated
ĠMel bourne
Ġevery body
Ġinter ests
Ġsu bs
r um
Ġl isted
Ġd ry
Ġsil ver
Ġl ie
Ġpl enty
Ġconv iction
w all
ad ow
h and
Ġapp oint
ĠJ ournal
Ġset s
ĠEd ward
er ves
Ġthough ts
quar ters
Ġste pped
Ġh ate
Ġins ist
Ġdoz en
2 1
Ġthreat ening
Ġreal ised
ob s
Ġarg ument
ir a
Ġj ur
Ġstom ach
ĠJon athan
Ġoff ensive
ĠG reg
Ġmic ro
Ġsupport ing
os en
Ġwind s
ĠOx ford
Ġestab lished
Ġimp ossible
Ġab road
ue z
ou ri
Ġdra wn
ĠAb out
ĠAnd re
ib r
Ġexplos ion
Ġl ocked
ĠM it
ĠW enger
Ġar rival
ĠMuslim s
ĠHou ston
Ġas p
Ġfe ared
Ġdirect ion
Ġesc aped
c are
el son
Ġstr ing
i ot
Ġtrou b
ĠN ev
ĠChrist opher
2 7
Ġnot es
Ġdeep ly
Ġ rivals
ĠAr m
Ġsurv iv
4 00
A R
Ġt ied
ĠLu is
ie v
Ġres ol
2 3
Ġstar ts
Ġp in
9 0
as er
old s
anc ellor
Ġstat ements
ĠF ederal
Ġris ks
g un
t a
Ġappro ached
ĠL ife
b rit
l ah
ed ing
ac ity
Ġprom pted
ĠAsh ley
Ġcomfort able
ĠB est
ĠAssoci ated
Ġdisc ipl
h ar
ĠCC TV
Ġt ickets
ĠSp ace
ĠInd ones
Ġsome body
ord inary
ĠG un
ĠLeices ter
Ġcon gress
Ġdisc overy
b ec
Ġco alition
am in
Ġele cted
Ġcou ples
cent r
ig aret
Ġcontin uing
Ġpregn ancy
Ġt or
iz es
Ġhigh l
Ġcustom er
Ġcoc aine
Ġsc re
ĠW ild
r ich
ish op
Ġto ile
Ġun less
Ġfollow ers
ag an
c alled
Ġsan ctions
ord s
Ġdisc over
Ġw id
Ġatmosp here
Ġwas te
ra pped
ĠSc ient
ĠHer n
ĠC op
ĠRod gers
Ġconclud ed
Ġlead s
ĠChrist ie
Ġvac c
Ġwonder ful
brit ies
Ġun employ
Ġopin ions
Ġrel ief
Ġclose ly
ĠS anta
ĠSt and
Ġmother s
ĠT ele
ĠG aza
ĠB ell
Ġbal ance
Ġintern al
ĠMich igan
ĠBay ern
ĠAn ton
ask a
I V
Ġunc lear
under land
ĠM at
Ġapp ropriate
3 7
Ġm er
Ġm ent
Ġtru ly
Ġf ake
Ġproced ure
ĠTe am
pir acy
ĠT est
ĠPhil ipp
Ġcut ting
ĠOr gan
Ġconsum ers
Ġappear ances
Ġsol ution
Ġth rew
Ġsat ell
Ġtack le
b u
Ġ199 9
Ġimmigr ants
ĠJenn ifer
em ble
Ġrock et
ap se
Ġprov ides
omp son
Ġencoura ge
anc er
az z
ĠRob inson
Ġout rage
he ast
Ġrepl ace
ĠG ulf
ĠCan adian
Ġm oon
Ġtest ified
ort ion
ann ah
Ġcle ared
Ġover t
Ġfollow s
ĠL ittle
Ġun known
aren ts
Ġj ew
Ġter rible
ĠSec ond
Ġsoft ware
w ater
Ġjump ed
! "
ather ine
ĠÂłĠÂł ĠÂłĠÂł
ĠCra ig
âĢ ī
d y
ĠMo ore
ĠM od
ord ers
Ġc a
p an
ĠLe v
ĠL ove
ĠF red
Ġv ital
Ġple a
Ġw ound
Ġfor get
Ġde ter
ĠEm ma
Ġscore s
Ġd u
Ġst ro
ĠG ov
Ġperm ission
Ġs weet
Ġsat isf
Ġw ave
ĠM ot
ĠH ull
Ġc raz
ĠG all
ro c
ĠO ur
Ġden ies
de gree
ĠCath olic
Ġf ro
Ġhar ass
im al
ĠN as
Ġrepl ied
it ors
ir ates
ĠSt ill
Ġadop t
oy al
Ġpropos al
Ġco oper
ut ies
Ġjoin ing
2 6
Ġhit ting
C l
Ġh idden
Ġaim ed
ĠG ordon
Ġc ock
Ġcon centr
Ġepis ode
er ted
Ġra id
Ġsuspic ion
ĠW ind
Ġan cient
Ġattack ing
Ġbas ic
ĠC IA
Ġbl ind
Ġbad ly
ĠZ immer
Ġprep aring
ad el
Ġdefend ant
ĠY emen
Ġover whel
ĠWalk er
Ġint e
Ġer up
or al
Ġdet ained
Ġl ung
Ġsp ons
Ġdisc rim
Ġknow ing
g ment
Ġsearch ing
Ġhe ight
ir ation
Ġnew ly
2 8
Ġinv ited
ĠEs sex
ro s
Ġmar ry
Ġinvestig ated
ĠHug hes
Ġ0 9
Ġem br
ĠF al
4 7
Ġdr unk
Ġlif estyle
M A
Ġl aid
Ġhad n
au g
Ġmov es
Ġdevast ated
ac hel
ĠPakistan i
Ġp ose
Ġdeal ing
if ying
C C
Ġref ere
Ġp osed
ac re
ĠG h
ĠCamp bell
ĠB ang
Ġpl us
Ġtal ent
che ll
ĠBr other
Ġmin imum
ĠSp ec
Ġres ist
Ġdel iber
Ġdisc l
n ic
ĠEx per
Ġf itness
al ing
Ġeng aged
Ġprep are
Ġlab or
Ġar r
Ġb asket
Ġn ative
Ġrec alled
ĠK o
Ġri f
re al
z en
Ġp ed
Ġbeh alf
Ġsudden ly
ĠJam ie
Ġinvolve ment
Ġslight ly
Ġsurround ed
Ġw reck
Ġd ub
it ary
Ġd ying
Ġempt y
ĠS ud
ĠLe eds
Ġw elfare
ĠF il
Ġab used
Ġshock ing
ill iant
Ġrev olution
ĠF riend
Ġrap id
Ġp ushing
Ġw estern
ĠUk rain
Ġcompens ation
n am
at o
man n
Ġbec omes
ĠS underland
ĠS ever
Ġdis s
Ġtest im
ĠAl so
Ġexpl ains
it arian
ĠTh ompson
ĠS um
ĠM ah
ĠB ack
ĠS af
stit ution
ĠDirect or
ra g
Ġdocument ary
ĠRad io
ĠL and
Ġmar ks
ecut ive
ĠJess ica
ĠP ope
Ġl ies
Ġf inger
n amed
ĠGre ece
Ġimag ine
Ġref lect
ĠAr ch
Ġb ound
g irl
Ġp ock
Ġmin isters
ĠK l
ĠGl ob
ĠHamp shire
Ġkn ocked
A F
ĠR io
Ġassist ance
Ġenjoy ing
c rib
or ous
Ġshould n
ĠPalestin ian
ĠJew ish
Ġb ike
Ġpat tern
Ġ0 7
ĠHern andez
Ġc ateg
ĠTra fford
am m
ĠAs ked
ra id
or ious
ĠSp ort
Ġunderstand ing
d on
AT O
ĠNiger ia
Ġjud ges
Ġra ped
Ġdig ital
Ġset t
ĠW ater
Ġt we
Ġt orn
it o
Ġarri ving
Ġfavor ite
iz arre
Ġro se
Ġfac ilities
Ġinst ruct
t wo
Ġme al
Ġdisp ute
em a
Ġ5 4
Ġturn s
ĠPhil ip
ĠP M
Ġcompet e
Ġresc ued
Ġaltern ative
Ġvot es
Ġkick ed
ath on
Ġsole ly
ĠR ose
im a
Ġinnoc ent
ĠS erv
Ġrecomm end
ĠMar g
ĠD anny
ĠOffic ials
ĠW right
Ġ5 3
Ġdescrib es
Ġcan n
Ġre in
Ġex cess
ĠRod rig
p read
ac ters
ĠI ts
Ġrepor ter
Ġdef ending
Ġc ode
Ġan x
Ġto uc
Ġhor rific
Ġord ers
Ġbeg ins
ĠN ich
ph ic
ĠP erry
Ġent h
ĠJ en
Ġhon est
Ġnorm ally
ess ions
Ġult imately
is ers
Ġsub sequ
Ġt att
ĠQ at
Ġh ide
Ġp owers
Ġoverse as
Ġsc ared
led on
Ġ5 1
Ġ0 6
Ġobtain ed
Ġdisappear ance
Ġapp rec
ĠTurk ish
ĠT ime
Ġsp ell
ĠB ecause
m outh
az on
imb ledon
Ġsleep ing
Ġcons piracy
Ġcl im
l s
ides pread
Ġnar row
Ġcor ruption
ĠO per
Ġdr inks
Ġwe b
ĠPe ters
ĠSwan sea
Ġrad ical
ĠS k
Ġj ihad
f ree
m aker
ĠRe v
ob by
ĠB ry
ol as
Ġgu arant
ĠWe ek
c ia
Ġch a
Ġbl ast
Ġch osen
Ġrac ing
Ġbomb ing
ĠFollow ing
ĠAbb ott
Ġ199 8
Ġ ing
Ġdr ama
ex p
istr ates
ĠH ear
ran ged
Ġlif t
Ġd ire
ĠCle gg
ick ed
Ġsm ile
Ġsm oking
ĠAs ian
Ġcon ce
Ġa stron
2 9
Ġadop ted
cl ass
Ġthe ft
Ġfor med
ĠCl ark
ut ional
ĠF el
Ġchar acters
ĠSe e
Ġrelative ly
Ġunve iled
Ġt ur
Ġw alls
ĠH old
Ġwithd raw
ĠG et
Ġo cean
Ġtra pped
ĠSu pp
od es
Ġmat ters
k ing
om pl
Ġic onic
Ġplan es
Ġv ent
Ġsol ar
Ġch at
aren ess
e qu
L L
lah oma
Ġburg l
ĠSt ew
ĠBr istol
Ġanalys is
ĠG ib
Ġmet res
Ġsw itch
Ġcele brities
E S
ĠMiss ouri
ĠComm ons
id ers
ĠJe an
ĠD allas
Ġte eth
ĠSoc iety
Ġw aves
Ġwrit es
Ġw ounds
Ġfant astic
ĠBrazil ian
Ġide as
Ġfest ival
y ard
Ġpost ing
Ġdec or
Ġentire ly
ĠR ub
Ġdescrib e
ic ious
um ed
Ġint ense
p ut
Ġpurp ose
ĠP ers
Ġded icated
t ic
Ġfir ms
ĠW imbledon
Ġshould er
Ġt ies
Ġsh ares
Ġpay ments
Ġtax es
ĠZimmer man
ĠD ave
Ġfe e
Ġreport ing
ĠS orry
r ard
ĠN ATO
over ty
Ġve get
Ġpresent er
ing ham
Ġm al
Ġbreat h
ĠAc ademy
iver se
Ġb ench
ocol ate
t ra
ĠLaur a
Ġsh ops
ĠI d
Ġmax imum
Ġdemand ed
b ar
i very
other ap
Ġspecial ist
ĠT urn
e or
Ġv ision
ĠL yn
Ġg ift
us ive
ĠV ill
ĠHill ary
Ġconn ected
Ġproper ties
Ġn aked
D A
Ġtot ally
Ġwind ows
3 6
if ts
- -
Ġinform ed
Ġaccept ing
Ġr ally
ĠR h
ell er
Ġt ank
ir ty
es h
Ġst ream
Ġp ink
Ġclass ic
Ġrac ist
Ġsix th
3 8
Ġ5 6
Ġdef ended
ĠH ard
Ġd rew
ry stal
Ġconsequ ences
Ġf ruit
ĠIn sp
Ġr ural
Ġlist en
Ġp it
Ġt ear
ĠB as
Ġperman ent
ol n
ĠJim my
Ġattempt ing
ĠAtl antic
ĠSoc ial
Ġm os
or a
Ġent it
Ġ( $
oot h
Ġarrest s
Ġcommit ment
ĠBl air
ar on
ĠOk lahoma
Ġimp lement
ĠConn ect
Ġdep ression
Ġg ap
Ġpri ze
ĠS ub
Ġstruct ure
ech an
iec e
Ġpro jects
ĠB ond
Ġpo ison
ĠC elt
ĠB all
ep ing
Ġst ated
ĠPh ot
ol itan
ul s
g io
Ġchild hood
and o
Ġtestim ony
Ġp ig
Ġmark ed
Ġtravel led
ard o
ph ia
Ġarch it
r idge
Ġapp ly
Ġopportun ities
b ut
av al
h ow
ĠServ ices
ĠEgypt ian
ĠJust in
olog ists
l ow
Ġhand le
ino is
Ġl over
Ġany where
idel ines
Ġsh ift
O W
ĠP ot
Ġo d
ĠH y
on na
Ġoff ence
ĠNe il
Ġinterest ing
ĠF air
Ġbatter y
ĠK er
Ġextra ordinary
ĠSt oke
it able
ay a
Ġcru cial
Ġqu it
Ġext ended
Ġcap able
Ġ9 11
Ġmil k
Ġfew er
adel phia
ĠUkrain ian
sh ot
Ġaffil iate
ĠCons ervative
m itted
ĠH unt
Ġatt ending
Ġg e
Ġincred ibly
Ġton ight
Ġear n
d ie
ĠWh it
Ġdemand ing
ĠRob in
ĠTrans port
ĠOffic ers
ab y
Ġrobber y
Ġadv ance
ren e
Ġbr illiant
Ġprom ise
ĠBro ad
Ġcas ual
ĠE ach
min ster
Ġw idespread
Ġprom ote
Ġover night
ĠHod g
ĠAn na
ĠAd min
ĠEd wards
Ġer a
ĠMun ich
Ġsc an
ĠL A
ine z
ĠMoham med
Ġbom bs
E x
ĠM other
m ers
ĠB ull
ĠPol it
Ġchampions hip
ĠAm azon
ĠO cean
ret t
Ġexp and
ĠY esterday
Ġb es
Ġs ector
ĠA re
Ġaf raid
3 9
Ġj oy
Ġbird s
ĠB ra
ĠTh ough
Ġbul let
Ġm ile
ĠAn y
ĠEd in
ch air
Ġm aster
m o
ic ut
E N
p ers
ĠMar sh
Ġother wise
ĠCard iff
ĠP en
Ġj oke
Ġbrut al
id en
ĠB rom
d ad
Ġtemper ature
ĠStew art
Ġche ap
w ick
6 00
Ġk ing
Ġmans ion
Ġf ile
d ef
Ġstr ict
Ġre ward
Ġdem ands
Ġaggress ive
Ġbe er
ĠGer rard
ĠCol umb
Ġm isc
Ġy ards
Ġsh aring
or ough
Ġint ention
ĠL aden
Ġclin ic
S p
Ġc ous
inc oln
Ġj u
Ġt aught
Ġfe es
Ġcomp ar
ath y
Ġap ology
ĠG irl
duc ing
Ġcomment ary
ĠOs borne
Ġsc ar
Ġear ning
ĠCar ter
Ġh ired
Ġre un
Ġche f
w en
in ced
ĠM ajor
Ġkill ings
ĠSe an
Ġofficial ly
ĠProsecut ors
Ġput s
ĠComm on
ĠSt one
Ġcont ained
ĠMar ine
ĠDav ies
Ġdevast ating
Ġacc ompl
ĠMit chell
Ġprof ession
ĠL t
Ġh its
Ġpat rol
ro id
ĠWood s
ver se
ĠCr ist
Ġteen agers
ĠNA SA
Ġr u
ĠP ass
Ġenth us
ĠF re
duct ion
Ġprior ity
in ating
Ġent r
ic ial
Ġh ors
Ġf ill
oy d
ĠPac ific
por ted
Ġj e
Ġpost s
Ġathlet es
B l
Ġinterview ed
ĠRodrig uez
ĠS wit
Ġfamil iar
ĠN ad
ol ly
ĠDep uty
Ġcolle cted
ĠPhil adelphia
Ġs isters
ĠL isa
Ġl inks
Ġloc ations
Ġcon clus
Ġwrit er
ĠDis ney
ced es
ĠBru ce
g ow
âĢ ¦
Ġdis pl
le te
Ġind ic
d r
ĠS outhern
ĠA le
ide o
in ch
Ġsup erv
het ic
ĠIll inois
ĠJer emy
Ġte x
Ġearth qu
Ġplan ts
Ġg ained
Ġs its
Ġadmin istr
ot te
Ġche cks
ĠAl ab
Ġexpl o
Ġren t
ĠGl as
Ġcap s
Ġaw areness
Ġrestaur ants
ĠCh ancellor
c ol
ĠW he
Ġsk i
ĠBrook lyn
ĠRuss ell
Ġf ighter
Ġde als
Ġvar iety
A ss
ĠF ood
Ġple ased
Ġfl owers
ĠCl ar
ĠiP ad
Ġv ig
Ġcl ients
7 5
ĠJ ud
N e
Ġreach ing
Ġpunish ment
u ine
ene z
Ġh ang
Ġple as
Ġend ing
Ġb urned
Ġl a
Ġsu gar
atter ed
Ġupd ated
ore n
ĠG ill
Ġsu c
ĠSand y
Ġdisapp ointed
Ġlab el
resp ond
Ġ199 7
rif ying
ĠR oll
Ġhead quarters
Ġexecut ion
** *
Ġperform ing
Ġvess el
Ġmov ies
Ġacknowled ged
p ass
ĠE duc
so ft
Ġf ault
et ime
ĠConnect icut
ĠLu ke
Ġinte gr
Ġtrans pl
Ġtri es
d og
b ox
Ġm ine
ĠAm anda
Ġ0 5
Ġadv ent
ĠMed ic
ĠR angers
Ġw ard
Ġgu ide
Ġamb assador
Ġab oard
bre aking
Ġsuc ceed
3 2
Ġprom pt
Ġcry ing
b urn
Ġt ip
ĠP ower
Ġdub bed
Ġl oves
Ġgood s
in ate
ĠA ff
as ion
iss ions
l ad
Ġgra ve
Ġpet ition
an es
ĠP ear
ac o
Ġst em
Ġimpro ved
ĠL incoln
Ġcelebr ated
t ar
Ġl ock
Ġspokes person
ate ful
Ġfeat uring
ĠC os
Ġgovernment s
Ġfound ed
Ġc igaret
8 00
Ġcomm ander
ĠHe ath
d ale
Ġto ll
Ġen orm
Ġ196 0
Ġp apers
Ġcount y
Ġreg ional
Ġsp r
Ġend s
Ġ5 7
ĠHaw ai
ĠH om
Ġdr one
w ith
z ing
ĠSe attle
Ġsol id
ot elli
Ġf el
Ġt ail
c ar
Ġcamp us
g rees
ĠG ab
Ġem p
Ġaut omatic
ĠG il
Ġcan cel
Ġmult i
Ġre hab
Ġpos es
ow a
omm od
el er
ĠN Y
Ġwar rant
Ġcontroll ed
ĠAlab ama
c ons
ĠN ig
Ġtyp es
Ġyoung est
w an
Ġoccas ions
Ġpack ed
otherap y
es us
Ġsum mit
Ġs ac
ĠBelg ium
t es
ĠH u
ĠAd ams
Ġb on
Ġb ik
Ġindepend ence
ĠMart inez
Ġtast e
aw are
Ġterrit ory
Ġapplic ation
f e
ĠP ent
w rit
Ġinit i
Ġdel ivery
ĠRog er
Ġha bit
Ġext ensive
zer land
Ġfact or
Ġacc ur
ĠMcD onald
Ġtempor ary
Ġregard ing
Ġf ier
enn y
Ġel sewhere
Ġexperi ences
Ġtrack s
Ġregister ed
Ġcap acity
Ġdel ighted
ric ane
Ġpos itions
Ġh ug
ĠL ane
ĠMcC ain
Ġattr acted
Ġl oud
act ive
it age
Ġpack age
Ġappl ied
Ġsuppl ies
Ġcommun ications
Ġtour ist
m ade
E n
Ġrequ ires
Ġgr ass
u art
Ġeffective ly
Ġvis its
Ġb izarre
end um
Ġdes ire
Ġbreat hing
Ġpra ised
ik h
ĠDemocr at
Ġtravel ing
ĠA ston
Ġs ke
ĠDe b
4 9
Ġshe riff
ĠSt ev
Ġcivil ian
y o
Ġb at
j a
erv atives
ĠUt ah
ĠE nd
ight on
ĠFer r
Ġexc iting
Ġneighb ours
Ġenvironment al
ĠHodg son
ac ular
ĠL l
ĠG ard
ĠCelt ic
Ġappro val
Ġconv inced
tle t
5 5
cer tain
ĠWest minster
Ġsettle ment
ĠPortug al
w w
Ġexclus ive
Ġde grees
ĠEn ter
Ġfact ory
ĠR em
Ġsurpr ising
ĠW ard
ac ement
ĠL ocal
Ġclass es
ĠGlas gow
Ġc os
lo aded
Ġtyp ically
u ous
b ie
ĠH a
d is
u ay
Ġn ut
Ġbur ning
ĠSus an
Ġcondem ned
Ġus ual
ail and
N ot
Ġgener ally
Ġl oyal
et her
ĠIn t
Ġrec ording
Ġaff airs
L A
ow ered
ĠBr and
Ġreb el
Ġl ad
ĠSwit zerland
Ġpred ict
ĠH ills
in ations
ĠSever al
Ġmark ets
br is
ad h
Ġform al
ĠF ive
Ġrelationship s
ac c
Ġstrong er
Ġp overty
Ġscream ing
ĠâĢ ¢
Ġcrim inals
v ant
Ġh iding
Ġmeet ings
Ġgrand father
ĠMar io
ĠC BS
Ġinf ected
Ġtit les
T wo
Ġcl osing
Ġh anging
c ase
id ays
ĠDun can
Ġsatell ite
Ġr ugby
ĠLe g
Ġrepres ents
Ġren ew
Ġfir ing
Ġw ing
Ġh ung
Ġveter ans
ĠDoct ors
Ġgu ards
Ġstr ange
Ġte aching
Ġwel com
3 3
Ġcr icket
Ġden y
Ġ5 8
ĠB oard
ĠI b
D C
l ings
Ġencoura ged
Ġal ert
Ġt ape
Ġp ace
ĠLe ban
Ġb one
nd rome
Ġth in
ĠH ur
Ġwor n
f inal
Ġbasket ball
ĠD j
Ġkeep s
ĠBal otelli
Wh ile
Ġcon ver
ĠHow ard
Ġhom eless
Ġm ut
Ġg reet
ĠCorn wall
Ġcont em
Ġstud io
Ġsent encing
Ġcomb ined
Ġcar bon
Ġacc ommod
Ġfil ming
Ġval ues
Ġbare ly
am i
Ġem ails
Ġsuccess fully
Ġme als
Ġs ounds
Ġc ited
ĠMc K
yc ling
Ġoppon ents
Ġgun man
Ġcelebr ating
ĠMic ro
ff ield
v in
Ġany body
Ġorgan isation
M ar
Ġ6 4
od ed
Ġsuggest ing
Ġgu est
Ġman age
onn ell
Ġsear ched
d a
Ġexist ing
ĠC all
ab et
Ġm echan
T A
ĠD ur
Ġcon cept
ĠR ow
Ġch ocolate
P ro
ĠSnow den
os h
ĠG riff
Ġdetect ives
Ġcol or
ĠAn ne
ĠTh ailand
ĠM oy
Ġac ted
Ġav o
ĠCub a
Ġbur st
ĠH ait
ĠV iet
Ġfun ny
ĠPl ay
Ġdet ailed
Ġresul ted
ur er
â Ĥ
Ġin app
ĠL ow
i ac
os ition
Ġrefer endum
Ġflood ing
am ber
Ġcre am
gra v
Ġatt ached
agh dad
Ġs ter
Ġm and
w as
ĠH IV
Ġtax i
Ġg ender
Ġfiref ighters
ĠInvestig ators
Ġhon our
Ġwin ners
ĠSec ret
ĠO K
Ġtoile t
s m
Ġconf ront
Ġc ul
Ġold est
Ġart ists
ĠAm y
Ġassaul ted
Ġdipl omatic
Ġte ens
Ġinterview s
ĠBl oom
B e
Ġpred icted
âĤ ¬
ic ts
Ġsm ugg
Ġn omin
D o
Ġlands c
av ed
Ġproduc er
ĠB ook
bor ough
Ġgrab bed
Ġorganiz ations
ol ph
ĠBe at
Ġcolle ague
ĠEdin burgh
Ġreform s
ĠDub ai
d in
ch o
Ġinvestig ations
Ġadvert ising
Ġthere fore
Ġbl ank
Ġmed ication
Ġa er
Ġshar p
Ġaccus ations
ink ing
Ġent ering
em ed
ter ing
Ġbr own
o is
Ġadv ised
s ung
Ġcont ains
ĠHe ad
Ġaccomp an
Ġslow ly
Ġmix ed
Ġvolunte ers
Ġl iqu
ĠI owa
ch ildren
ĠGar cia
Ġn ick
Ġgen uine
Ġopp osed
Ġvot ing
2 50
ect ing
Ġv owed
he im
J ust
ĠH M
Ġst ations
Ġ6 7
ĠNot ting
Ġcheck ed
Ġr iding
Ġord eal
Ġwal ks
ap es
Ġbr anch
Ġfind s
Ġn obody
pro file
Ġproced ures
ĠL i
ult ure
ĠSp ring
iat ric
ĠQ PR
Ġout come
Ġcontain ing
Ġd ict
Ġcontr ast
Ġpro be
Ġmem ories
g t
Ġtrans l
Ġfund ra
Ġmon itor
ĠA ut
Ġeth nic
Ġbl ocked
ĠBre nd
Ġne ither
Ġst able
Ġres olution
Ġapp s
tlet ico
r ast
Ġem ph
Ġsh out
re hens
ĠEduc ation
ar ms
ĠShe ffield
ear ly
ct ic
Ġth ick
ugh t
Ġhard er
w a
ĠSud an
Ġarchit ect
ĠEx p
Ġcoll apse
ĠBeck ham
Ġ199 6
ĠDer by
3 4
un ior
Ġcop y
Ġwealth y
Ġobv ious
ĠSt uart
le ep
ĠP y
ĠC at
Ġst ages
Ġg ro
Ġimport ance
st ri
ĠC as
c ott
Ġinn ov
Ġst ole
Ġspeak s
Ġs ib
Ġbr ings
Ġr ig
anche z
Ġrec on
Ġun ivers
ĠColl ins
re ts
ĠAdmin istration
igh th
Ġoppos ite
w ing
he m
Ġthe ory
ĠR on
um es
ĠA C
Ġille g
Ġnegoti ations
Ġind icated
ĠKen ya
Ġrefer ring
Ġg est
Ġrelig ion
Ġl av
ĠCh ap
Ġapp ointed
Ġcross ing
ust ing
ĠL ive
Ġmater ials
Ġsuspic ious
Ġelectric ity
ĠT rib
ĠEm b
ell o
Ġown s
Ġsk ull
Ġpers u
Ġfun ction
ĠH o
. -
ist le
ro it
ĠS oph
Ġ199 4
ĠCh ile
Ġrequ ests
Ġwa ited
Ġtro phy
Ġf aster
Ġall ies
Ġspec ulation
Ġsy mp
Ġsport ing
Ġl uck
ĠTre as
ĠOffic er
? âĢĻ
c aster
Ġexpect ing
Ġcru ise
se ason
Ġansw ers
ĠSw iss
. )
Ġsh ips
Ġtrip s
Ġoffic es
ĠArab ia
Ġrefere e
Ġh unt
Ġarg ue
Ġimp ressed
lo ad
Ġvis ible
Ġt ag
ĠSpec ial
Ġele ph
r as
ĠR ome
Ġwitness ed
ĠA aron
Ġh ack
Ġannoun ce
How ever
Ġn erv
end ent
Ġcrew s
t ure
Ġcru el
Ġcelebr ation
ĠFriend s
Ġboss es
un ction
ĠT am
Ġsh ark
Ġman ner
Ġent ry
ĠC rystal
ir o
Ġac ad
Ġremark able
ĠF ree
ĠKat ie
Ġadm it
ra it
ure au
Ġp ump
ĠN ap
Ġdiscuss ed
Ġrac ial
Ġcur ren
ĠMor ris
Ġentit led
on z
Ġestim ates
Ġaw ards
Ġcover ing
I l
Ġw ire
ĠB an
Ġcomed y
Ġconf ron
Ġb ru
ĠB os
Ġde bris
Ġlaw makers
Ġthrow ing
ar med
ipp i
ess ing
Ġpr on
Ass ad
be at
Ġbra ve
ber ry
ĠAuthor ity
Ġr amp
Ġb acter
ĠSam sung
Ġcompet itive
o ir
Ġag es
ax y
Ġgl am
ch i
ĠMc L
Ġt ent
ĠC y
om y
ĠR af
ik i
cri pt
Ġfact ors
t t
Ġcrow ds
Ġtransfer red
Ġs ch
ĠS anchez
Ġactiv ist
ĠH end
Ġpurch ase
Ġmonit oring
Ġlif ted
ĠB on
ĠA T
ĠRe id
ĠCast ro
Ġsust ained
Ġpre par
ĠMary land
Ġm ask
ĠT ou
Ġdis abled
Ġdipl om
ĠT ar
ĠT es
Ġappear ing
ĠDef ence
u ations
ĠMer cedes
Ġbeg un
ra f
ĠSh aw
ĠK ey
Ġpeace ful
Ġmot ion
Ġthe at
ĠArm strong
ot y
ival ent
ĠA z
r act
Ġmigr ants
d ed
Ġhot els
p es
Ġrec ru
Ġr aces
ĠN elson
Ġhand ling
Ġshel ter
Ġsp in
in ter
ĠE mer
Ġf ab
Ġo x
Ġ6 2
Ġstrong ly
ruct ure
Ġs am
ĠJu an
Ġprot ected
O S
and y
Ġpartners hip
Ġfac ts
Ġmyster y
Ġhors es
Ġresign ed
ĠBarb ara
Ġ6 6
Ġf ishing
re te
Ġnet works
ĠScient ists
ĠG reek
Ġse lect
ĠBl ue
Ġaw a
ĠRes earchers
Ġch icken
ab e
ĠWel sh
ĠAm b
ĠFl ight
Ġtechn ical
um ph
Ġer ror
Ġcomput ers
ter ror
ĠL es
ĠF orm
Ġcal c
ĠMarg aret
Ġcult ural
il st
ĠWar ren
Ġ5 9
upp er
ph ones
it is
Ġfl ames
x imately
Ġun its
end a
Ġstud ying
ĠCommission er
ĠBus iness
Ġcraz y
Ġhost s
Ġtherap y
Ġam ounts
Ġinsp iration
Ġrepres ented
O b
ill er
Ġrece ption
reg on
Ġsong s
a is
Ġob jects
us al
ĠSt ation
Ġ0 4
Ġaccompan ied
Ġc ope
Ġf asc
Ġreg ulations
Ġcoun sel
Ġdist urb
ĠI TV
Ġexc ell
Ġf ame
ut ing
ĠHel en
ĠPhill ips
Ġfr act
4 4
Ġmarket ing
Ġenorm ous
ild ing
ĠA y
Ġcitiz en
Ġcomp rom
at i
ig a
Ġindust rial
ĠR ice
Ġloc als
Ġdraw ing
Ġple ase
Ġattorney s
Ġnurs es
ĠMand ela
Ġto dd
or se
ĠE st
ĠK ay
Ġtr ick
Ġretire ment
w ife
Ġch annel
A C
ĠA tletico
Ġp ill
Ġtw ins
Ġconst antly
ĠP C
ĠB ad
l ist
ĠF ur
h ill
Ġ2 50
Ġrepresent ing
ĠP le
Ġtown s
ĠS gt
Ġas ide
Ġass ass
Ġess ential
Ġsens itive
ab s
Ġext ent
Ġwarning s
ĠHam as
s er
ic i
ĠGr ant
ĠDet roit
Ġfor ms
g age
Ġins urg
Ġachie ved
Ġshe d
ull ah
Ġbre ach
Ġ199 5
ĠBer lin
Ġto x
Ġtravel ed
o ons
ĠA gu
Ġsm ashed
Ġperson ally
Ġstrik ing
ĠInd epend
ĠN ov
ĠClar ke
ĠR achel
Ġreg ul
ĠCab inet
ĠCharl otte
Ġgar age
ĠB art
Ġsteal ing
Ġb ones
le e
Ġtouc hed
Ġmedic ine
ĠMicro soft
f ront
ĠF und
Ġtwe ets
ay ed
Ġdelay ed
ĠD omin
et ch
ĠBar cl
Ġd istr
Ġch all
Ġind ict
Ġpopular ity
Ġbl aze
Ġdemocr acy
Ġsymb ol
ĠK urd
Ġmin istry
m und
ĠR et
Ġpain t
ĠO regon
Ġpil ots
Ġob st
ĠD or
Ġjur ors
u er
Ġcreat ive
Ġsubst ant
ĠK night
Ġabs ence
Ġrestr ictions
Ġconst ant
ĠBa iley
l ock
Ġ6 8
ĠPent agon
Ġequ ivalent
ri ers
Ġrepresent ative
Ġencoun ter
Ġprosp ect
ĠA p
Ġfl own
Ġless ons
ĠMalays ia
Ġhun ting
Ġegg s
ĠPol and
Ġbrand ed
Ġy es
iss ippi
Ġour selves
Ġproceed ings
ĠJ ong
Ġhead lines
Ġfore ver
rop olitan
Ġdet ention
3 1
f ound
Ġsignificant ly
ic ian
Ġr ounds
Ġevery where
Ġ iron
Ġreg ret
Ġse lection
ray ed
Ġpull ing
Ġsmart phone
A S
Ġel im
Ġhuman itarian
ĠMid lands
Ġact ual
Ġimp rison
ĠB ash
Ġdis ag
Ġp ages
ĠDev on
Ġst amp
Ġfin ed
Ġtra ins
an ne
ĠSur rey
Ġexhib ition
ident s
ĠC ivil
im s
res ent
uc ks
Ġ6 3
R O
Ġse ed
Ġ7 2
u able
Ġt ens
Ġrough ly
Ġspecific ally
g reg
Ġreb u
Ġhor ror
ĠH ope
Ġafter wards
! !
gu ard
ur ers
Ġmin i
Ġtarget ing
i ences
Ġc ub
ĠNotting ham
ig ger
nes ota
amed ics
ĠFore st
ĠHawai i
ĠE th
Ġleg it
Ġst y
ĠD onald
Ġout fit
Ġbott les
ĠExper ts
ab ilities
Ġrecover ing
Ġhol idays
rug uay
Ġcor oner
b ag
ĠSaf ety
or age
Ġwebs ites
ĠL ion
ĠV in
z y
Ġanaly st
Ġt ired
oin ting
ol ar
ens on
Ġspect acular
m ath
eng ing
Ġhigh light
Ġcer t
Ġd ial
ĠE ve
Ġstro ke
Ġch ap
ĠRes c
ĠMor ning
ĠTen ness
Ġsuper market
ĠCon st
Ġearthqu ake
Ġcl oud
Ġtaxp ayers
r ors
ĠN ight
le vel
Ġcl ip
Ġ6 00
Ġmiss ile
Ġd im
Ġth roat
ĠM ack
Ġsa il
ĠB iden
Ġadv iser
ĠKe ith
he ld
or ia
ic ing
Ġpoll s
Ġbreak fast
enc er
ac cept
ĠSt at
Ġadd ressed
P r
Ġatt itude
Ġc e
ĠWin ter
Ġmain ly
m ile
Ġcou rage
Ġfor cing
Ġcon ced
Ġsafe ly
Ġal arm
Ġto ler
ĠLouis iana
Ġd ates
Ġwelcom ed
ĠLaw rence
ĠE astern
ĠDou gl
Ġno ise
Ġtw in
Ġfrequ ently
o en
ĠP op
Ġse vent
Ġpro hib
p re
Ġview ed
b its
og ether
iqu es
ut ers
ĠC her
ĠBrit ons
Ġconcer t
ĠDown ing
if ted
Ġf itted
es ity
l ar
Ġin mates
Ġ7 7
Ġemot ion
Ġkidn apping
ĠTra vel
Ġre ference
Ġtort ure
l aughter
ier ra
id al
Ġdef ensive
IN G
ĠK ansas
Ġfeel ings
ĠT em
ĠB ah
Ġco ord
Ġprob ation
ab is
Ġshe ll
ian ts
ĠQat ar
Ġex it
Ġg ri
ĠMiss issippi
Ġc ats
eral d
Ġdress ing
rou s
ip al
Ġmilit ant
Ġdiscuss ion
Ġant icip
.... ....
Ġ upper
Ġod ds
ĠIslam ist
Ġsal ary
or er
Ġbene ath
rast ructure
in ion
ĠGold en
gg ing
Ġpain ful
Ġsp ac
ah l
Ġsh ame
Ġrec ruit
we alth
Ġdon ations
av en
ach t
Ġpersonal ity
ĠT H
up s
Ġback ing
Ġbusiness man
Ġpe ak
v y
Ġt ech
est one
ĠS ov
Ġcritic ized
win ning
ĠM as
ĠSp urs
Ġwild life
4 8
Ġtyp ical
Ġinapp ropriate
l ooking
ĠK rist
ĠTh anks
Ġunc le
l b
ĠH it
Ġmem or
iss a
Ġrare ly
istor ius
Ġsm ell
Ġfood s
b al
ond uct
Ġsil ence
ĠMin nesota
T S
ĠS ony
ĠSwed en
ĠP ictured
Ġdiv ision
ĠW olf
gra ph
id ency
r d
Ġrid ic
v iously
e lection
Ġreal ized
Ġstret ch
Ġtr igg
Ġd ust
Ġdire cted
k m
Ġcomp ound
ĠOther s
p age
sec ond
abet es
ĠAust in
Ġcontrol s
ett a
ĠEm ily
ĠSomal ia
Ġscient ific
Ġneighb ors
Ġsurv ival
Ġbase ball
th al
ĠE t
Ġread s
Ġne ur
Ġnerv ous
d oor
Ġfort une
ĠR y
ĠV ol
Ġmanag ing
cri ption
Ġre ven
ĠA round
Ġe c
ĠTs ar
Ġm as
ĠT ok
ĠH as
Ġde emed
Ġm ere
ĠAl aska
Ġlik ed
ĠIndones ia
Ġtele phone
Ġr oles
Ġsurviv ors
Ġminor ity
M an
Ġpos ing
enez uel
ĠA ld
Ġlic ense
Ġcomb ination
ere z
Ġpark ed
Ġesc al
ĠLat in
ĠC air
Ġkn ock
roll ed
Ġrecomm ended
Ġre ass
Ġdeploy ed
Ġphys ically
re nd
A d
Ġdiscrim ination
be y
ru cted
ĠTenness ee
Ġcommun ication
Ġd ancing
Ġbreak s
Ġcross ed
Ġcy cl
ĠColomb ia
op ing
Ġtreat ing
Ġfl ash
ĠSer ge
Ġcous in
ak h
ĠMur phy
ĠV en
m ans
less ly
ind er
ĠD y
Ġm ood
Ġf ing
Ġro cks
ĠOl iver
ol ved
ĠU ruguay
Ġdest ination
ĠFeder er
Ġtrans p
ĠNet her
Ġad j
ĠY es
u an
ab ove
Ġstud ied
ĠPro v
yl um
h at
h igh
Ġbe ars
Ġinvest ors
Ġbit ter
Ġte ach
ĠBar ry
Ġemploy ment
ĠF est
Ġmanag ers
Ġmid field
Ġentertain ment
Ġunemploy ment
Ġappoint ment
ĠT ed
ĠV is
Ġperforman ces
Ġilleg ally
am o
Ġcamp s
Ġgrad uate
Ġpick ing
Il roy
Ġt ensions
Ġto ol
act or
ok o
omet imes
Ġn ights
Ġreturn s
h um
en z
Ġunf air
j o
Ġd iamond
Ġoper ate
ĠRom a
Ġsust ain
at ched
ns ic
ĠN ob
R e
ĠSav ile
Ġw et
Ġc iting
s k
ast y
um ents
ĠV lad
het t
it ure
Ġadv anced
ig ious
ace y
Ġto ols
le c
ob i
Ġpock et
Ġint im
Ġdec line
ar th
Ġfr ame
Ġdesign s
ĠF reed
adh afi
rep rene
ĠF ather
Ġfootball er
Ġsom ewhere
Ġcoll ision
Ġphotograp hed
Ġentr ance
ĠCh ild
ĠAr k
Ġmans laughter
ĠF ro
Ġtranspl ant
ĠW here
Ġag grav
ĠBuck ingham
ĠCap tain
h ost
ĠN BA
ĠThat cher
le ton
Ġgr ateful
r ical
ĠM ull
Ġdist ress
ĠP istorius
Ġlow est
ĠS ierra
Ġcl ashes
ĠCl ass
Ġab ortion
aw s
Ġconsult ant
Ġs ed
Ġse qu
Ġh undred
Ġp hen
Ġbatt ling
ig hed
ĠD id
Ġun w
Ġhost ed
exp ected
ĠT un
ĠB aghdad
Ġexecut ed
ĠB ox
up id
Ġmist akes
Ġdon ated
Ġs acked
ĠOb am
Ġel ite
on i
Ġv s
ĠW y
7 00
Ġreg ions
x ual
ĠDet ective
B rit
accept able
ĠSt ock
Ġhel l
ĠDe an
Ġpract ices
Ġvir al
Ġbook ed
or ation
ect ors
ĠEur o
il it
Ġinvol ves
Ġunc ons
ap ore
Ġlo ving
ĠBow l
Ġind eed
Ġdepart ure
el d
ĠSil ver
st an
ĠD iv
Ġquestion ing
c ot
Ġlic ence
ĠDar ren
ĠJ esus
um s
Ġappe als
t op
Ġengine er
4 6
ol is
Ġyoung sters
Ġt iss
Ġmention ed
m m
Ġp upp
Ġ8 00
Ġwar n
Ġi Rep
Ġadm itting
ĠPl an
ve land
Ġsent ences
ĠH on
Ġincre ases
Ġappro ximately
Ġen emy
Ġle aked
Ġ199 2
Ġpolitic ian
Ġto ug
el ing
ĠV enezuel
Ġass ets
bed room
cl ub
g ate
it ched
Ġinf rastructure
Ġ199 3
Ġencoura ging
M any
Ġlove ly
Ġsett led
ing ing
st ep
Ġcare fully
ĠSom ers
Ġdes erve
Ġob lig
Ġp ending
Ġing red
ĠBarcl ays
o a
1 50
Ġkid ney
Ġreal ise
Ġtatt oo
Ġup coming
Ġcongress ional
ĠNig el
ĠDougl as
Ġpay ment
Ġtreat ments
Ġinter vention
" .
u its
ri ve
ĠSus sex
ĠNether lands
Ġmod er
o os
Ġgu idelines
Ġign ored
Ġres idence
Ġqu oted
Ġconsum er
ĠMoy es
I I
Ġf urn
ĠC ele
ĠTreas ury
hn er
ĠH ad
Ġchall enging
or g
Ġpub lish
p at
na ev
Ġperfect ly
ĠHol mes
ĠS U
Ġse asons
Ġemb assy
Ġ7 8
ĠN azi
ĠC ase
w ill
ĠG over
ĠD iana
Ġcar ries
Ġjack et
Ġdet ain
ĠAh med
f ortunately
im ir
ĠKing dom
ĠKn ox
rah im
ĠA venue
Ġaim s
p son
ĠS ut
ĠMc Ilroy
ĠAnton io
Ġoff enders
ĠBurn ley
Ġsa ving
form ation
th at
Ġexper iment
Ġmurd ers
Ġfound ation
Ġprom inent
Ġ id
Ġrep air
ĠY our
ĠSp encer
Ġpurch ased
Ġsing ing
Ġinst ance
Ġsepar ated
ĠAl b
ion e
Ġun certain
aw a
Ġb uck
Ġfr ight
ag ne
ĠUk ip
ĠAnd roid
ĠP owell
Ġext end
ĠH al
ĠMag istrates
ag a
ff ic
Ġc ore
am ous
Ġso il
Ġyoung ster
Ġse lected
Ġtri umph
ĠH az
Ġsy n
ang es
Ġche er
Ġfl ow
port ion
Ġal t
Ġelect ronic
Ġleg acy
Ġext rad
Ġpron ounced
Ġas ks
ĠBrad ley
Ġ8 5
uck er
Ġstun ned
aim ed
Ġharass ment
Ġprotect ing
Ġf ed
ok ovic
ops y
Ġg ear
is an
igg s
Ġoppon ent
Ġcha os
ĠLib yan
Ġc ow
Ġdrag ged
Ġsevent h
ap ing
Ġ6 9
and om
ĠRe bec
ĠTsar naev
ix on
Ġoverwhel ming
ĠCle veland
ey mar
Ġan k
Ġpain ted
Ġcol umn
Ġsub urb
st ream
R uss
Ġexcell ent
R E
b i
ĠDen ver
or ge
Ġsh adow
ĠMan uel
l i
ĠV ice
Ġrefuge es
ĠS in
Ġpurs ue
ĠRebec ca
Ġl ake
ĠA wards
ĠK yle
Ġpl ate
Ġdis char
ĠSing apore
be an
ĠAss ad
Ġf ires
ok en
ĠIn f
est ed
Ġpropos als
th ur
w alk
ĠTok yo
ĠLou ise
rain ing
ĠSim pson
ĠJul ie
Ġfel ony
d es
Ġg ent
Ġm el
Ġexpl an
Ġmusc le
od ge
Ġdream s
ĠC rit
t im
Ġw rapped
ĠT ories
ab ul
ĠV ideo
Ġcor respond
s en
c omm
Ġmach ines
ac on
Ġas ylum
Ġord inary
o ch
Ġele ment
Ġemph as
4 2
Ġair ports
Ġkil ome
Ġto y
Ġcoll abor
Ġrequest ed
ĠSov iet
Ġnation wide
Ġremember ed
Ġvig il
ul es
atic an
ĠBoe ing
ĠCommon wealth
Ġsh r
ĠIndian a
Ġre ar
Ġthem e
Ġanonym ous
ĠP elle
Ġre venue
for ce
ĠMem orial
ĠSh ort
ĠB at
Ġen h
Ġh o
Ġunder go
Ġresp ective
Ġbel t
ĠStud ent
emble y
Ġimp osed
Ġlif etime
Ġtr igger
Ġuncons cious
ĠB aker
Ġr ic
Ġ6 1
ĠNet work
Ġgu ess
Ġsh ore
R C
Ġfall s
let t
Ġhy p
S W
ĠA ud
Ġvol can
ĠP res
od ay
uss els
ĠAd d
Ġven ue
Ġcann abis
an tha
Ġdi abetes
ĠPark er
Ġtodd ler
h all
Ġcampaign s
in ts
ĠKent ucky
Ġunderw ent
u z
Ġopt im
n ity
ĠBrend an
ĠC row
oc a
ĠIv an
ĠHolland e
Ġe lev
ĠBer g
I T
ons in
ĠS ab
ĠB enn
Ġpro of
ir m
ĠW embley
Ġexp osure
Ġshop pers
our ing
Ġmaintain ed
Ġm ad
ug s
5 6
ob ile
Ġany more
Ġf ence
ĠDj okovic
ou ted
Ġeng agement
st orm
ul ating
Ġsec ured
Ġcons cious
Ġprof its
Ġgen etic
ĠL ater
Ġdis gr
Ġleg ally
our ce
b ian
isc onsin
Ġenthus i
Ġafter math
Ġdemonstr ators
Ġca ution
J o
Ġparticip ants
w ear
ans on
Ġdescrib ing
Wh y
e ff
ard y
Ġri ot
Ġc rop
Ġcourt room
Ġstri p
ĠTes co
Ġaff ects
Ġslam med
Ġg rey
Ġl ibr
h appy
ĠLuc y
ĠM ade
qu ir
ĠH annah
Ġun expected
ters hire
ĠLau ren
E ven
il i
ĠH aving
Ġwant ing
a ver
Ġag enda
ash ire
Ġdiagn osis
Ġe ase
Ġinst all
ĠS ad
ĠMet ropolitan
on ing
Ġdes k
Ġdel ays
ĠEm irates
Ġconc rete
ĠV iew
Ġser v
b ul
m are
Ġs oph
ĠQ C
ott i
Ġfro zen
ĠTurn er
f ace
in th
Ġr ush
l ie
ond e
ar ted
Ġpass port
ĠCap ital
Ġwe ighed
Ġdes ert
Ġvac ation
Ġconf essed
om ed
ĠT echn
ĠV atican
m un
ĠViet nam
ĠF le
ĠD ick
Ġcr own
ograp her
iz za
Ġg ifts
Ġsoc cer
Ġprof it
ĠCor por
es ome
al i
Ġhero in
Ġdam ages
Ġtrad ing
Ġresul ting
ĠAff airs
un al
ĠIs lands
ced ented
Ġdest ruction
ĠN ancy
ĠW ars
ĠB M
Ġpr ol
gr ade
Ġele ments
Ġpled ged
Ġto ys
ĠE lect
Ġ0 3
Ġrepl acement
Ġhear ts
an ing
Ġdis g
Ġpass es
Ġz ero
Ġcorpor ate
y gen
Ġt ips
ĠS C
uc r
Ġind ec
ĠBr is
Ġble eding
Ġfier ce
ĠQueens land
Ġsubst ance
Ġbox es
ĠCar ib
Ġapolog ised
Ġbo asts
ĠG adhafi
ĠCh an
Ġmean while
Ġsurge on
ĠU l
Ġunder ground
Ġhost age
ĠD ale
s pe
ĠT ower
ĠNas a
Ġpr ide
Ġst im
ĠB ent
av ig
Ġbo ats
ĠPro ject
Ġcab in
ĠHear t
im m
Ġbre ad
Ġtrans ition
ĠT ri
Ġbl ocks
ĠMon aco
ob b
Ġscr ut
Ġsched ule
Ġhope ful
Ġham mer
Ġco at
j an
in f
Ġkidn apped
l bs
Ġst ressed
ain ts
Ġrel ie
emb ly
Ġsav ings
f its
Ġarr ang
Ġover come
ĠStaff ord
Ġnot orious
ĠAl bert
Ġbel oved
Ġpr ayers
Ġlet ting
M ost
Ġlo ose
ĠC atherine
ig ible
Ġgather ing
Ġob esity
Ġisol ated
Ġtraff icking
ĠL amp
Ġover s
ĠAn field
ĠN athan
Ġqu e
ĠKurd ish
Ġcal ories
ĠN eymar
Ġimp ression
Ġgl ad
Ġbul lying
ĠM itt
Ġcl iff
Ġis lands
au x
l ined
ri ving
Ġre ign
5 9
Ġc ycle
Ġcl er
Ġw inger
ĠRe f
ĠW isconsin
ĠLanc ashire
C on
ĠR AF
Ġsuff ers
Ġh ip
Ġal ter
Ġliter ally
ĠD og
Ġ19 50
ĠC irc
Ġdist inct
ĠPers ie
ĠOl iv
Ġw ider
un ning
Ġp ip
u zz
Ġ rib
ah u
is ons
Ġh acking
Ġth orough
Ġd iver
Ġent reprene
ĠBrook s
l iest
Ġdis h
Ġdeal t
ill o
iv an
Ġprom ises
ĠCr im
ĠGreat er
Ġreveal ing
ight ing
Ġph il
ĠH ond
on ia
ĠBr ady
ie ber
le ans
Ġobs er
Ġrec k
ĠTele graph
ac are
iven ess
Ġorgan ised
ĠM aur
oc key
Ġastron aut
Ġcl ock
Ġemploy ed
ĠFest ival
Ġinv asion
av i
Ġurg ing
Ġfin ishing
Ġconv ictions
ĠBoe hner
Ġclass room
Ġsib lings
ĠForm ula
Ġdefend ants
ĠAngel a
ĠSports mail
ĠLam bert
Ġreal ize
ĠA k
Ġfin ance
ul pt
itness es
O h
ĠO wen
ĠBr id
Ġpers p
b ound
ĠB ark
ĠKir k
ĠMed ia
th ree
Ġhand ful
Ġcover s
Ġb orrow
Ġlim its
Ġliqu id
Ġdis e
Ġmid night
Ġrec all
ĠCl aire
Ġcompet ing
ak i
Ġdiffer ences
Ġdress es
Ġtable t
Ġsign al
ĠCast le
Ġbacter ia
ĠB ou
ope z
Ġtrigg ered
ĠR en
Ġpl un
ĠL ank
Ġf ate
Ġburn s
Ġmethod s
Ġ12 0
Ġpr int
Ġbr ands
ĠG M
ĠBr on
M ore
ograph ic
sh irt
Ġath lete
ĠL ut
Ġarri ves
ĠEmb assy
ĠCarib bean
ĠF e
Ġs oul
Ġscreen ing
5 7
ident ified
ĠBr ighton
Ġ198 9
ĠVlad imir
Ġref using
W ashington
Ġsm iling
Ġover d
end ment
qu es
Ġanaly sts
Ġaggrav ated
Ġcre ation
Ġconfron ted
are th
v ard
ĠT an
Ġsusp ension
Ġw age
Ġcho ices
ĠW ol
Ġev al
Ġsw ept
Ġ199 1
T oday
Ġr ot
ĠShe l
ĠSam antha
ĠSoph ie
Ġwheel chair
Ġ urban
Ġglob e
ĠCarol ine
Ġm o
ĠSomers et
Ġkilome ters
pro fit
ĠFerr ari
ĠNev ada
Ġintim id
Ġwood en
Ġevac uated
ĠBr ussels
Ġairl ines
Ġassess ment
Ġrec ip
Ġnight club
Ġconvers ations
ird s
ĠEn vironment
Ġcare ful
Ġh ook
Ġran ks
Ġfield s
Ġlandsc ape
Ġweek ly
ĠEmer gency
Ġsn ap
ĠOp inion
Ġsm iles
ĠCarl os
Ġtox ic
Ġdifficult ies
ĠNic ole
5 8
ĠBen j
ri ages
ĠPh oen
ant e
Ġarg uing
ĠNe ighb
Ġf o
ac co
Ġfort un
Ġdef icit
Ġair stri
ĠOr leans
Ġc ease
Ġl obby
0 8
ĠPri x
it i
Ġblood y
Ġde leg
Ġval uable
D on
ĠSer gio
ĠY ard
ĠDe velop
Ġstorm s
Ġstr ang
Ġinstit utions
ĠC DC
add y
Ġboot s
ĠH undreds
Ġide al
Ġaccident ally
Ġimpro ving
Ġc ake
A ny
Ġtact ics
Ġp ound
g iving
Ġl asted
Ġz oo
Ġox ygen
h as
Ġs que
Ġmass acre
Ġfore st
Ġgener ations
k el
Ġproduc ing
Ġm amm
ĠB ale
ĠR ight
Ġhol es
Ġtechn ique
Ġassoci ation
ĠPhilipp ines
Ġsam ples
Ġd umped
Ġexp enses
th rough
Ġtour ism
Ġb ite
Ġadd iction
Ġroll ed
ĠR oc
Ġstop s
ĠK ath
ĠC u
ling ton
Ġmurder ing
Ġinter ven
Ġprinc ipal
Ġsy ndrome
ĠD ream
Ġmove ments
Ġtraum a
ut en
ĠY an
Ġrapid ly
Ġex ha
ĠM aj
Ġg room
ub b
Ġexplos ive
Ġmus ical
Ġinter ior
Ġor ange
Ġsal t
ĠC a
ĠBol ton
Ġs ne
Ġche ese
Ġtre as
ĠEx pl
G B
st airs
ĠHait i
ĠR over
Ġshoot ings
ĠNor way
Ġresign ation
Ġrepresent atives
Ġcateg ory
Ġf oul
Ġpar ole
The n
Ġtri als
Ġpun ched
Ġdiscuss ions
Ġp ure
ĠC ape
ĠPhoen ix
For mer
ist ant
pl ess
Ġeng age
Ġunc overed
Ġvolunte er
Ġs essions
Ġb ol
ĠG ay
Ġcurren cy
ort heast
Ġcanc elled
Ġunder t
Ġact ors
4 3
ĠT ro
Ġrecogn ition
Ġlaunch ing
Ġfrustr ated
Ġchallen ged
Ġst ake
gr at
Ġrom antic
Ġexplos ives
ou ces
Ġspot s
Ġfur ious
Ġprev ented
k inson
Ġinc or
Ġiniti ative
ag en
ĠS ri
am ental
Ġl iver
ĠL opez
Ġp aed
ĠB ureau
ĠM ick
Ġw oke
Ġconclus ion
Ġcar ing
enc ia
ins ula
Ġas leep
F rom
ĠGr ay
ĠCrist iano
Ġfeed ing
din and
Ġcon ven
ĠJ oy
5 2
ĠB ed
Ġevery day
b eck
Ġwh ilst
ĠFern ando
ĠS el
Ġdu o
ĠVin cent
Ġtroub led
ĠSupp ort
c ill
Ġfor th
Ġfarm ers
Ġrun way
Ġst unt
Ġint ens
tain ment
Ġwat ches
n esty
ĠE conom
ĠPr ice
b ane
Ġseem ingly
Ġmet eor
Ġsh all
Ġstop ping
Ġdise ases
ar io
Ġextrem ists
g overnment
Ġc ooking
ĠG ates
Ġcol ours
sc reen
Ġprom ising
Ġtow er
ĠD al
Ġint ensive
Ġres erved
ĠLe ader
ĠSc ience
Ġmed als
ĠCh air
ov al
Ġlab our
amb ling
y ang
Ġj oked
ĠY e
Ġanx iety
am ford
ĠI l
Ġdown town
ĠGover nor
ĠObam acare
ĠP ier
ĠE c
Ġsp y
Ġbomb ings
ist ent
E FA
R S
Ġst orage
ĠP ard
Ã ¢
Ġprot ective
Ġexecut ives
m od
Ġind icate
ĠSt ur
ĠFar age
Ġo dd
Ġprison er
ĠStev ens
Ġstar ring
Ġfac ial
ĠBob by
m aking
Ġc able
Ġm ud
Ġme ters
Ġunder c
eme tery
Ġult imate
Ġexam ined
ĠCru z
N EW
ĠZ oo
Ġsevere ly
et a
M e
B r
Ġt rem
C H
op ping
ash a
Ġlist ening
ĠCont rol
ĠHold er
id i
Ġconsist ent
ĠP ict
com fort
Ġexpl oded
ĠO ak
Ġcelebr ations
Ġapplic ations
Ġf iance
P S
it ated
Ġjump ing
Ġbrief ly
Ġshout ing
b ow
Ġdro pping
Ġwatch dog
ĠResc ue
ĠIb rahim
5 4
ine e
Ġch ase
Ġout standing
ĠNe xt
Ġjud gment
p ol
rop ical
Ġful f
ad get
id d
Ġhom icide
Ġdemonstr ations
Ġdam aging
ĠC ancer
ĠLiber al
ĠCele br
er g
Ġc in
og a
ver e
ĠTh ousands
Ġc am
Ġf er
Ġfore cast
ĠGl ouces
Ġcomed ian
ĠPal in
Ġkeep er
ĠSe ven
ĠQu est
Ġres ear
Ġsen ator
Ġfix ed
ĠIn s
ĠBenj amin
Ġerup ted
ĠNad al
Ġan ch
ĠFreed om
Ġtaxp ayer
ĠP S
Ġgr ant
op a
Ġr andom
ĠG onz
Ġint r
Ġinf ant
Ġhigh way
Ġhard ly
r ington
st ead
Ġlength y
Ġill ustr
ĠLeban on
m art
Ġpar ade
ĠColumb ia
ĠHit ler
Ġp ets
Ġcon grat
Ġtiss ue
Ġw ishes
Ġd uties
Ġinst alled
ec raft
ĠS ot
Ġdesc ri
Ġlong est
ĠFer dinand
ate ur
Ġbr ide
Ġtechn iques
5 3
agger ing
ĠG i
Ġl ip
ĠL an
ĠFor ces
ows ki
ine a
Ġexplan ation
ĠGr ace
ĠCos by
n an
Ġfing ers
Ġsupp orts
Ġansw ered
ĠS ent
Ġad apt
sh ine
l us
ĠN SA
Ġunp re
Ġg ard
Ġm ph
ĠC ass
Ġpenal ties
ĠMiddle ton
ĠLl oyd
F C
Ġfast est
ĠEn ergy
Ġhope fully
ĠN a
Ġpre st
f ect
Ġe ighth
Ġshow er
Ġl apt
ĠLab or
Ġhighl ights
Ġglass es
Ġrif le
ĠHeath row
Ġlaugh ing
ĠComp any
Ġwh istle
Ġ7 1
Ġ7 6
4 1
Ġw rest
Ġdisplay ed
ĠW als
Ġter rified
Ġche ek
Ġopen ly
ĠF OR
Ġcompl icated
Ġengine ering
ro v
ont o
Ġburgl ary
z ed
Ġconstit utional
ĠSU V
Ġdec e
y on
Ġg otten
our se
Ġball s
Ġgent le
Ġunpre cedented
ult ural
ĠC z
ack er
Ġoper ated
om ers
Ġhistor ical
Ġtable ts
Ġmisc onduct
ĠC hen
Ġtrain er
Ġexp ects
ĠJul ian
Ġcy ber
Ġmount ains
ĠCh amp
oth y
lim inary
Ġpar amedics
G A
ĠSh i
d am
ĠB ishop
Ġad s
Ġcol on
ĠF ul
Ġpan ic
ĠMoham ed
ĠProt ection
em or
Ġorgan ized
Ġsc ulpt
ist ory
Ġfab ric
ĠLion el
Ġrelax ed
Ġin her
ĠTod d
Ġdramatic ally
Ġwid ow
ĠD aw
ca o
ap h
is le
Ġclean ing
ĠC ou
m ir
am bers
Ġrep eat
Ġrec ession
Ġcrack down
p iece
ĠP ed
ĠBris bane
ĠAl f
ĠWeb b
ĠAh mad
Ġre op
Ġsit uations
Ġhor rible
Ġexpect ations
vent us
Ġg own
Ġloss es
ĠS at
land o
c uff
Ġt urb
Ġrec re
ub ar
f ish
v on
Ġa ired
Ġdesper ately
ra ged
rit ion
ĠTra gic
hett ino
ĠK it
Ġmar ch
Ġnecess arily
Ġdead line
Ġconn ect
Ġa ston
ĠHar vard
Ġbut ton
ĠF ield
ĠG areth
Ġg al
Ġche aper
ar o
Ġal erted
ĠT rip
ĠB attle
ĠBr un
iz on
Ġbuy ers
ĠGal axy
Ġdomin ated
b us
Ġb oun
Ġpromot ing
do ch
ew ay
Ġsl im
ĠPe ace
a o
Ġsn apped
Ġpost er
ĠP o
ĠO z
cept ion
ĠH an
ĠP rest
n ecess
r ank
Ġt ons
Ġw ages
Ġdeter ior
ple te
Ġwh is
ĠIn n
ĠLar ry
Ġvacc ine
Ġm ol
Ġop ens
ĠEnter tainment
f und
Ġa x
ur a
ĠL iga
ĠP it
Ġnew born
ĠOn line
ĠC ust
ĠF ashion
ĠO bs
ort mund
Ġexper im
Ġtal ented
ĠVal ent
Ġdivor ced
Ġg ate
ĠSil va
ĠJew s
Ġst upid
Ġaw ful
Ġviol ation
ĠAlex is
ĠW or
ement ia
Ġrob ot
ĠH ud
ous es
Ġm ail
Ġpriv ile
ĠAbd ul
it ol
ĠP erez
O r
Ġ7 00
atur al
Ġstat istics
en h
ose xual
ĠN SW
Ġg od
Ġsp ray
az ed
Ġhar sh
Ġrac ism
Ġun acceptable
Ġclimb ing
d i
Ġbas ically
Ġsome how
ĠGlob al
ard ed
Ġarg uments
Ġst rain
ĠK aren
we ather
Ġpublic ation
Ġscient ist
Ġf lex
ipp er
ĠB und
Ġle ather
gh azi
ĠBl ake
Ġawa iting
Ġrecogn ize
Ġclos est
c i
ĠSh an
ĠInsp ector
Ġsu ed
ann on
Ġg ru
Ġrad iation
Ġpoin ting
Ġprompt ing
ĠU EFA
Ġcar pet
ren a
ĠAd rian
Ġank le
D av
ian g
oc ated
Ġspot light
Ġste el
ĠCair o
ĠAlex and
t ail
ore y
it ar
Ġend ors
Ġapolog ise
Ġl un
ib ilities
ĠPer haps
ĠSpe aker
Ġter min
Ġfore nsic
Ġpercent age
Ġindict ment
ĠI D
th reat
or ters
ĠM all
Ġgover n
ĠJ ill
Ġcomp rehens
Ġjew ell
L S
Y es
p ower
id ance
O T
gr ini
ĠInd eed
Ġnight mare
Ġfund ed
g ans
Ġpres idency
0 5
9 5
al o
Ġcont am
atch ing
Ġclin ical
ĠPard ew
Ġun identified
Ġatt rib
orm al
Ġaut opsy
ĠGuard ian
Ġb orders
ĠCon f
Ġflood ed
Ġresol ve
s ized
Ġc raft
as p
Ġmotiv ated
m ine
ĠS uch
ĠHar rison
ĠPer u
ĠMem bers
ĠProsecut or
Ġh oney
if ting
ar ia
Ġacc using
y ou
t hen
row ing
Ġris es
Ġun t
M ay
Ġin ner
Ġattack er
Ġliber al
Ġdeliber ately
Ġd ign
d ro
Ġrecogn ised
d les
Ġbut ter
Ġment ally
ĠH us
Ġl ists
Ġguarant ee
ĠD ortmund
Ġrank ed
Ġequ ally
Ġbatt les
ĠMur doch
Ġreason able
Ġunderw ater
Ġcompar ison
Ġpersp ective
Ġph r
ect ives
Ġd angers
ĠH appy
ĠAr thur
Ġspons ors
Ġhe els
ĠG ame
Ġun rest
heim er
k g
id ges
Ġac res
Ġfamous ly
ĠN at
ĠH op
Ġavo ided
ĠJ av
enn a
ĠBen ghazi
Ġforg otten
Ġrel uct
Ġcar rier
Ġcontin ent
Ġemer ging
Ġel abor
Ġdef eated
ĠC roat
os a
ĠRos berg
D es
Ġpres ents
Ġdiv ided
ĠStep han
Ġunder going
ol an
) :
Ġfe ver
Ġexpl ore
Ġsub mitted
Ġemploy ers
ĠL amb
Ġwar ns
ĠCamp aign
Ġsl ipped
Ġread ers
g ement
ĠSp r
Ġscre ens
Ġvol unt
Ġcons ent
ĠVe ter
Ġc afe
Ġmiss iles
Ġrecogn ise
ri ot
Ġrat ings
Ġle ts
Ġassaul ting
Ġconstit u
isc al
Ġhighl ighted
Ġc ord
ri en
Ġel igible
d aughter
Ġdisapp ointing
ĠS aint
Ġpet rol
ĠBelg ian
Ġg ross
Ġpro ven
Ġest imate
ĠRoberts on
ĠT oy
Ġst aggering
Ġj unior
ĠII I
ĠU r
Ġor bit
Ġsh ake
Ġqualif ying
id av
ĠA ge
b es
ĠAb bey
ĠOr lando
reg as
Ġapprec iate
ĠPelle grini
Ġback l
ĠFr ont
Ġoper ator
Ġconver ted
C ar
ĠL ight
Ġdep th
Ġnatur ally
ĠTe h
ĠB ase
Ġgrand children
Ġcoin c
Ġfil es
Ġstab bing
ĠTor onto
Ġper pet
Ġ7 3
Ġdep ort
ave z
0 1
Ġvan ished
ĠM H
ĠSen ior
hed ral
ĠB illy
by e
B ay
Ġkind s
Ġclos ure
il ia
ad ers
a ired
ĠC ow
Ġtum our
Ġp ole
ĠAir ways
En g
G o
Ġsign ature
f eed
Ġchem otherapy
6 5
H O
s elling
on so
Ġdon or
Ġspir its
ĠBloom berg
L et
Ġrest ore
ĠFal cao
Ġsoph ist
ip ed
ĠSen ator
Ġdet ective
ĠCz ech
ubar ak
0 9
U S
an or
Ġe ager
ast ro
Ġbr on
Ġport rait
Ġexist ence
0 7
Ġsol ve
ĠL in
Ġfr anch
Ġrespond ing
f inals
z h
Ġd yn
ĠF oster
Ġconsum ption
Ġmotor c
ĠBrad ford
am ic
ĠE ight
Ġform ally
Ġcal end
Ġdin ing
Ġparticip ate
Ġnewsp apers
g ood
ĠSwed ish
ous and
ĠF all
Ġregard less
Ġhost ages
v o
Ġacc eler
Ġr ating
Ġsu ing
year s
ĠPolit ical
Ġse as
Ġsear ches
Ġgall ery
p ret
ĠP oll
Ġha iled
n ame
Ġcom a
Ġveget ables
Ġphen omen
Ġ7 4
Ġaff idav
Ġfair ly
ĠOper ation
ur st
Ġqual ified
ues e
Ġrel ation
ĠAr n
ens us
ĠMus ic
Ġre ly
Ġtrack ing
ĠI V
ĠSt ra
Ġrecogn ized
h aul
hel ess
Ġgra phic
if ford
Ġtri o
Ġrele vant
Ġaut umn
ĠVal encia
Ġattract ive
r ac
Ġw ww
it ement
ĠC old
ip er
ĠN early
ors et
Ġmos que
Ġbe aches
ĠH ass
Ġbas ement
G en
ĠD J
Ġexam ination
Ġvess els
ĠCommun ity
Ġre ducing
ĠW as
ĠK u
ĠB ath
Ġthe ater
Ġfurn iture
z es
Ġch ronic
Ġa st
ĠSt amford
ĠLiber ia
Ġsubsequ ently
m oon
em bers
ĠHun ter
ĠK y
Ġfrustr ation
ĠLanc aster
do ing
ĠS ex
Ġm all
kn app
Ġbul lets
Ġp od
Ġd ementia
ĠE T
ĠHis pan
Ġhand led
E C
ik a
s ay
Ġbank ing
ar ity
ĠJ erry
Ġle thal
ĠGab ri
Ġse iz
Ġsub jected
Ġur ge
Ġri pped
Ġfle e
Ġh ik
Ġmiss ions
Ġsub stitute
y es
Ġfest ive
ĠIndepend ent
A m
Ġy ard
Ġdemocr atic
ĠBern ard
Ġdra ft
Ġrad ar
Ġbut t
Ġbe ef
ew ork
Ġsuppor ter
ĠDel hi
Ġmir ror
rup ted
Ġhal t
ĠC ro
Ġun ions
Ġstri pped
ĠFab regas
Ġpra ise
Ġf are
ot ing
ut t
em ies
ĠJu ventus
Ġstrate g
Ġwreck age
Ġco aches
Ġgu idance
ĠRober to
ĠMer kel
Ġappe aled
ĠLamp ard
ĠDe ad
Ġup loaded
Ġnom ination
comfort able
Ġmen u
Ġcoast al
W ill
Ġresp ected
Ġsh outed
ĠArs ene
Ġlong time
Ġter rifying
ĠWe ather
ĠRes p
y er
Ġph ase
Ġg rief
Ġintro duce
Ġany way
Ġgold en
ĠAr med
Ġcontr acts
Ġl es
Ġj ets
Ġpart ly
ĠMar ie
ĠA ward
Ġst ability
Ġhand cuff
ĠRaf ael
r ated
Ġoff ender
Ġed ition
Ġroll ing
ĠK el
Ġar ranged
resp ons
s l
ĠCh avez
ĠSun ni
Ġnow here
ĠSing h
ĠJosh ua
Ġclass ified
Ġnetwork ing
ĠS ara
ĠA st
Ġmort gage
ĠAgu ero
Ġn avig
Ġfree zing
Ġexplain ing
ĠR ic
Ġfund amental
ĠCase y
B ecause
u ccess
ĠD ennis
is p
Ġelect rical
Ġextrem ist
ans ion
ĠD ak
Ġd ies
ie ge
Ġregard ed
ĠIn formation
e ating
op ed
Ġart ific
ĠPalestin ians
Ġas h
Ġcommun icate
igr ation
Ġep id
old ed
ind ing
Ġacad emic
0 6
Ġless on
Ġsurv iving
f a
ĠTh ai
Ġwa ist
Ġv it
ĠBor is
ĠArgent ine
Ġqualif y
v ity
Ġattack ers
ull ivan
Ġant ib
Ġvirt ually
ĠR ou
i ere
ĠB es
Ġend ang
Ġspac ecraft
Ġchar ities
Ġl ap
alk ing
Ġautomatic ally
g ain
Ġcome back
k ick
Ġgr ade
Ġfire arms
stit utes
Ġcar go
Ġcancel ed
Ġsl ip
ump ing
umb led
ĠRed knapp
Ġst ance
ĠG ro
Ġor gans
z ai
Ġh ij
Ġflag s
Ġdr ones
Ġchemical s
ĠSc ene
Ġ0 2
ĠPortug uese
ĠA ber
ĠRe agan
A N
ĠM ors
m ission
Ġrem oving
ĠW ay
l ain
Ġa ide
ĠF arm
ĠN ine
ĠTh ames
Ġemot ions
ot al
Ġpre liminary
Ġsu its
Ġdon ate
Ġcons ecutive
Ġjewell ery
ra e
Ġsuff icient
ĠM ason
ĠPal mer
p arents
Ġind ication
Ġris en
Ġport ion
Ġsp an
ie ves
ĠCap itol
ĠG ene
ĠCount ry
sc ale
ĠCur rent
ĠD rug
ĠC er
Every one
ĠL ine
ĠN ever
Ġt one
ict ing
Ġbar r
Ġtouch ing
Ġrub b
Ġprofession als
f ers
it ious
o h
Ġper ce
aff e
Ġser ves
Ġb ust
bro ken
Ġmar athon
Ġev il
Ġra ises
ĠBar n
ag le
be ing
Ġa unt
ve t
ra wn
ne ath
ĠLe one
Ġpolit ically
Ġg adget
Ġrevel ations
act ions
Ġsubsequ ent
Ġje ans
ĠB ieber
ĠTeh ran
5 1
O f
Ġun named
ĠV ar
ĠAustral ians
ĠCol in
Ġdoub led
ĠN atal
Ġdep end
ortun ate
Ġar ts
Ġnurs ing
Ġhead er
Ġstrugg les
Ġvirt ual
j ud
ew hat
Ġsm ooth
ĠRog ers
ĠN ik
ond er
f olk
ĠA N
Ġcont ext
ĠCo hen
ĠM ubarak
c r
oc ation
ĠK enn
Ġlegit imate
ĠR and
ap olis
Ġweigh ing
Ġc ycling
ra ught
Ġsle pt
Ġfle et
Ġav iation
Ġ198 6
Ġin ev
ĠG arden
Ġtun nel
ul ting
ens ed
Ġcou p
Ġmind s
ĠT iger
ĠAb ove
crib ed
Ġscrut iny
Ġend ured
e ter
ul ent
ĠHur ricane
ĠM aine
ĠK r
Ġviol ated
Ġce iling
ford shire
ster oid
Ġtrack ed
Ġcreat ures
Ġab using
Ġapolog ized
ĠNY PD
omm y
h al
ĠM asters
ID S
Ġdemonstr ation
Ġbom ber
Ġorgan is
ĠCub an
Ġdisturb ing
ĠS uff
il er
out heast
ĠChrist ine
se in
P h
ĠI mp
ĠO pp
Ġ198 8
ep hew
Ġinf ections
ĠCor p
b ast
c asters
ĠBar nes
Ġcommission er
Ġconfident ial
ĠD ise
Ġred uction
Ġbi ological
ing u
ong yang
R es
Ġpr ince
Ġsubstant ial
f our
ĠWith out
um m
Ġstat ue
I L
ĠF o
Ġsp are
Ġinter rog
Ġcent uries
Ġconf used
sp ec
Ġun aware
Ġlo ans
ĠPri ze
ĠPeters on
ĠDe ath
Ġrem oval
ĠLu k
Ġunderw ear
Ġspeed s
Ġfle eing
Ġaffidav it
Ġha z
Ġfrequ ent
Ġ198 2
c est
ĠiRep ort
I M
ĠD iamond
Ġpsych ological
Ġbatt led
Ġl ined
ĠE sp
Ġpattern s
Ġingred ients
Ġy acht
ĠT M
Ġra ping
ĠCo alition
Ġbed s
t ion
bel iev
ĠBash ar
Ġpol ar
ĠRy der
l u
ĠH ind
ud es
Ġinsist ing
ĠNich olas
Ġaccur ate
Ġpaed oph
ĠH erald
Ġdep os
ĠHend erson
Ġchar ging
Ġengine ers
Ġex ceed
Ġj okes
Ġpar ks
ĠM oss
ĠK iev
Ġviol ations
yl an
i y
Ġse al
Ġpres cription
Ġresident ial
raw l
Ġinstruct ions
Ġad just
ĠPr ison
Ġprest igious
Ġqu een
Ġfl av
Ġappeal ing
Ġt ipped
iz er
Ġexcept ion
Ġd ated
ĠA th
Ġlibr ary
Ġmembers hip
Ġc ure
Ġl one
ic y
ak a
ass ion
Ġra w
ĠBenn ett
ĠP riv
Ġsp aces
Ġproduc ers
ĠH ung
ab lo
Ġgover ning
Ġve t
ĠGu inea
Ġimm une
ĠSam ar
ĠH istory
Ġse aled
Ġtrib unal
Ġp ants
ĠPol ish
ĠRes idents
ĠT ai
ĠLuc as
P resident
Ġrun ner
Ġtransform ed
int endent
ĠAg ain
ĠB erry
ĠSam uel
Ġbox ing
rie ve
Ġpublic ity
Ġcommon ly
Ġat e
ĠTransport ation
ĠN orman
ort on
ĠWar ner
Ġrec alls
Ġterm inal
Ġw ings
ĠAbd ullah
Ġkick ing
Ġprec ise
Ġh orm
Ġman ip
Ġcasual ties
he nd
ER E
A pp
Ġd iving
mun ition
ĠFr ances
ur red
ĠB eth
Ġun necess
Ġdis ability
ĠGl ass
er ie
ĠAl z
Ġtravel ers
Ġbillion aire
Ġhelicop ters
Ġsatisf ied
ĠTun is
Ġt ong
Ġdifficult y
Ġra b
Ġeng ines
Ġair pl
ĠPr im
ump s
Ġdeliver ing
Ġspread ing
Ġf oss
omet own
Ġretail ers
h t
Ġembarrass ing
B ar
anc ial
Ġf ights
ĠG as
Ġshe et
Ġvill ages
Ġvo ices
Ġreven ge
Ġdes p
Ġ8 2
Ġbill ions
Ġgreet ed
Ġpl ain
Ġfocus ing
Ġupd ate
ou ds
ĠOrgan ization
Ġconced ed
ĠC hes
ĠP oc
Ġb ug
Ġth ousand
Ġprevent ing
Ġunder neath
ĠRichard son
il itation
op es
Ġflo ating
ĠA rena
ĠChrist ians
8 5
ĠK as
ĠInter ior
Ġover weight
Ġcreat es
Ġembr ace
Ġrel ating
Ġfat ally
Ġle ak
ab out
Ġph arm
Ġgest ure
Ġm ate
Ġexp ression
Ġannoun cing
Ġtru cks
ĠB udd
u ers
Ġl atter
Ġam munition
ĠCor ps
Ġdoll ar
st e
any ahu
Ġsw ing
Ġpromot ion
Ġs ink
Ġexpl icit
Ġclim bed
ĠDevelop ment
ĠZ h
ĠL ock
ard ash
Ġcampaign ers
ĠOr ange
ch ild
Ġdisapp oint
ĠGriff ith
ĠPy ongyang
ĠH ag
un a
Ne ill
Ġowners hip
Ġreun ited
s ers
ĠG ot
Ġret ain
Ġpun ch
us ky
Ġpurp oses
ĠCh o
ĠE p
Ġsw ift
Ġmor al
ĠChair man
Ġinv ent
Ġhuge ly
usal em
Ġnomin ated
ry ing
Ġsign als
Ġmotor ists
Ġha ul
Ġuse ful
Ġdem ol
c al
ol o
olog ies
Ġspend s
Ġcalend ar
w estern
ĠK ings
Ġn ephew
Ġstar red
Ġ +
ĠArk ansas
r ising
ĠT ake
Ġpro portion
ic ians
Ġunivers ities
Ġrest ored
ĠStur ridge
Ġher itage
Ġdev oted
Ġ198 4
Ġp ione
ĠFeder ation
ĠSh ah
Ġassoci ate
Ġe cho
Ġ x
Ġc ops
ol ks
ad i
Ġcomp on
ĠTy ler
Ġtex ts
Ġindec ent
asc us
Ġshoot er
Ġcollect ing
ĠHom eland
the re
ĠRe ed
Ġpup il
Ġg iants
duc ted
Ġ9 5
ing e
ĠAn imal
ĠR est
Ġcop ies
lud ed
lin ing
tim ore
amp a
Ġimprove ment
Ġdispl ays
ĠC re
ĠP a
Ġdec iding
ĠMay be
Ġv om
Ġball oon
Ġsuggest ion
ĠW ool
ĠN az
ĠTh rough
ĠAlz heimer
ou b
Ġconv ent
Ġself ie
w ord
ĠB ear
Ġprin ted
ress ing
Ġfin es
Ġbank rupt
ĠDiv ision
ĠB ever
ĠStan ley
m id
ĠTor res
Ġfil ing
ĠNor folk
gen er
Ġporn ography
Ġsophist icated
ag u
ĠAl most
l on
Ġh ood
ĠCar roll
Ġprepar ation
Ġref use
S E
Ġp izza
Ġrespective ly
Ġc ared
Ġh ometown
Ġopen er
Ġbes ide
ĠD orset
Ġsp ill
ĠAl ice
m ith
Ġst ir
ĠB order
ĠE xt
Ġurg ent
ĠGh ana
Ġbo om
Ġcoach ing
Ġunderc over
ĠA M
ĠInvestig ation
ĠMount ain
Ġtravel lers
ĠLind a
ĠHud son
Ġsh ield
Ġbl onde
Ġshould ers
ĠEur opa
ĠJ obs
ĠK ardash
Ġmot ive
Ġac ademy
Ġac id
Ġrece ives
Ġpub l
Ġsom ewhat
O ffic
ric ted
Ġvers ions
ĠL iam
Ġen v
Ġland mark
Ġqu ant
Ġf ool
Ġdes erves
ten ance
ĠF alk
Ġmon arch
ĠDam ascus
ĠW i
Ġlegend ary
ĠT ob
Ġstr anded
Ġic on
ĠB aby
ĠAl ger
Ġrele g
ĠMil itary
Ġaccept able
in ity
Ġwh ale
Ġcent ers
ĠNet anyahu
ĠTou re
ign ment
ĠDur ham
ĠAndre a
Ġb out
Ġhand gun
Ġstruct ures
ĠInt elligence
Ġneighb oring
Ġelabor ate
Ġd olph
Ġspeed ing
uth ors
omet hing
Ġconv ince
ĠCh ad
ipp ers
0 4
ok er
Ġcheck ing
S c
ĠB P
Ġdiscuss ing
Ġdemonstr ate
Ġha bits
Ġcountry side
ĠMan agement
Ġcommission ed
Ġparliament ary
Ġwar ming
Ġaut hen
ĠPot ter
ĠS ale
ĠK ob
h ard
ĠB ened
ab ad
ĠJul ia
Ġcos met
Ġcost ing
Ġfra g
ĠU g
ia h
Ġin aug
Ġf erry
elt a
Ġrail way
em pt
ĠF C
r ane
ĠD ian
Ġlo aded
Ġcontrib ute
B oth
ĠHar am
ĠPre vention
Ġridic ulous
Ġun con
Ġdec re
ruct ive
Ġt ub
Ġp el
Ġl ion
ĠC amb
W est
h op
Ġd ock
at ab
Ġm ourn
ast ing
Ġtorn ado
Ġairstri kes
ĠFul ham
ang el
ĠAr ctic
Ġschool girl
oz y
Ġgang s
0 2
ĠP ap
ĠV ik
Ġm art
Ġdiscipl inary
on ies
ĠI T
Ġadv is
ro se
h r
Ġab usive
Ġexam ine
Ġtempor arily
Ġhousehold s
Ġrubb ish
ĠEx ecutive
Ġrequire ments
Jo hn
Ġinf amous
Ġconduct ing
ĠH ans
ĠUn til
Ġcontrib ution
ĠKe ane
ĠBrother hood
Ġrefuge e
Ġfundra ising
ĠWals h
Ġbr ace
Ġbron ze
ĠB anks
Ġen cl
ah a
ĠHar per
ĠCo x
Ġd ivers
Ġattr action
Ġl orry
h or
Ġb old
Ġcond ol
B O
Ġdescri ption
Ġn erve
umb ling
ĠJeff rey
ĠR aj
ĠJ ama
Ġsc am
Ġsl aughter
Ġperiod s
OW N
m ons
ĠD C
s un
ub ble
p it
Ġf iscal
ĠF ull
Ġm ath
Ġhel met
S e
Ġmusc les
Ġun happy
ĠStephan ie
ent er
Ġab ducted
ĠLank a
Ġsepar at
Ġarch ae
ĠNiger ian
Ġth igh
Ġconstit ution
ĠMarsh all
p o
Ġo k
ĠComm and
Ġview ing
Ġalleg ation
ĠP R
Ġhe ated
ĠB ald
lic ted
am an
ĠBal timore
Ġenjoy s
Ġcreat ure
Ġcirc le
Ġc roc
ĠE qu
oll ah
ĠIm m
Ġ8 8
Ġto oth
Ġp ills
Ġvis a
Ġun comfortable
Ġ197 9
ĠDen mark
W ell
Ġa steroid
ĠTr ade
ĠMel issa
Ġdec ent
ĠKar l
m atch
Ġfin als
Ġhuman ity
Ġob ese
ĠL enn
ĠWith in
uten ant
Ġle af
Ġt ap
tern al
Ġcert ific
Ġwas h
Ġ7 9
Ġtest ify
ab we
Ġdeterm ination
Ġun law
Ġdon ors
ĠSal v
Ġsmart phones
0 3
ĠD V
gh ai
ĠH ook
Ġprosecut ing
Ġaccident s
Ġsc ri
Ġbelong ing
Ġwas hed
Ġbelief s
s a
Ġext ension
Ġdet ected
imb abwe
Ġswe at
Ġcigaret tes
P l
um er
Ġinst antly
Ġdisp uted
Ġlav ish
Ġwhe els
Ġtr ace
Ġwear s
Ġcigaret te
ĠP ep
Ġexc itement
Ġsil ent
Ġback s
r ina
Ġre vers
Ġst ored
ĠR ail
Ġphenomen on
Ġmar ine
ĠShar on
E T
Ġd irty
Ġcompet itions
Ġbroad caster
threat ening
ag anda
Ġgun shot
Ġem issions
ĠL iving
ĠE ri
Ġchief s
Ġbur ial
Ġweigh s
Ġmoder ate
Ġphotograph y
ĠS aints
Ġbedroom s
Ġexcess ive
Ġ9 9
Ġreview s
Ġresear cher
Ġsub jects
ĠL iz
Ġfriend ship
Ġdesign ers
Ġexc use
terror ism
ĠThanks giving
he alth
or i
ĠAust ria
it ches
ot es
am ily
ĠMan ning
in ted
Ġre ject
Ġret reat
Ġto pped
Ġop ted
Ġhospital ized
Ġren ov
Ġ Ġ
Ġs in
Ġs ample
el esc
sh ips
Ġfranch ise
Ġbe head
ĠPer th
a ab
Ġh ill
ĠMay weather
g ian
ur ation
Ġt anks
lo e
Ġpainting s
s he
al le
Ġrev ol
ĠS old
Ġg ren
r ice
Ġt ube
ĠP rop
ĠMar athon
Ġneg lig
ĠEc u
p her
pl ed
Ġinvestig ator
L ast
Ġun iverse
Ġbar rier
Ġthan ked
Ġcons ervation
Ġrum ours
Ġsac rif
r ace
Ġhost ing
Ġaccommod ation
Ġwar s
ĠJac ob
g ie
W orld
ĠS T
ĠB ot
Ġboard ing
r ary
Ġobs c
Ġpled ge
Ġspe aker
Ġhapp iness
ĠI P
ĠH ague
cill or
ĠBe aut
Ġmere ly
Ġeff icient
Ġapproach ing
iv a
Ġobs erved
Ġh ire
Ġr anging
The ir
ĠStafford shire
D e
ĠN ash
Ġtrans ported
Ġtw ist
Ġble w
ific ations
Ġimp ose
acher s
cel and
um per
ĠMc N
Ġgener ated
Ġdemonstr ated
ĠSpan i
i op
ĠP ick
ĠSc ar
Ġbre asts
Ġresist ance
ow der
Ġe t
Ġdial ogue
C an
ia o
th ouse
ĠL ang
Ġmanufact urers
ĠDise ase
ĠThe res
Ġen able
Ġeur os
am el
Ġdec k
ĠH off
Ġrele asing
Ġme ets
ĠJack ie
aw i
ĠExp ress
pr ise
ĠHar vey
ĠAct ion
Dav id
ĠAl onso
ĠP ay
ain es
ĠPro gram
Ġgener ous
Ġunf ortunate
iol a
Ġtrail er
Ġbelong ed
ĠP as
Ġaud io
ĠS i
is ive
ĠT SA
Ġmod est
ĠSe bast
ĠLu x
Ġmist aken
Ġchamp agne
c m
Ġgrand son
Ġbur den
Ġper mit
Ġalle ges
Ġbreat he
ĠS ark
ĠG at
a uthor
p ot
Ġexp anded
de ep
i ples
Ġf u
ĠRich ards
Ġinfl ation
ant an
Ġstr anger
Ġf isher
ĠH ERE
ĠD ylan
Ġwr ist
Ġcapt ion
Ġaer ial
ĠTH E
Ġm ild
om ic
found er
he astern
Ġch amber
Ġs ou
Ġp ile
Ġsh oe
ass es
Ġcirc uit
uss ia
Ġdep ending
Ġpriv ately
Ġgun men
ĠNob el
On ce
Ġm akers
af ter
eal ous
ĠPrest on
ĠN av
z b
ĠD OWN
arth y
Ġachieve ment
Ġcondem n
ĠCrit ics
O ver
ĠC ant
Ġeleph ant
olute ly
er man
ĠZ imbabwe
ĠD ew
ĠF DA
Ġpr ay
are st
app er
Ġsuper b
s or
on ly
Ġpr ayer
Ġsupport ive
Ġstorm ed
o ft
ellig ent
ĠHay es
em ark
ĠVenezuel a
if fer
Ġbar rel
f rom
Ġpl um
g reat
ĠV ick
oz one
Ġs od
Ġinst rum
ĠRam sey
Ġn arr
Ġear s
Ġm erc
ĠB oko
Ġsecret ly
Ġtim ing
b n
d ahl
Th ose
ĠRe yn
ĠShan ghai
ĠM agn
ĠGl enn
g one
ĠWeek ly
ĠCrim inal
en k
ĠM ills
Ġconsider ation
Ġcho osing
Ġhung ry
un ity
Ġnot ing
ĠHug o
Ġtransport ation
Ġdon ation
Ġgu itar
ex pl
Ġlung s
Ġartific ial
E L
f air
Ġs iege
Ġo v
Ġre verse
Ġpal ace
Ġhealth care
Ġsol ic
E P
ĠT ib
ning s
Ġdifferent ly
Ġg ig
ĠM om
Ġsa fer
ĠR un
ĠMar ines
Al though
Ġadopt ion
lec ts
ĠB ian
raw ling
if ies
Ġcart oon
ĠNor wich
ĠWel beck
Russ ian
id y
ĠB uff
um ing
se e
ist a
Ġ8 4
ĠBlack pool
ĠPhill ip
pl aced
ĠEd die
Ġadmin ister
Ġdri ves
Ġsw all
d rop
Ġst aged
ĠP am
Ġdr un
Ġprem ature
Ġto urs
Ġcomm emor
ĠMc M
ĠAss istant
ĠC urt
ĠJer usalem
ĠMor rison
Ġpassion ate
ĠW itnesses
Ġthr illed
Ġadvent ure
ale z
Ġco al
Ġcomplain ing
Ġs ew
RO LL
ĠEcu ador
m al
am as
ĠI celand
ri ots
p ack
Ġsens ation
am ine
ĠSo chi
A b
Ġf olks
Ġass umed
Ġaddress es
Ġcooper ation
u is
Ġr all
Ġcost ume
Ġcompl ications
ĠT ax
Ġgrand parents
Ġconfront ation
Ġpoll ution
Ġmonth ly
Ġglam orous
Ġdischar ged
S ince
em outh
Ġj aw
ĠA j
Ġpre cious
h urst
ĠNev ille
Ġunder way
c ut
r era
ĠK i
ĠBl ues
Ġsc are
ĠHigh way
s ur
Ġor ph
Ġst airs
Ġle ct
Ġinflu ential
Ġadvoc ates
Ġb ic
Ġdel ight
Ġinsp ire
Th ree
ur o
Ġra ids
Ġprom oted
ĠY ah
Ġsw itched
Ġre nd
Ġout door
Ġgard ens
ĠL en
Ġrecommend ations
Ġtrem end
Ġ8 1
Ġform ation
ĠSand usky
Ġcomprehens ive
in h
Ġequ ality
work ing
ĠGun ners
ĠFrank lin
ĠUK IP
IC K
ent ry
ĠRep resent
ĠE aster
ĠK ane
Ġsn ake
Ġrecon st
Ġexperi encing
rie ving
friend ly
Ġscen ario
Ġworry ing
ĠBened ict
Ġto b
Ġprov ision
ĠUs ing
Ġp ave
Ġasp ects
Ġlad ies
Ġcr ushed
Ġest ranged
Ġl ane
Ġinsp ector
vere ign
Ġmain tenance
Ġball ot
Ġjud icial
isher s
Ġped est
ĠW rit
Ġneg lect
Ġcitizens hip
Ġr ings
Ġ8 6
os c
Ġsh y
ĠB rew
Ġsp o
Ġ198 7
Ġmyster ious
ul us
ur ious
Ġprot ein
por ary
st age
Ġcomprom ise
ĠSC ROLL
ĠGu y
Ġinnoc ence
ĠMot or
ĠJen kins
ĠSt ef
ĠAd eb
Ġdevelop ers
ĠSu z
ĠCons ervatives
Ġin ch
Ġout lets
Ġpe er
ĠVictor ian
Ġmeas ured
ĠW igan
th rop
ĠR ud
Ġdes erved
Ġess entially
an ed
ĠJ ar
Ġcontr acted
Ġpun ished
Ġpred ecess
Ġign ore
Ġphil os
Ġcl ick
Ġ8 3
ir i
Ġbl own
ĠEv ent
Ġrout es
ĠSum mer
Ġpolic eman
ĠDak ota
ĠD ist
Ġtri ple
Ġfit ting
Ġexp ed
gr and
Ġple ading
Ġval ued
Ġconn ections
Ġport ray
ĠCap t
Ġsend s
Ġuns uccess
bo at
s ic
ĠI RS
Ġintegr ity
E G
Ġm aker
ĠH ob
ĠK atherine
Ġfix ture
Ġaston ishing
ĠNic olas
n ia
Ġexam ples
Ġh ub
ĠM es
ĠCl ay
erv atory
Ġro ots
Ġcomment ed
Ġprem ium
st ed
Ġembarrass ed
ĠS lo
Ġmar riages
Ġdistrib ution
ĠG rey
ades h
Ġgro cer
ĠL ions
ĠMcC arthy
S ec
Ġres ume
ĠV A
Ġinstit ution
Ġtit led
ĠPort land
Ġcons ervatives
Ġstr angers
Ġtrou sers
Ġs id
ro e
ĠIn side
ĠWild life
ĠB ab
op ard
ab outs
v ol
ĠD ra
Ġmanufact uring
ĠSer b
! âĢĻ
h ad
ĠM uch
Ġ8 7
Is lam
Ġcom ic
Ġtong ue
ĠR ush
Ġam ateur
ott age
Ġvis ual
ĠMark et
Ġentreprene ur
t urn
ĠC it
ĠI ron
ĠN ation
ĠHe ather
ĠK ens
Ġgl ory
Ġb ip
ĠI ce
Ġren ted
ĠMah m
Ġn ude
int age
ĠCole man
ĠOs ama
Ġster e
ro ck
Ġcommit ting
Ġpri est
j i
ĠFin ancial
believ able
Ġf et
ig e
ĠAnt ar
ĠT ampa
Ġmonit ored
stan bul
Ġlight ning
um a
ĠAl v
Ġprep ares
Ġju ven
Ġm aps
ĠGirl s
her s
Ġovert urned
Ġs add
ĠP ul
aim s
Ġmag ic
Ġrelie ved
Ġtob acco
ĠSh a
Ġgrad u
Ġlapt op
Ġsc rap
Ġens uring
sh aw
Ġfem in
rane an
Ġp y
Ġan cest
back s
ĠR uth
ĠTh ank
Ġso vereign
ug ly
ĠGard ner
Ġwas hing
ĠK al
c ony
ri pp
ĠP ie
ĠD elta
ĠL ook
ĠCh allen
Ġann oy
Ġstrate gic
ast e
Ġeat en
Ġassaul ts
ig ers
Ġal ly
ĠSy stem
c or
we gian
ĠWh ich
f are
ĠE mp
ĠUn like
Ġshut down
ĠRob b
Ġprefer red
antan amo
ĠM S
Ġhom osexual
Ġremind er
aly mp
P A
Ġlast ing
Ġnom inee
Ġisol ation
Ġteam mates
Ġteam mate
Ġhard est
ĠKardash ian
O ther
Ġd atab
Ġdrun ken
Ġunderst ands
ĠS ally
us hes
Ġtr ash
ĠCar ney
ĠC oul
Ġsh arks
Ġcampaign ing
ĠMalays ian
ĠVill age
Ġw and
ĠCl ose
Ġ0 1
Ġut ter
ac les
Ġdirect ors
Ġpract ical
ĠH em
it udes
Ġsh aking
Ġaffect ing
ĠAl ong
Ġblank et
Ġn inth
Ġch ann
ĠRev olution
Ġsc ary
Ġra pper
ĠSer ie
SP CA
Ġc ried
ĠB orn
ĠP oint
ĠR u
ĠMar co
ĠTh or
Ġpro st
Ġste pping
Ġvent ure
un ct
ĠMan ager
Ġe Bay
Ġsub urban
anc hes
Ġep ic
ĠD ame
Ġattend ance
Ġtrust ed
Ġbal cony
S hab
O L
am ents
Ġpass age
ĠEng ine
Ġprosecut ed
Ġ198 5
Ġadvoc ate
Ġdetain ees
ĠTechn ology
Ġc ave
ĠE le
pl us
oty pe
in os
Ġl od
te en
ĠChampionship s
Ġeur o
Ġ *
Ġt ropical
Ġtheat re
Ġm ug
Ġcrash ing
Ġbod ily
ĠA S
Ġag ric
Ġobser vers
Ġg ut
Ġpro s
ant ing
Ġra ided
Ġg am
ĠC av
ets k
Ġprem ier
Ġinsurg ents
ĠHus sein
Ġsh orts
c Ã©
Ġcon vert
Ġprogram mes
n ie
Ġcomple ting
ĠGu antanamo
ĠR ica
ĠCon stitution
ĠDes ign
ĠMid dles
Ġwood s
âĢ Ķ
Ġint imate
Ġmatch ing
ÂłÂłÂłÂłÂłÂłÂłÂł ÂłÂłÂłÂłÂłÂłÂłÂł
ke ys
sp oken
ĠEll is
ĠM ey
ĠG em
ĠK a
ĠM ans
Ġexp ansion
Ġsure ly
ĠWall ace
ĠPoc hettino
n ew
ĠS ullivan
ĠM atch
Ġch ains
ĠPat rol
ĠRos ie
ag les
ĠF ans
Ġdis rupt
Ġcruel ty
Ġa uthors
it zer
Ġaut om
L ondon
g i
Ġh acked
Ġal ien
Ġexp ense
ĠJo an
Ġrest ricted
ĠAd v
ĠMor oc
Ġconv ention
pro of
ĠTai wan
Ġin mate
Ġhand ing
ĠRe ading
Ġf oster
ĠEvery one
Ġmer ch
wh o
Ġconsider able
st ock
ill as
ĠHer itage
Ġemer ge
Ġpension er
Ġrehab ilitation
Ġsch olar
ĠTheres a
ĠL ooking
Ġne ut
Ġres erve
Ġbreak through
Ġarrang ements
M c
up t
Ġmy th
Ġprinc iple
w ind
ĠR ory
Ġpre y
Ġrub ber
Ġbackl ash
ĠD awn
Ġequ ipped
b ishop
v as
Ġt ension
ĠWil s
Ġsun shine
it ter
us c
Ġsh ipping
Ġc ours
Ġcl ues
n ormal
s ign
Ġd rought
p owered
Ġcompet itors
ĠTM Z
ot ion
Ġra ge
ĠCrime a
Ġev olution
Ġconf usion
Ġreview ed
Ġunnecess ary
Ġl ips
Ġsh irts
ĠCh ange
Ġad equ
ĠEd itor
ĠW ang
Ġpe ers
oy le
Ġind icted
ĠZ ucker
Ġsem if
imp se
Ġimprison ment
re ated
Ġ13 0
on el
ot ton
Ġdevelop ments
k ok
n et
Ġcl ouds
Ġbon us
ĠBM W
Ġwrong doing
ĠLe ft
Ġcab inet
Ġearning s
Ob ama
f ts
Ġcent res
Ġlight ing
Ġstreng then
ĠO mar
Ġplan ets
Ġarg ues
Ġnick named
) ;
Ġpost p
Ġg ates
Ġwe ird
amp ed
Ġch ips
Ġcle ver
Ġbl asted
Ġmanufact urer
ĠLind say
Ġb ats
Ġout fits
Ġp oured
Ġdep uties
aug hed
ĠChap man
ĠG olf
Ġbelie ving
Ġdepart ments
M al
i ors
he art
Ġser ial
Ġepid emic
ĠH ugh
ĠRep ort
Ġinsp ection
Ġover haul
ĠBal i
Ġafford able
Ġdeal er
Ġtoug her
Ġinst ant
Ġbreak down
iff e
Ġdecor ated
Ġreck less
ĠR ab
oc ial
Ġen emies
iff s
j ection
Ġreg ulation
Ġren owned
ĠBry an
ĠBerg dahl
j ad
Ġt sun
Ġdiscipl ine
ĠR ah
ig ue
ĠNatal ie
ĠL im
Ġdeep er
Ġcred ited
d em
er ts
il ies
Ġref lected
Ġ198 1
Ġke ys
ĠCar n
Ġvol ume
Ġunf ortunately
ut er
Ġgl impse
Ġamb itious
ĠD ark
Ġpart ially
s ky
Ġshe ep
Ġkill ers
Ġanch or
Des pite
am mar
âĢĿ .
ĠTh orn
Ġmusic ian
Ġrom ance
ish a
Ġsol utions
Ġemb ark
Ġpoison ing
h ift
l av
Â ¿
ar an
Ġcare ers
Ġtravel s
ĠP el
off s
Ġele g
er r
Ġl aser
Ġnegot iate
Ġrenew ed
ri que
ĠPl ace
Ġunemploy ed
ĠAth let
ĠJ ake
Ġsurviv or
k ill
ĠL is
uck ed
s enal
en berg
Ġre acted
ĠH S
ĠR ain
ĠBlack burn
ĠSuff olk
Ġcatch ing
Ġprinc iples
Ġbu zz
Ġqu ake
Ġgood bye
Ġprop aganda
Ġimmigr ant
Ġapolog ize
Americ ans
Ġflo ors
s ki
Ġadm ission
Ġ ,
Ġth us
Ġg ene
ĠTr ump
Ġvol ley
ĠSerge ant
C O
Ġn avy
Ġsuggest ions
or able
Ġp ope
ĠRo om
Ġg rip
ĠL ie
Ġrec l
Ġgr id
sh ore
Ġdet on
I nd
Ġupd ates
ĠSark ozy
k ward
ĠG ran
ric s
Ġmain stream
Ġdoub ts
Ġshot gun
Ġgener ate
Ġgrad uated
ĠCroat ia
ĠM erc
Ġpro stitution
Ġass ured
Ġhor rified
Ġcondol ences
ed ed
ĠBrit t
Ġstrong est
i ability
ĠB in
ĠG ove
ss on
Ġtrad emark
Ġexerc ises
ĠK ier
ih anna
Ġconcentr ation
g ot
r ise
. âĢĿ
Ġeng aging
ipp a
Ġcroc od
Ġch asing
ĠA P
ĠP arents
Ġste ep
Ġassass ination
Ġorganis ations
Ġd ug
Ġestablish ment
Ġcin ema
r ange
Ġ u
Ġl aughed
Ġgl oves
i ago
Ġauthen tic
Ġp ad
oz ens
Ġphr ase
het or
Ġjump s
h ave
Ġt ale
ĠH alf
ĠAndrew s
Ġfeed back
Ġv ocal
Ġbus es
Ġdeb ts
ĠLaw son
Ġpleas ure
Ġre aches
ĠH orn
ĠDon etsk
ĠC ov
ĠK az
ater nity
ric ia
Ġphotographer s
ĠWhe ther
y ers
er ies
Ġn od
ĠI stanbul
ĠBar on
ĠDet ectives
ĠWell s
e ast
Ġc emetery
Ġappl aud
Ġcoff in
Ġretail er
Ġfl aw
ĠCor oner
R I
s ize
Ġstr oll
hy dr
Ġinter im
ĠRam os
F irst
Ġpresident s
ĠSal t
ĠKens ington
Ġl ied
Ġpurs uit
ĠWils here
M art
W as
f i
ĠE sc
ĠSt orm
ĠCon cer
ind ed
Ġsub way
ĠBang l
Ġextrad ition
Ġd ent
ĠM I
ĠHe y
r in
ur i
ĠC raw
Ġv ary
Ġun armed
Ġhum il
Ġanonym ity
Ġste ady
ĠFranc ois
l isted
Ġ14 0
M s
Ġp ays
ĠCh ambers
ĠBe yon
Ġthreat en
Ġplun ged
ĠN ixon
wh ite
Ġperce ived
Ġemploy er
ĠTib et
F r
at oes
ow een
ĠF at
Ġval id
ch ange
Ġrem orse
ĠFA A
per ed
ĠRe uters
Ġhero es
ĠB ourn
Ġpre ced
Ġban ning
Ġspirit ual
un s
Ġsell s
Ġunp aid
Ġdispl aced
Ġp ir
Ġsee ks
Ġass ume
ĠGonz alez
Ġs orts
ĠF ried
ĠE lection
Ġpres erve
Ġins ight
ĠPar alymp
ĠW end
ĠAm nesty
Ġendang ered
he ster
Ġch ased
Ġpl acing
Ġref lects
Ġmat ched
Ġc ater
hold ers
Ġoccup ied
ĠTar get
ĠR ig
if ty
ĠOp rah
ĠL az
ĠNe ither
ĠV erm
Ġres erv
Ġrem embers
ĠF ig
Ġr hetor
ul um
ĠD isc
um in
Ġwhere abouts
Ġresol ved
ĠPear son
ĠW o
ĠGar ner
h usband
os er
Ġr ang
D r
Ġth ieves
ĠG ir
Ġdest inations
Ġer rors
Ġswe eping
ĠT a
ĠP ic
ĠP age
Ġdest ro
m and
ot o
Ġsub mar
ik es
Ġfire arm
Ġpurs uing
Ġconsist ently
Ġmir acle
O U
Ġst ones
ĠO cc
over s
con i
Ġident ification
onn ie
Ġcouncil s
Ġpsych iatric
g ender
ĠC our
ĠRed s
ĠRoll ing
ĠLiber ty
ĠS ometimes
Ġex ists
Ġt ables
he em
Ġrub ble
M anchester
Ġrock ets
ĠSebast ian
d eme
Ġdisappoint ment
Ġpost ers
ĠRom ania
Ġinsp ectors
Ch rist
t aking
in ction
ott a
Ġtrib al
Ġflood s
ĠMont ana
Ġhack ers
ĠM ul
Ġs ect
ro be
ĠP ast
ĠInd ust
ĠCon ference
ĠNor wegian
Ġult ra
ĠFil m
ĠKenn eth
ac er
oph ob
Ġg onna
um an
Ġlif ting
Ġtradition ally
Ġw ives
oura ge
Ġr it
Ġmed ium
ĠPaul a
6 6
ĠV i
uc ed
Ġresp ects
Ġconv oy
ĠAsh ton
ĠE lement
ĠK le
te am
pp o
Ġcomp at
ĠUn fortunately
Ġcomp assion
Ġbre ed
ios ity
ĠJ ol
part y
or gan
man uel
Ġsk ies
ĠF ast
yan mar
igg ins
w yn
ĠF actor
Ġdim in
ĠShi ite
n ell
Ġc age
ĠW W
ĠBr ig
Ġtop ic
Ġsk ill
Ġintern ation
Ġsuit able
iter ranean
ĠF un
ĠJ ail
sh aped
Ġbull ied
ĠSomal i
Ġun l
Ġreal istic
Ġkne es
Ġdict ator
ĠD ow
qu er
Ġwhen ever
ne ver
le ading
el ed
Ġspec ially
Ġshel ves
Ġeleph ants
Ġh orn
Ġto ss
Ġprim arily
ĠFin ally
ĠHispan ic
T r
Ġb unch
ĠGer mans
Ġguil t
Ġint elligent
ĠB urg
Ġlot tery
H ar
ĠS ong
ĠP orts
Ġto pp
ici ency
Ġhome own
ĠBar ca
Ġs izes
ĠPl us
Ġcount less
ext reme
ĠH istor
ĠAss embly
ĠAv iation
ĠHaz ard
B rien
Ġinc ent
onym ous
ĠHam mond
Ġgrad ually
Ġru ined
ĠT aking
ĠF inal
spe ed
Ġc ro
ĠDan ish
Ġcontract or
EA L
Ġdece ased
9 00
Ġsa iling
Ġquar ters
Ġp atch
ĠSh in
Ġdr owned
h it
h ole
ĠHall oween
Ġgain ing
Ġtort ured
L C
ĠP il
ĠJo el
Ġmakes hift
ĠReyn olds
L ICK
Ġass isted
Ġdefend ers
Ġtsun ami
Ġout p
Ġar ray
Ġadv ances
let cher
mark ets
Ġd re
ri ver
ĠR ihanna
ie u
Ġpress ed
St ar
Ġchann els
ĠMad ison
ĠValent ine
Ġf ib
ĠSh ane
Ġbar gain
Ġimprove ments
Ġaccomp any
ĠFel ipe
ere k
ĠGl en
s ub
Ġr ans
Ġcomp ly
Ġsec rets
uster ity
Ġt an
ic ating
ĠChurch ill
EN T
Ġref und
S outh
to o
Ġmaintain s
ĠPen insula
Ġsymp athy
Ġn ortheast
ĠV iol
Ġp or
Ġdr um
Ġepis odes
Ġnon profit
ĠBourn emouth
ot ted
Ġrebu ild
f ly
par ts
ĠGib son
Ġopp ose
Ġm our
ĠIs a
Ġnot ified
ham ed
Ġintro duction
Ġspect ators
en ess
ur ches
ĠIndones ian
ĠMed iterranean
ĠAny one
Ġpupp y
Ġreluct ant
st op
ĠS earch
ĠI ss
Ġdistrib uted
ef in
Ġchap ter
ĠSpani ard
Ġr ice
Ġs ung
Ġ20 20
ĠBer ks
Ġeur ozone
Ġsub mit
Ġaut ism
E d
k ind
ĠFo ley
et ary
ĠH at
ess a
Ġpl ates
Ġfar mer
ĠCong o
Ġoper ators
Ġf illing
Ġd ive
Ġ198 3
Ġhun ger
ĠCorpor ation
" ,
Ġfl ies
Ġbr ows
Ġperman ently
ĠBang kok
ĠT ah
Ġdef ined
Ġrequ iring
Ġdist raught
ĠWal ter
Ġsl ide
ĠTr ay
ĠMal i
Eng land
Ġde le
Ġpr ank
Ġt as
Ġth under
av an
Ġste am
Ġflu id
ĠR SPCA
ĠBul ger
ĠAm endment
Ġsens ors
Ġt ire
Ġg ambling
ĠBe h
atter ing
ĠBre ak
Ġreact ions
ĠAle ppo
Ġpop ulations
Ġocc urs
Ġasp ect
b led
z o
Ġg re
ar ming
ĠC art
Ġd irt
ĠM yanmar
Ġaud iences
ĠC and
ĠMcL aren
Ġoptim istic
ĠR ut
ĠM oon
ĠAll iance
Ġeduc ational
Ġtrib utes
ĠPict ures
ĠCar r
Ġblock ing
ĠWin ston
Ġindic ates
ĠUn it
ĠJohn ny
Ġcorpor ation
om o
Ġsol o
ĠYah oo
ĠK abul
ept ion
ĠOr ig
ĠJenn y
ĠDou g
girl friend
Ġdeal ers
v ious
ucr ative
ra ined
Ġbrief ing
Ġso ap
Ġ9 99
ĠTra vis
Ġphilos oph
ĠE cc
Ġch ip
ĠEar ly
Ġp istol
ĠE ug
Wh o
f ted
g ame
Ġup rising
Ġfin ances
Ġrevel ation
ĠWind sor
Ġoverwhel med
ay or
Ġacqu itted
Ġastronaut s
un es
ĠS on
ak u
ĠK ur
Ġad ap
ĠCh uck
t ech
ĠMar tha
ĠPaul o
Ġabs or
qu al
Ġwork place
ugg age
Ġric hest
ĠLenn on
Ġnorth west
Ġbroad er
cont rolled
Ġdevelop er
ĠDem s
Ġident ical
Ġp owder
ĠD ug
Ġbu ff
est on
lear ly
Ġdisp os
Ġg ains
Ġlog o
Ġsurge ons
Ġadministr ative
beat en
in ness
ĠS et
Ġfl ower
Ġpro ving
Ġcred its
ĠChes hire
Ġshe er
Ġ201 8
Ġbr ush
n ut
z i
Ġst ark
que z
Ġinquir ies
Ġpersu ade
at ile
Ġl ucrative
Ġcom et
Q u
f ig
Ġh id
Ġd iverse
ĠJ ub
ĠK am
cl aimed
Ġlover s
lus coni
Ġb ands
Ġ197 8
Ġcontam inated
ĠPorts mouth
Ġhur ricane
Ġcours es
Ġcont ents
Ġoccasion ally
ĠElement ary
ac ent
Ġdign ity
Ġanticip ated
ĠD od
Ġtremend ous
Ġl oot
ile e
s ome
ĠC yr
ĠB elf
ĠG iven
Ġsecond ary
Ġf ails
el lect
Al so
Ġcl ar
Ġesc orted
Ġdraw s
ĠPit ts
Ġs ounded
ro b
Ġm elt
ron ics
n est
Ġmoment um
ĠOliv ia
le ase
ĠT ommy
ĠC ome
f ar
ut or
ĠH ut
Ġcycl ist
Ġinvest ed
Ġm ounted
Ġr h
ĠHol y
hab i
ĠFur ther
se en
Ġfire works
Ġabs ent
ĠP ippa
Ġ196 9
ĠDV D
ĠM aid
em s
ĠGP S
ra ud
ĠPal m
Ġaccount able
Ġcounter parts
Ġ umb
Ġl oun
Ġwh ales
Ġinto x
ai res
Ġharm ful
ĠM ersey
ĠJan et
Ġcard iac
Ġmand atory
Ġsp ree
mar ks
Ġprem iere
Ġquiet ly
f ighters
emb led
Ġsuperv is
ĠBox ing
ĠTrip oli
ul ted
ĠJess e
f eld
Ġinc l
Ġir re
ĠAnt i
ĠCh i
ardy ce
am my
ĠJ un
Ġpr incess
back ed
ĠKen yan
Ġd ancer
Ġapp alling
b ig
Ġst ays
Ġf ict
ĠD im
Ġwor ries
ĠC atal
og en
ĠBerks hire
ĠPle ase
Ġtreat s
Ġfirm ly
d ep
ĠM ang
ĠZ e
ĠBl as
Ġoper ates
ung le
Ġc ere
ĠF letcher
Ġ19 30
Ġmod elling
ĠZucker berg
opp ers
Ġexpand ing
ĠN one
Ġgun fire
Ġcollect ive
ĠEt ihad
as ant
Ġv icious
Ġsen ators
Ġc aut
ar n
ĠW a
ong a
Ġneighbour hood
or ie
it ans
ĠH and
Ġk m
c le
Ġ201 7
Ġsuccess or
ĠCamb od
Ġplum met
ill ery
om er
ĠB T
wh ich
Ġmis deme
Ġwithd rawn
at on
Ġfree ze
ĠP GA
co on
ĠSand ra
he ll
ĠL ance
Ġrepl acing
p ound
ich ael
Ġa isle
art ing
ia z
Ġ197 6
Ġbe aring
ĠGe off
ĠF isher
ĠF itz
Ġaff ection
ĠTim othy
Ġh iring
Ġinj ection
Ġacknow ledge
ĠWork ers
ĠF u
Ġpl ug
ug ar
Ġri ots
ĠPriv ate
ĠN ep
Ġvolcan o
ĠBund es
ĠShe ikh
ster dam
Ġtroub les
ĠS usp
Ġup stairs
ĠRay mond
enk amp
g el
ĠL av
Ġtrend s
A P
Ġsh attered
Ġv ib
Ġdep orted
ĠD habi
ĠNew town
Ġsurf aced
Ġd iversity
ĠB ible
Ġ18 0
che ster
writ ten
ĠRuss ians
Ġadv isers
er able
Ġfar ms
Ġland l
Ġgrand daughter
ĠVict im
ion a
Ġalle ge
Ġgreat ly
ĠApp eal
Ġjoin s
eng u
Ġsing les
Ġthr one
M P
Ġlim bs
ĠCommun ist
Ġcertific ate
it ate
ĠM end
ĠHer t
go ers
ĠSpr ings
ke e
Ġsu ite
ĠEd en
Ġsuccess ive
Ġdocum ented
iot ics
Ġinterven e
ĠEth iop
ĠB ud
ra ham
aren cy
ĠBer lusconi
Ġun believable
ĠBah rain
ĠD rag
oll ar
ĠÂ ©
lig a
ĠGet ting
Ġairpl ane
io x
ins p
Ġvisit or
ĠWil ts
ĠSe oul
Ġaband on
Ġl inger
ul u
und ers
Ġche ating
Ġrob ust
Ġkn ives
Ġm ast
B E
Ġ ugly
Ġs ights
al id
ĠS ue
ĠAll ardyce
b age
Ġv intage
Ġt u
Ġb ang
Ġn est
Ġaw kward
ĠMag azine
le ine
Ġj oking
ink ed
er ia
Ġm ock
ĠM ain
ain ted
Ġtraum atic
ĠL ogan
Ġprov iders
ĠCher yl
w orld
Ġbra ins
rae us
Ġf ert
Ġth ief
ver ts
ĠN umber
iet ies
ĠFl oren
lam m
inc ere
ĠB udget
ĠR ugby
Ġpr isons
Ġcons p
Ġlay er
g om
le en
ĠMon ica
ĠSte enkamp
ĠEar l
d id
n ow
ĠM umb
Ġamong st
Ġbatter ed
ĠColomb ian
ĠAber de
ĠCurt is
Ġa ides
ov ich
ĠD a
ast on
Ġpur ple
ĠBoy le
Ġl y
run ning
opp y
Ġjew el
ĠMedic ine
Ġout raged
Ġass igned
Ġl uggage
Ġst ating
ĠB att
pr int
Ġauthor ized
ĠCent ury
ĠChe ster
Ġexch anged
ĠS ac
Ġbox er
ĠIv ory
Brit ish
Ġp ipe
ĠT on
Ġsim pl
g ue
ĠA IDS
ĠB il
Ġim per
Ġact ively
Ġb ases
ĠM ake
ĠR ams
gu ards
ĠKar zai
Ġinstruct or
Ġinter pret
Ġfr ank
ĠAm ber
ĠNic ola
p a
an im
Ġm asc
ĠH ave
ĠDub lin
ĠDaw son
th irds
amp s
ater al
ĠSer ies
ĠSal mond
ct uary
Ġrep ro
Ġhapp ier
Ġimpl ications
ab i
Ġlab elled
Ġanx ious
ĠAmb assador
E l
Ġweak ness
Ġfract ured
ĠD in
Ġremind ed
Ġwithdraw al
ag s
ĠSm art
o op
Ġass ert
ĠHond ur
Ġconvent ional
h aw
ĠC ay
the y
Ġport rayed
Ġcrowd ed
Ġrid ers
ĠPri or
ĠBrand on
ĠAm sterdam
Ġappro aches
Ġuncertain ty
Ġgr at
Ġhear ings
ĠStand ards
N S
ĠT itan
ec hes
az ines
ĠBl ood
Ġd a
qu et
Ġrun ners
Ġj unk
anc ies
Ġaut o
ĠD erek
Ġde er
ĠMir anda
ĠS ide
ri x
cent ury
step s
M iss
Ġw ra
ĠM ath
ag g
Ġsoon er
er als
pt ic
Ġfoss il
ĠIs ab
Ġhy per
r ate
Ġd itch
Ġar ra
Ġcock pit
Shab aab
Ġdistinct ive
ig en
ur bs
Ġy oga
Ġbr ick
Ġcap abilities
ĠW r
Ġesc ort
Ġevac uation
ĠIs le
ĠPS G
ĠWor ces
Ġsustain able
Ġf ox
in is
Ġf ond
Ġdis hes
Ġrob bed
ĠHe b
Ġshow ers
Ġtechn ologies
ĠB and
ĠK end
ĠCl ick
Ġbuy er
Ġdatab ase
u ke
Ġst icks
Ġmed ics
yc les
C E
t rick
ĠMcC onnell
f rey
ĠJo han
Ġemp ire
oca ust
is k
th is
ĠCelebr ity
Ġboard ed
Ġbelong ings
ĠStud ents
Ġstuff ed
Ġunlaw ful
ĠBundes liga
um acher
Ġy ield
Ġappro ve
Ġdep ends
uper t
ĠWind ows
h ome
Ġve to
Ġproduc es
ĠRich mond
Ġexplos ions
g ically
Ġp ap
ĠM ik
Ġ3 60
ĠChrist ina
Ġf ancy
Ġd uck
ĠB rent
Ġvict ories
Ġski ing
F i
ĠS elf
ĠBut ler
ĠMu ham
h anded
ĠS A
ĠJ oint
Ġadd ict
br aska
ĠDe ep
ĠStud ies
ĠNov ak
m el
ĠM ach
Ġhand bag
Ġaccess ible
Ġm ales
ĠSt ri
Ġident ifying
ĠPet raeus
Ġrhetor ic
Ġp ond
Ġfor b
Ġ196 3
w ed
it ime
ĠM ug
he ro
ĠP in
Ġr ider
Ġfam ed
co very
Ġbar red
ĠMont gom
Ġ@ @
elesc ope
st ant
bour g
ĠEvent ually
Ġn aval
Ġfl ats
Ġpaedoph ile
Ġreview ing
ĠGene va
Ġacc ord
Ġsuper markets
ĠMoham mad
Ġroutine ly
ĠRa heem
ĠW orth
ĠL ed
Ġhas ht
ĠG round
Ġdep ressed
Ġdrop s
Ġ3 50
ĠWilts hire
ĠK id
Ġmag azines
ĠGriff in
Ġtas ks
Ġshort age
Ġbuck et
ĠB ody
ĠO d
Ġfl esh
Ġconsum ed
Ġso b
Ġnurs ery
Ġpoll ing
Ġscri pt
Ġsid ew
ĠM ust
ĠH ilton
ĠJ et
Ġsp ine
reat ment
Ġ19 40
ĠDe bor
ĠRec ords
Ġcorrespond ent
feed ing
Ġsubs id
Ġb ay
Ġpoor ly
Ġcontroll ing
ĠShort ly
ĠToy ota
e ves
Ġp owered
Ġm aid
hen ko
ĠGreg ory
Ġa usterity
ĠN orm
Ġaddress ing
ap ova
Ġgr ace
Ġeduc ated
Ġorgan ic
Ġb ump
se ek
On ly
he arted
ĠF ish
Ġsu e
Ġrac ially
Ġsouth west
Ġjuven ile
ĠL or
ĠFrench man
Ġincor por
Ġman if
Ġfin est
Ġacqu ired
ĠM aking
ĠM oney
Ġbow l
Ġexclus ively
Ġfasc inating
Ġshe ets
ĠCat hedral
ri or
ĠN ico
Ġles bian
ĠDian e
ah o
Ġpar alys
ĠMin isters
Ġcock tail
ĠSut ton
Ġembarrass ment
Ġrecruit ment
Ġr ated
ĠCent ers
ĠDun n
New s
ĠMersey side
Ġsh ook
Ġaccompl ish
A A
Y our
ĠB ird
Ġpres cribed
Ġr ides
Ġv ic
ĠSt y
Ġcart el
ĠBever ly
c asts
ĠS aid
Ġstra w
Ġder by
Ġexpress ing
fund ed
f light
ĠCamer oon
Ġpack ages
Ġok ay
ĠBur ton
r ation
ĠAss ange
h unt
Ġw ished
Ġfl our
Ġret al
Ġ196 8
Ġju ice
ĠMade leine
Ġt iger
el i
Ġ16 0
D uring
Ġcomp are
Ġbr anches
Ġsuffer ers
ed y
Ġparticip ating
Ġreg ain
Ġmem oir
Ġrest rain
ĠÂłĠÂłĠÂłĠÂł ĠÂłĠÂłĠÂłĠÂł
ĠBry ant
Ġeld est
Ġdiscl osed
8 8
A ust
ĠG add
ric ulum
ĠCar a
umb ria
Ġexcept ional
ĠMumb ai
ri ved
ers e
Ġch urches
Ġposs essing
Ġpast or
Ġform ula
Ġpublish ing
ic hel
Ġpartic les
Ġban ner
Ġprem ises
ĠLo han
f ive
ĠPat ricia
Ġcontr ad
Ġpress ing
Ġfant asy
ac ious
and als
Ġor al
Ġrespons es
in ces
ĠR al
Ġsu ic
Ġart work
Ġ197 4
ĠGlouces tershire
Ġc her
ĠV ogue
ĠY outh
ett el
Ġsurvey ed
ĠC able
Ġab duction
Ġhom eland
Ġw are
ĠH os
ĠOz il
ĠT u
Ġp und
Ġg host
ine jad
uct ions
ĠMiss ion
ĠPet e
astro phic
Ġdis gu
ĠCl arks
ĠSm all
ett i
Ġnarrow ly
t ry
v ision
Ġmin ing
Ġward robe
Ġsex y
Ġprof ound
omp any
Ġchair s
Ġswe ep
w art
Ġcons ol
com plete
Ġpan els
Ġquarter back
Ġtatt oos
ĠLyn ch
Ġimplement ed
ĠGriffith s
op ol
ph oon
Ġpar ach
Ġforeign ers
resp ect
A uthor
v an
in ally
Ġm ole
Ġ8 9
ĠBl atter
........ ........
ĠM ol
ell ar
ĠMcC art
ĠCont rovers
Ġillness es
Ġmotiv ation
ĠStand ard
oc c
Ġ9 2
aun ch
Ġamb itions
Ġd rain
ĠP ly
Ġint ellect
ick ers
Ġun beaten
Th ank
ĠHer o
Ġsurger ies
Ġl ighter
ĠM ia
udd y
Ġcomp iled
Ġj ealous
b one
c ation
an ium
Ġnot or
Ġsc ans
Ġunder gone
ĠCar lo
ĠFor bes
Ġsadd ened
Ġcul p
ĠDebor ah
Ġt ense
is ms
es a
ch ard
s ection
ĠNe braska
Ġt ide
Ġha un
ĠPat riots
ub a
Ġhealth ier
ĠSch umacher
Ġ197 7
ĠLat ino
ĠBangl adesh
ĠK il
str ing
Ġoverd ose
ĠC O
ĠC ah
M S
ĠK irst
Ġam put
Ġrank ing
Ġsmugg ling
Ġinnov ation
Ġfright ened
Ġintr ud
ĠL ily
stit utional
ĠTray von
Ġsk etch
cel otti
T C
Ġt une
ĠM ata
ĠC ad
Ġr am
ĠCon vention
f ried
in ator
ĠSh adow
ĠRe b
Ġconcer ning
Ġmain land
ĠSw ift
Ġcreat or
Ġfortun ate
act ing
Ġhel m
ĠTw enty
Ġint end
ific ent
Ġrecru ited
ale y
Ġro pe
ĠMir ror
Ġmemor able
d ec
Ġgr im
Ġbru ises
Ġramp age
Ġimprison ed
hum an
N P
Ġcrit ically
ĠMe gan
uer to
ĠF ut
ĠTh om
ne ider
Ġ197 2
IC E
greg ation
ĠConst able
b et
Ġ 00
ĠP ret
ĠV o
ach i
Ġfem ales
Ġarchitect ure
ĠBlas io
re hend
âĢ ĺ
ĠShar apova
Ġpip eline
is ure
Ġab d
old ing
Ġjust ify
ĠStra uss
ĠM ak
Ġst icking
ĠW A
ist ance
sp ace
Ġnation als
ropri ately
ĠHop kins
ĠHass an
ĠD ozens
ĠNew ton
ĠDon na
boy s
ic on
ber to
ĠPr inc
ĠArn old
Ġhapp ily
Ġagre es
ĠLyn n
at ics
es y
ĠBet ween
SP N
c at
Ġshow c
ĠTe a
Ġpers ons
ĠSuper intendent
Ġdiscl ose
ĠAlexand ra
Ġbo asted
Ġfort night
Ġnut rition
Ġdiplom ats
ĠS id
ĠK enny
Ġmotorc ycle
ĠC reek
Ġsk irt
Ġmark ing
Ġuniform s
Ġpock ets
3 50
S te
h ot
ĠBrit s
as ia
Ġformer ly
Ġvot er
Ġi OS
n is
Ġb ans
ĠW oman
ĠCh loe
ĠSc ots
air y
Ġinj uring
Ġpsych iat
sk irts
Ġreleg ation
ĠImm igration
Ġc ens
Ġcar riers
Ġn ic
ĠN atural
Ġsec uring
Ġind efin
ĠCon c
Ġas pir
ĠD ad
ĠL ist
Ġbook ing
6 8
Ġover look
Ġcar n
ĠAl ison
pr ising
Ġer r
Ġmag istrates
Ġmaintain ing
Ġcast le
Ġdiscover ing
Ġantib iotics
Ġhaz ard
Ġwrong ly
ĠOcc up
Ġun le
ĠSh ir
Ġbid ding
ĠPie ters
Ġg aming
ĠR iley
at ers
ĠJ ur
ĠEn rique
Ġenh ance
Ġhelp ful
Gen eral
uss ion
Ġle ap
Ġor ient
Ġtem ple
Do ct
e ats
ĠH uss
Ġas hamed
Ġlaun ches
Ġpl ag
Ġmar gin
Ġsuper star
ĠCam illa
ĠL ess
ative ly
Ġwrit ers
ĠX i
on gh
ĠB alls
Ġbel l
Ġcred ibility
Ġperm itted
Ġcoin s
ĠT ol
op ular
Ġpol y
Ġac ute
Ġexpl oring
Ġfrustr ating
ian cÃ©
Ġlo ad
Ġdeport ation
ĠT oo
Ġst ead
Ġcl utch
ĠPly mouth
ĠS oon
ĠMe h
Ġtro op
ĠMors y
Ġbe ard
Ġcr ashes
ĠFr aser
Ġfinanc ially
Ġsacrif ice
Ġc attle
Ġd ose
ĠA D
Ġd il
ĠG ing
Ġsub urbs
Ġaim ing
Ġindepend ently
ĠArch bishop
Ġc ra
Ġcost umes
Ġmod e
pher d
Ġh ind
ĠB h
Ġinv ented
ĠPark inson
Q aeda
l estone
om i
ig ation
Ġcontrib utions
Ġparticip ation
% .
w r
Ġquar ant
Ġapart ments
ĠProv ince
Ġexecut ions
Ġyouth s
b rough
e very
ĠAn celotti
Ġcosmet ic
u cc
Ġsm ash
Ġlist ened
ca ution
Ġkn ocking
Ġdisg usting
ĠS ak
ĠP uerto
Ġper ception
ĠRep orts
Ġstrang led
Ġp irates
Ġg rieving
ch ief
rew s
Ġrad i
ĠChamp ion
W here
ur u
ĠG B
Ġtack ling
en er
Ġn ail
Ġalt ogether
Ġhe d
ĠC owell
ĠKat y
ĠSh ould
Ch ar
b ecause
m ill
ĠT ab
ĠJ as
Ġbar riers
Ġ196 4
ĠEconom ic
Ġs ang
Ġplay ground
Ġsur re
Ġdestro ying
Ġind ex
Ġbene fic
Ġmas ks
ast rous
ĠU C
ĠKat rina
Ġcolour ful
c ap
Ġm un
Ġdis ruption
Ġso fa
Ġsur rog
Ġ11 0
A cc
Ġn asty
Ġsa uce
ĠR upert
ĠWe iner
Ġaccident al
it ic
Ġviol ating
Ġdecl are
Ġexam iner
Ġbarr ister
ĠHag el
w ould
ĠA er
ĠB ak
Ġsp ared
Ġinter pre
Ġcapt ive
Ġcas ino
ĠLut her
ĠChallen ge
on te
ĠI M
ĠD anger
ĠF ow
Ġare na
Ġout skirts
Ġdr ank
Ġprocess ing
Ġcapt ivity
Ġbankrupt cy
P al
he y
Ġrep ay
g or
Ġc ripp
Ġlegisl ative
Ġneighborhood s
Ġapp et
Ġden ying
Ġsty lish
Ġdis orders
Ġeng ulf
uff le
Ġpredecess or
ĠC ut
Ġch ol
ĠBurn s
Ġ âĤ¬
ell s
ĠCor on
ĠEmp ire
m ails
Ġacc ent
Ġdecl ar
ĠTr acy
Ġavo iding
ĠAhmad inejad
ur bed
ric ts
Ġinst ructed
Ġgra ves
Ġmut ual
Ġperpet r
ce pts
T e
Ġlay ing
ela ide
ĠBu ilding
ĠS EAL
Ġsc ra
lud ing
Ġgu ided
ĠCl aud
Ġpros per
Ex per
ĠMedic are
Ġdele ted
b ucks
v iol
ĠT as
H A
Ġp ier
Ġst ew
gr own
ĠHel p
Ġmon ster
ul ates
Ġch op
Ġtop s
ane y
ĠQu inn
Ġdeploy ment
Ġsurprising ly
ĠHol ocaust
Ġang le
Ġow ed
A re
F P
Ġd orm
ĠL ot
ĠSuper ior
Ġembr aced
C o
f aced
Ġgri ev
b ot
st ick
Ġloc ally
Ġvom iting
Ġev ident
ann ers
Ġconscious ness
M us
og g
ĠMon te
Ġprev ention
ĠH ood
Ġ' '
sh ots
Ġfather s
Ġir rit
col m
Ġs ank
Ġbl unt
Ġmurder er
Ġimm ense
G u
Ġcont acts
Ġmar g
Ġorder ing
ĠRig by
ĠC ob
Ġpl ight
Ġ9 00
cl osed
Ġbon uses
c ard
ĠM ove
ĠB ren
ear t
ĠF iona
ade qu
Ġserv ic
D ay
Ġst air
ĠD om
Ġcr owned
Ġorganiz ers
ĠFern andez
e ur
ĠV ettel
Ġgen es
ĠUS S
Ġcontract ors
Ġresc uers
Ġur ine
Ġinnov ative
Ġcrop s
S ometimes
l ia
ĠG iggs
Ġacc use
ĠAn a
ific ance
Ġbrut ally
ĠCru ise
Ġc ute
Ġc raf
oin ts
Ġwhere ver
rib ly
Ġpurch ases
ĠOak land
le igh
Ġear liest
Ġconf isc
Ġconsid ers
Ġamb ition
Pr ince
ir k
ri ft
sh irts
Ġimpl ants
ĠTunis ia
at em
an ie
Ġapp lying
Ġback yard
Ġexam ining
Ġfavour ites
Ġlay ers
Ġnick name
Ġcount ies
ĠBoy s
r ot
ĠPol icy
Ġcontem porary
Ġ9 3
ĠSe v
Ġmotor b
Ġflag ship
ĠSant os
7 7
ott o
ĠCl are
Ġhalf way
ĠHM S
mod el
Ġattrib uted
health y
ĠA br
Ġcor rid
G ood
Ġc ough
Ġdist ant
Ġprocess es
ĠSh ield
pr us
Ġparticip ated
ĠTer ror
ĠGlob e
e an
v it
ĠId aho
ĠE SPN
s chool
Ġ197 5
Ġmount ing
zb ollah
1 20
ĠL ag
b est
Ġb other
ĠAd elaide
ĠO t
Ġneighbour ing
ĠArab ic
Ġprivile ge
Ġmin im
Ġpo et
Ġproceed s
ĠPhot ographer
Ġbic ycle
e lect
Ġd read
Ġover c
Ġso ared
d el
Ġsh aken
Ġsu ck
Ġint rig
ress ive
Ġsupposed ly
Ġemotion ally
C hel
Ġf iction
Ġspe eches
Ġcontain er
ĠBl anc
pro v
c ore
Ġs ore
ĠS ay
ĠB i
ĠR oth
Ġcoun cillor
for cement
Ġlab els
ĠSa o
Ġprosp ects
Ġinev itable
e ah
al ion
ĠM aster
Ġdist ingu
Ġdisgr ace
D S
ĠCh ase
Ġcompan ion
h art
ĠK ind
Ġtransp arent
ĠP rom
Ġrob ots
ĠSur v
ic able
anc ers
Ġcoll ided
Ġs ections
Ġch illing
ĠK ro
Ġout s
oot s
ĠProt esters
f illed
Ġr aced
war f
Ġprepar ations
ĠO wn
Ġallow ance
m ort
ĠH ew
Ġpur se
ĠSur vey
Ġmigr ation
ĠN y
Ġbre eding
ĠCov entry
ene y
Ġdirect ions
Ġdecl aring
ĠFin n
Ġdesign ated
Ġdismiss al
Ob viously
ff iti
Ġann ually
Ġconfirm ation
gr aded
Ġb unk
Ġh anged
Ġpun ching
Ġintro ducing
Ġdefin ition
ĠBor ussia
Ġton nes
ĠBeat les
Ġneut ral
oll en
Ġpsych ologist
ĠT at
Ġexc av
Ġbom bers
ĠCy prus
Ġcost ly
Ġz ones
Ġbattle field
est hetic
Ġrest ing
Ġhar vest
Ġsad ly
Ġfiance e
ĠPitts burgh
Ġg orge
ĠJ ade
ĠSt ars
Ġro ver
Ġrepl ica
ĠEr d
ĠBeyon ce
Ġd ys
st ra
Ġloc ate
Ġshut tle
V ict
ĠX box
r acted
Ġch art
Ġminor ities
ĠBent ley
Ġl ions
Ġhe s
Ġtrans cript
rog ba
Un fortunately
in ian
Ġb ung
ĠT ogether
ĠB A
Ġtreat y
ĠFl oyd
Ġblog ger
ĠCirc uit
ĠS inger
Ġhead line
ĠRec ord
ĠMod el
Ġb er
om ous
so le
p rom
p ress
Ġref uses
Ġclean er
ĠMet ro
Ġcollabor ation
ĠWend y
Ġs incere
Ġphys ician
Ġencoun tered
ĠTown s
ĠSport ing
at re
ĠAlger ia
L iverpool
ra its
Ġpun ct
ias m
p se
ik ed
Ġdeb ates
Ġweekend s
keep ing
Ġathlet ic
D P
ĠAl t
Ġoper ational
Ġrespons ibilities
ĠTem ple
ĠLan za
Ġfor um
Ġeconom ies
Ġ196 7
ĠN i
ĠN olan
boy friend
G od
Ġdr ill
han i
Ġwond ering
ĠLord s
Ġinflu enced
fl ix
t heless
Ġf ren
ĠM ann
ĠUn ivers
Ġgrow s
Ġrum ors
Ġscre amed
ĠHert fordshire
ĠS ources
ĠW es
Ġtrans gender
Ġl ens
ĠM is
ĠH ollow
ĠP erson
inc ing
ĠAmb ulance
Ġclass mates
ĠPrim ary
Ġbre ached
Ġpat ron
Ġhy dro
Ġbatter ies
i ott
Ġin hab
th ink
n ered
Ġw iped
Ġd awn
Ġfl ank
Ġtelev ised
Ġk icks
Ġprov oc
Ġeye br
ĠPop ular
Ġthe ories
Ġre iter
ĠR ather
lic ts
Ġgun ned
ĠMal colm
ĠLu iz
N BC
l ay
ĠS ign
Ġnot ion
ind y
Ġsc attered
Ġkill s
Ġsign ificance
Ġri vers
ĠGre ene
Ġeleg ant
h is
ĠSh aun
ĠRe view
ĠGing rich
Ġhe al
Ġam p
ĠP att
roll ing
ĠW ade
Ġty coon
Ġprotest ing
Ġqualif ier
Ġvolunt ary
Ġsp inal
Ġbet ting
Ġdis l
Ġins ects
ĠDoct or
er ving
ĠSh annon
Ġimm inent
et ing
ĠEl sewhere
oz ni
ĠPass engers
Ġpr aying
Ġpersu aded
b ands
ĠAr ts
Ġ197 3
Chel sea
F K
ĠMad onna
Ġtransp arency
D ef
ĠG av
Ġreg rets
ĠAb raham
Ġlux urious
ĠHor se
Ġm it
od ox
Ġsl ashed
Ġn uts
ĠL oc
ĠRob son
Ġl ining
Ġev olved
Ġconf ession
Ġdr illing
Ġpred omin
ĠBul gar
v ine
ĠB ast
Ġpro stitutes
o oney
ĠMar ks
ĠTe en
ĠCah ill
ĠD yn
ĠHe zbollah
Ġhol y
ĠDale y
under ing
ĠSh are
Ġbo o
Ġp ale
Ġref ers
Ġroad side
wh at
Ġscr atch
Ġwithd rew
Ġrank ings
Ġguarant eed
h ma
H as
Ġsh orter
Ġall iance
Ġtweet ing
Ġobs essed
og ging
ott om
Ġimportant ly
ĠAir bus
Ġexch anges
Ġinstrum ents
p in
ul ously
Ġmar ched
Ġdrive way
Ġrequire ment
Mr s
m ic
Ġret iring
ĠMcCart ney
oc ide
ail ing
Ġ9 6
ĠKn ow
Ġachieve ments
bo ards
Ġab uses
Ġeth ics
ĠMuham mad
ĠClarks on
al ia
Ġrep ly
ocum ented
b ear
ĠT ech
ĠF ell
ĠGabri el
ĠC ulture
ĠAs da
Ġro ot
Ġadv ise
ĠEl vis
ĠRepresent atives
est ing
Ġmand ate
l ive
ou g
s u
Ġcat al
M ichael
Ġsolic itor
O C
Ġh ats
Ġcontrib uting
ĠUg anda
ĠPieters en
Ġsa ke
ĠH ous
C ol
Q ue
Ġf etch
Ġcur b
Ġpage ant
uk a
Ġsad ness
ĠAr rest
Ġspark ing
m aster
ĠW HO
Ġex ternal
Ġbra very
Ġlangu ages
Ġjihad ist
Ġopp osing
ic io
Ġg or
ĠG ross
ind a
Ġcr ude
ĠGood man
Ġmix ture
ĠMarc us
k ers
Ġp als
ĠRal ph
Ġs outheast
ĠT amer
ĠF ellow
Ġdis astrous
Ġb ury
Ġl ump
ĠL ah
ĠJ a
Ġprol ong
ĠPed ro
ĠIV F
ĠN ature
oll s
Ġwom b
Ġconsult ation
Ġgra vity
ĠEll ie
Ġalter cation
ĠJav ier
ĠVeter ans
Ġb ubb
Ġinc on
Ġjust ified
Ġdown load
Ġcour thouse
ĠSim ilar
ou ch
ĠAt hens
Ġbit ten
Ġrev ive
Ġcollect ions
Ġsh apes
gr ad
Ġw rap
Ġn anny
ĠS S
ĠP oul
iss ance
writ er
in j
ur rent
oun ce
ĠFred er
Ġp icks
ĠP od
Ġar son
Ġconcentr ate
ĠBrother s
M other
Ġsp a
Ġtr illion
ĠJol ie
Ġneed ing
Ġsuppl ied
Ġpave ment
ol ine
ĠA ur
ĠH oy
ĠP sych
Ġloc ks
Ġcor rupt
ĠCust oms
ill i
Ġal ike
ĠZ ara
Ġsum s
keep ers
Ġtreas ure
Ġlinger ie
ĠMontgom ery
S em
ou st
st ory
ĠD rogba
ure a
ign ant
Ġatt itudes
con f
ĠMed al
ĠStar bucks
Ġjud ged
ĠJane iro
ĠKier an
Ġp ensions
ĠF ah
Ġj ersey
ons ense
enz ie
or mer
ac ies
ĠR w
ger y
Ġcontr ac
Ġdr own
ains bury
look ers
Ġcl ashed
ĠGo ing
Ġbelong s
Ġmagn itude
ĠGadd afi
t ree
ĠC S
og y
,' "
Ġdi ary
Ġsal mon
ĠObs ervatory
Ġd ash
Ġv oy
Ġbus iest
Ġident ities
mark ed
ĠSerb ia
Ġm im
Ġhe ir
Ġnet ted
Ġcry stal
Ġbail out
ĠLie utenant
Ġin fer
le ments
all ah
ĠV iv
Ġrel iable
pr ot
Ġsal on
ĠAct ress
ĠHas an
Ġr ack
ip h
Ġpat ent
ĠFam ilies
9 8
Ġhe aling
Ġunder mine
Ġfiref ighter
ĠLeban ese
ĠI N
qu iao
Ġor che
Ġbl aming
Ġrecord ings
Ġbip art
Ġfict ional
m at
Ġhost ile
Ġkil omet
Ġt aun
Ġab ort
ĠWal ters
Ġdiplom at
e ze
Ġf iancÃ©
ĠS ou
Ġhum ble
em ia
ĠNew ark
over ing
Ġsub stances
Ġgrocer y
T ON
Ġb iting
ĠJ od
Ġtr im
Ġtrain ers
l ane
ĠS iber
ĠO m
Ġattract ing
ĠLincoln shire
S mith
Ġtrans it
Ġdiv ide
Ġplot ting
Ġdisag ree
ĠP hel
atic ally
Ġfail ures
ĠGard ens
Ġplan ted
Ġresp ir
ĠGu atem
Ġexha usted
Ġpod ium
ĠJ ak
Ġ19 45
Ġsl ain
ĠOr der
Ġcirc les
6 2
y t
ir us
ĠP itt
ĠK os
ov an
ĠPro f
ĠDel aware
al t
ott est
Ġimag ined
ĠWal mart
Ġkiss ing
G M
ad ise
ĠD oes
ore t
ĠNew man
Ġret ro
ĠGuard iola
Ġrib s
ĠJub ilee
G et
Ġd ental
ĠR ace
ĠO w
Ġun ity
Ġrele ases
Ġmilit ia
ĠHer rera
Ġeditor ial
Ġrestr ict
Ġstream ing
Ġhoney moon
Ġbus h
Ġheart breaking
Ġfest iv
Ġcorrect ly
Ġchampionship s
u um
Ġo usted
Ġinv itation
Ġwar r
Ġlands l
Ġindic ating
s aving
Ġa ver
Ġm ice
Ġj am
Ġ9 1
An other
Ġcateg ories
ĠH ack
Ġprot otype
Ġdoub les
Ġpaper work
ig ma
ĠP ant
ĠF ry
Ġman ages
ĠNot hing
Ġexam s
ĠEll en
N orth
ut ter
Ġwas ted
ĠB ach
ĠN air
ĠEx eter
ĠDen ise
Ġmisc ar
ais y
ĠHuss ain
Ġp uzz
ĠC LICK
ĠWhite hall
f r
l asses
Ġre he
ĠK ick
ĠBroad way
Ġf its
Ġmillion aire
ĠGil bert
ĠBart on
Ġlaw n
Ġcap ability
Ġfree ly
ĠCongress ional
Ġrif les
G r
b ull
ar in
ĠE state
Ġpre caution
ather s
ĠHond a
Ġly rics
ĠD est
Ġex otic
] ,
ĠAct or
Ġsche mes
def ense
Ġdesc ended
Ġtre k
Bl ack
Ġcompon ents
ĠAberde en
Ġc ottage
Ġun st
ov ak
Ġinsp iring
ĠBro oke
Ġobs erv
Ġund ers
Ġexhib it
Ġsurre nder
n els
Ġhum or
Ġsqu ir
Ġcommand ers
Ġinher ited
s qu
Ġst int
ĠR ivers
pr ints
ĠTra gedy
Ġphilosoph y
urea ucr
or um
ĠF ed
Ġbo ards
Ġcontest ants
l en
Ġm og
Ġex isted
Ġintens ity
ĠH av
um ble
ĠJoy ce
Ġmour ning
m ia
Ġoff ense
ĠComm ander
Ġsal v
ĠMount ains
Ġnegoti ating
Ġint ends
Ġprocess ed
Wh ite
Ġmanif est
k ar
ĠM A
Ġat roc
ĠW ozni
Ġinst r
ĠVis it
ĠRobb en
3 70
Ġf og
Ġin equ
Ġref lection
Ġsw elling
Ġcred ible
es ar
Ġsun ny
ĠAgain st
Ġdolph ins
ĠMahm oud
Author ities
q q
Ġt ang
ĠS z
ĠP ayne
Ġconst ructed
ĠFire fighters
ĠBol t
Ġoutrage ous
Ġbik ini
Ġout er
Ġexp ort
Ġ10 1
Ġprov oked
Ġsand wich
Le aks
Ġinstr ument
ĠH uff
all ana
Ġqu ad
% ,
ĠTh r
ĠGu inness
lyn n
ĠBoy d
ĠEvery thing
Ġappoint ments
Ġunsuccess ful
Ġmisdeme anor
ĠS ach
ris k
ĠSub s
Ġb its
Ġpres um
ĠRes erve
r ons
w ait
Ġshoot out
ĠW iki
Ġpre jud
Ġvill agers
Ġbul k
Ġprior ities
Ġven ues
ĠCurrent ly
Ġecho ed
Aust ral
ĠU pper
ĠBut ton
Ġdec ides
Ġass essed
ĠDeb bie
Ġumb rell
ĠD ig
per ing
Ġmin imal
Ġsuperv ision
Ġbl asts
ĠNet flix
ĠGP s
Ġ9 8
ĠCr icket
Ġsimilar ly
Ġmusic ians
ĠD ays
Ġne arest
Ġexp ose
ĠPl ayer
ĠTrib une
Ġprohib ited
u y
Ġn erves
Ġdomin ant
ĠP oy
Ġun anim
Ġam azed
May be
pl an
ĠY ang
Ġback drop
Ġcur ious
Ġang ered
inh ua
ra vel
og o
Ġperform ers
il ation
Ġ197 1
extreme ly
Ġhasht ag
7 50
Ġm ac
.' "
el ia
Ġsh aped
ne x
cl iffe
ilar ious
Ġintent ions
Ġenthus iasm
Ġd ump
od ka
Ġsp erm
Ġprosecut e
p sy
Ġmar sh
ĠBe ing
Ġmask ed
Ġst ing
iz a
ĠMatthew s
Ġs lic
ĠA Z
Ġcl ips
Ġinf ect
Ġmotor way
Ġic y
Ġhat red
Ġre ver
Ġcon j
Ġun ited
uff icient
Ġrent al
P lease
Ġf ug
Ġd up
ĠCh and
ph is
Ġconf licts
ev a
ÂłÂł Âł
Ġfun ctions
Ġencoura ges
ĠYemen i
ĠMiddles brough
L ike
ĠMon roe
ĠMcC ann
el ong
Ġpurs ued
Ġaccommod ate
Ġprov ider
ĠDis covery
Ġfert ility
adequ ate
ne um
ĠV el
St ud
ĠCal der
Ġequal iser
ĠIvan ovic
Ġr ats
Ġsp ider
oot er
ĠNorth ampton
ĠMy ers
Ġstreng the
Ġmem o
Ġple ad
Ġdig ging
Ġelim inate
ĠF alls
Ġrec ipe
rib e
Ġhon ored
ĠShar p
ĠGib bs
Be fore
f ew
s pr
Ġh ockey
ic ular
em br
Ġ196 6
Ġprost hetic
igen ous
Ġth res
Ġunder age
Ġrefer ences
ĠY ears
Ġexpl oration
g ov
ĠT ry
Ġwor s
ĠC PR
the med
Ġsal aries
Ġsung lasses
Ġc ement
ĠCh or
ĠIn it
Ġmon key
iers hip
Ġsuppl iers
Ġscream s
W he
ic ke
ve z
ĠA id
ĠL ear
um my
Ġpain s
uff y
P art
Ġpresent ing
Ġlabor atory
mo il
Ġw ise
ed uc
Ġjihad ists
a hn
ĠBl ind
Ġelect oral
ĠCor rect
Ġtransform ation
oub ted
F our
re z
os i
ĠSt ory
Ġcrit eria
c am
Ġp ouring
ĠM ead
ass ed
Ġsk ipper
Ġspecial ists
Ġwond ered
Ġflex ible
Ġgru esome
ĠNaz is
ĠS ainsbury
Ġfoot steps
Ġsw orn
ĠWin frey
ĠAthlet ic
ĠL er
ens en
ĠBudd h
" .'
Ġrel ate
ĠRed d
fl oor
Ġstret ched
Ġmagn ificent
ĠHoff man
7 9
he rent
Ġro de
Ġinf lamm
ĠSer ena
d ia
at ra
Ġsign ings
ĠX inhua
quir y
Ġw aving
ĠB apt
Ġdisp utes
ĠGem ma
Ġnot ably
Ġbr ink
Ġpolic ing
ĠMal ala
ĠLind sey
Ġhal ted
Ġmourn ers
Ġb aff
Ġd ual
ĠR ol
Ġjournal ism
Ġmist ress
Ġt ally
Ġchar ts
Ġ( "
Ġcr acked
Ġdeliber ate
ĠEnvironment al
ĠA w
Ġindust ries
Ġexpert ise
Ġ Ã¢
ĠL uck
ĠL allana
ĠN ike
Ġout spoken
Ġdisp at
ĠIsa ac
Ġacc um
gg y
Ġmonit ors
uff ed
Ġcook ed
Ġfundra iser
Ġalt itude
Ġconven ience
J ack
is dom
ĠT el
Ġinc ons
ĠRob bie
Ġtourn aments
ĠDomin ic
alf ord
Ġdep endent
Ġaggress ion
ĠKle in
ro ft
com be
ĠCol onel
Ġsepar ation
**** **
c ount
Ġc alf
ĠLe x
rem lin
Ġdel icate
Ġcrocod ile
Ġd ip
st orey
ĠTh ird
Ġrece ip
on line
ar is
Ġp and
Ġout c
Ġro d
ĠRo ch
Ġbound aries
Ġhorm one
ĠBelf ast
w he
ĠW ait
ge on
Ġun born
ĠHol iday
ĠBen z
ĠLow e
Ġseiz ure
an iel
Ġv andal
Ġshel ters
RE E
ĠBaron ess
ig s
ĠJ unior
Ġmake up
Ġlink ing
ĠPac quiao
L ou
ĠC esc
ĠP orter
ĠBrit on
Ġpair s
Ġster oid
Ġl anes
ĠI p
Ġinst ances
ĠEm ploy
F amily
her ty
Ġacc uses
ick er
Ġtom b
ĠLau rent
ĠBian ca
Ġb ureaucr
Ġdesc end
ĠMin i
respons ible
Ġm aj
Ġcontr ary
Ġfac ilit
Ġspeak ers
Ġdark ness
Ġtoile ts
is y
Ġsh ipped
Ġad verts
Ġinvest ments
sign ificant
an z
Ġproud ly
Ġclin ics
ĠStat istics
Ġj ungle
Ġwho ever
ens itive
ĠLe o
Ġref usal
Ġaut obi
Ġpers istent
Ġlod ged
Ġhe m
ĠM obile
Ġsil ly
Ġpull s
Every thing
b ling
ĠM ig
ound ing
Ġdesc ent
Ġrisk y
ĠRoman ian
Ġm ates
ĠM ous
ĠG or
Ġse af
Ġvers us
ĠBeck y
H aving
R eal
ĠP ars
ĠR ange
av our
att led
Ġpen is
Ġoff shore
Ġsal ad
bl ack
ĠLeon ard
ĠSalv ador
Ġn aming
Ġsurround ings
Ġfrag ile
Ġnarr ative
6 9
U K
Ġb un
um bs
Ġagree ing
Ġsty les
Ġb ubble
pt ions
Ġfar ming
ĠThe atre
Ġrel ent
Ġdist ressed
Ġthres hold
c ell
ĠG ur
ĠY aya
af ia
ĠSupp orters
Ã ±
Ġpro ves
ft y
ĠLe gal
Ġpass ports
f elt
ar ound
Ġbl ows
Ġback wards
Ġext ract
Ġpig s
I m
le m
ri et
Ġsl ot
ĠLib rary
Ġd warf
Ġ' [
oty pes
Ġsc ope
ph ies
Ġins ider
Ġteam ed
ĠAust rian
ĠCom mer
d ings
he ard
Ġl oses
ur ry
ak y
ĠChe ck
ĠRiver a
ĠRel ations
Ġt ents
Ġy elling
ĠK ill
Ġsm oked
ĠTr acey
arm a
ĠFloren ce
ĠWiki Leaks
Ġpl aint
ĠCar son
Ġpres erved
Ġart icles
Ġtal ents
Ġvo iced
Ġsucceed ed
P aul
os aur
Ġrep airs
8 9
Ġconf ined
Ġheart broken
Ġenfor ce
Ġglam our
ĠErd ogan
Ġup side
the m
Ġgra ffiti
Ġimag ination
Ġburn t
Ġshar ply
Ġaccompl ished
Ġcontem pt
Ġle aking
Ġsp ying
Ġsubmar ine
istr ate
Ġhum our
Ġclear ing
ĠKim ber
Ġneck l
Ġappl ause
C ap
ĠB ass
Ġhous ed
ĠKo eman
ĠLi u
c ts
ĠN aval
ĠIsrael is
ĠCons umer
mond s
ch anging
ĠJac qu
ĠAre a
Ġreop ened
ath ing
Ġwar mer
ĠCl ifford
bro ok
am il
Ġdef ine
duc es
ĠJud y
Ġb und
Ġf ury
it ivity
th ood
pp ers
Ġpro x
Ġsp rawling
Ġev ol
Ġjust ices
Ġfl owing
ĠAbb as
Ġexperim ents
Ġsc orer
au er
Ġhel pless
Ġpresent ation
Ġwound ing
ĠOccup y
ĠRe illy
Ġcat walk
hy th
ĠP ur
ĠMos ul
Ġbeg ged
Ġpool s
ĠAj ax
ĠLis bon
st y
Ġint act
any e
Ġp neum
Ġn iece
Ġpe pper
Ġtr aced
ĠPort o
Ġfocus es
ĠQuest ions
Ġtur moil
W omen
i ary
ĠT ina
um mer
ey ed
Ġanim ated
Ġsuit case
Ġho ax
ĠMoroc co
ol fer
ĠW ould
for ward
Ġmeas uring
F O
cl air
Ġunivers al
ou ver
im ents
and ro
Ġcon sole
Ġdis abilities
Ġthorough ly
ĠD rive
Ġse eds
ĠWest wood
Ġbank er
Ġcaps ule
Ġelev ator
Ġl aughter
Ġle aks
sh ow
ĠMem phis
ĠGro ves
d uty
ĠG C
Ġs inking
Ġw aved
Ġto re
ĠS r
ast ated
man ned
Ġgl ac
Ġelement ary
Ġde af
ĠHam mers
c ould
f il
Ġthreat ens
Ġcoun ted
pe ople
Ġtoler ance
U p
ĠL ad
ters on
ĠMic he
s upp
s burg
Ġh ated
Ġaw esome
Ġadvoc acy
ĠS ound
Ġal ley
ag ged
Ġmen ing
ĠBrew er
Ġdre amed
e em
em ale
od ies
Ġgen ocide
Ġappet ite
ĠN ou
ĠRes ort
m aid
ĠLt d
ĠKath leen
ot ional
ĠP ink
Ġind ul
ĠEll iott
Ġbathroom s
ĠMack ay
a very
ĠK ris
Ġcoll ar
ĠStan ford
Ġspell s
ĠRub io
on ial
ĠSan ford
Ġdetail ing
b ad
p y
ter bury
od ing
ĠP ad
ra k
Ġinv ite
Ġpick up
Ġunw anted
ĠHondur as
Ġhe ating
Ġemb ry
ĠAlf red
ĠD rew
ĠD oyle
ĠN ative
Ġsm ashing
Ġsign atures
Ġstation ed
Ġseparat ists
ĠTamer lan
ĠL ud
Ġse gment
Ġ19 20
Ġtem pt
Ġtow ers
ĠGold man
ily n
ĠMar cel
Ġ196 5
Ġsail ors
Ġinternation ally
Ġdeclar ation
Ġsur g
s uper
Ġtrib e
Ġpers ecut
Ġcart els
Ġrit ual
uc us
Ġmater nity
ĠCharl ton
bel ief
Ġexped ition
Ġsurg ical
6 7
ĠV ald
anc ouver
Ġstr ongh
Ġgym n
crib ing
Ġrecon cil
w atch
Ġtr icks
il ateral
ĠR ico
Ġhard ware
Ġb og
Ġf t
Ġha ird
ĠSte in
Ġstab il
Ġsatisf action
Ġincor rect
C B
ĠT ara
ĠKe ep
Ġske leton
ĠR id
Ġint ake
ĠTre v
r ams
en ko
Ġmas term
Ġbl essed
Ġgenuine ly
n al
ore st
ĠG os
pe are
ustr ated
Ġbi ography
Ġutter ly
ĠCraw ford
Ã Ĥ
Ġgra bs
Ġattend ant
Ġdism ant
ym ph
ĠEr in
zh ok
Ġware house
ĠN CA
Ġinj ections
Ġarg u
erm ain
Is rael
Ġsymp ath
ĠS add
ir it
Ġag ony
Ġfact ories
Ġast hma
Ġloun ge
ĠCambod ia
Ġc ans
ĠP un
Ġback pack
Ġsepar ately
ĠLes lie
ĠSouth west
Ġmet re
Ġtro phies
P er
c os
u v
Ġp ard
red it
ĠY ous
ĠZ el
Ġshoot s
Ġaccess ories
F ar
t w
t or
ĠL aud
ĠR emy
iv ated
Ġso aring
Ġshel ling
ĠSqu ad
Ġham string
ĠS of
ĠC ash
Ġup held
Ġnew est
ĠSh akes
ĠMiss ing
ĠStr ong
Ġdish on
d ev
w ark
ĠP ack
ĠK in
Ġlaws uits
ge ant
Ġ196 2
ĠVerm ont
Ġthe r
ĠT rou
Ġcapt ures
ĠSchool s
Ġsculpt ure
Ġpubl isher
Ġadequ ate
Ġbipart isan
Ġp anc
Ġbl owing
te es
ĠBol iv
te acher
abs olutely
ĠJohan nes
g s
m inded
p ine
Ġt ab
is d
Ġtra p
ĠSh ip
ĠGo als
Ġrespond ents
Ġsan ction
Ġobject ive
C ont
ĠC umbria
Ġreg istration
Ġfootball ers
sw ich
Ġec st
ĠBark ley
Ġad ul
Ġround ed
Ġconst ruct
Ġcalc ulated
ĠBald win
e er
ĠL izz
ĠU pton
ome z
Ġsick ness
ĠReg iment
ĠTele vision
Ġinterrog ation
Ġbe ats
ĠW ag
ĠK or
Ġbr idges
Ġprot ester
Ġlad der
Ġmechan ical
O M
im ated
Ġrest raining
Ġrepresent ation
Ġcat astrophic
E ur
L E
Ġro omm
Ġwal let
S ur
ar ts
ĠLe igh
Ġass embly
Ġvill a
S y
p aid
Â °
Ġv end
br id
lin er
ĠKer cher
ĠMull er
ĠBapt ist
el ve
ĠR av
ĠCh amber
az er
Ġrecomm ends
Ġconstitu ency
Ġfl oral
Ġconv incing
Ġdist ricts
Ġconfir ms
Ġrock ed
Ġpo ised
Ġcontain ers
Ġtouc hes
Ġtex ting
l ove
Ġfor ming
ass ing
Ġmeaning ful
ĠH il
ĠE W
Ġkn ot
Ġcar riage
Ġmin ers
I G
K A
Ġb orough
ĠR ap
Ġover head
Ġhead aches
Ġaut on
ĠAbd el
Ġc ries
Ġbr ides
Ġmed ications
inc ial
Ġsan ctuary
Ġtun nels
Ġsupervis or
Ġsn atched
ĠKn ights
Ġgovern ors
Ġmart ial
Ġf ru
ĠAri as
O K
w ic
Ġc ogn
Ġd iox
ĠHer oes
Ġentertain ing
Ġby pass
Ġanalys ed
uls ion
ĠS P
Ġal arming
ĠD aisy
Ġsc or
Ġmin ors
Ġspect rum
Ġvit amin
Ġmole c
R ed
lin son
ter ior
Ġfright ening
ĠJama ica
ĠS W
op ic
ĠV ancouver
al ke
ĠR andy
ĠFar rell
ĠReg ional
Ġrespir atory
as a
Ġsent iment
Ġsque ez
ĠZ ar
Ġboy cott
ĠGer ard
Ġlow ered
Ġsexual ity
Ġfalse ly
Ġbow el
Ġjewel ry
Ġout lined
Ġwhere as
ĠSy ndrome
Ġdeleg ation
ĠJ ob
Ġpil gr
Ġqual ities
Ġiniti atives
ĠO tt
Ġsl ave
Ġorgan isers
Ġshall ow
Ġp ic
ab il
Ġport raits
Ġadministr ator
qual ified
Ġover th
Ġrep ublic
Ġcomm uters
ual a
aff er
book s
Ġhands et
Ġcongress man
ĠGlouces ter
U s
Ġh ike
oc ate
Ġmis ery
Ġneglig ence
Ġman hunt
Ġche ered
Ġsl ogan
ĠHum ph
Ġcanc ell
Ġargu ably
ĠD zhok
Ġdec isive
Ġbal anced
Ġheav en
f ires
Ġdoll s
Ġseiz ures
ĠM ult
ĠG az
Ġsh ifts
Ġair space
B ig
ĠW onder
Ġtr aces
ĠKore ans
Ġcheck point
tr ack
ĠSa unders
en burg
ĠL ate
ĠF ein
ĠMarc os
ici ary
I R
Ġsu cc
Ġne at
at an
ĠAn aly
Ġend less
Ġvac uum
ser ious
I E
h ans
Ġv odka
Ġres emb
Ġmeant ime
ĠJeff erson
ĠM ort
em ade
Ġcol ors
ĠHollow ay
1 30
Ġl ob
op y
ĠWhit ney
mort em
r at
he id
ent h
ĠS ed
ĠB un
Ġch ick
Ġpr iced
Ġdisc ount
Ġfr action
ane ously
Ġsponsors hip
t ake
ĠC ond
ĠC any
Ġoff ended
Ġun related
ail able
Ġovers ight
ĠDew ani
Ġimpro per
ĠD ana
ĠF uk
ĠU A
row s
ĠCan terbury
Ġaccept ance
Ġcub s
in ery
ĠC ord
ĠB rett
ĠBr anson
Ġspons or
6 4
Ġp ries
Ġobs ession
Ġlic ensed
Ġl amb
Ġv est
ĠJ orge
Ġam endment
te gr
ĠSant orum
Ġ194 4
ĠBurg ess
M ad
d isc
br idges
Ġbik es
F ollow
ĠC ock
ĠW ing
ĠN on
Ġcur tain
ĠLeon ardo
ĠGall ery
Ġal tered
Ġbot ched
Ġdiver ted
eart hed
ĠShakes peare
H ere
ro d
ĠF ame
ĠV ince
Ġfear ing
Ġextra v
Ġtrick y
c ourse
m iss
Ġp engu
ud a
Ġunder lying
Ġsmall est
ĠPre vious
Ġdispos al
Ġshow down
Ġsur pass
lo ading
oubted ly
ĠIp swich
E ach
u ire
Ġd ense
ag in
Ġse ize
Ġmob ility
Ġcard i
b ach
ĠK remlin
Ġter rain
ĠConc ord
Ġsc ars
Ġsn akes
Ġunf olded
Ġliter ature
ĠBeaut y
Ġrep eal
ĠV II
ition ally
Ġins ult
br and
ĠDu ell
Ġgrab bing
Ġd ear
Ġcar ved
Ġball oons
ĠOut side
ĠEcc lestone
Ġgorge ous
H ING
ag her
Ġph oned
ĠWrit ing
S aid
l it
th ird
ĠSch oles
Ġhistor ian
ĠKel ley
Ġhed ge
ered ith
ĠHol t
Ġassist ing
Ġmis leading
Ġcab les
z ek
Ġd ancers
ĠA ub
ĠC ec
qu est
Ġsc andals
Ġfl ame
Ġche ering
Ġparen ting
Ġairl ifted
bu ilt
ĠFre eman
ĠIbrahim ovic
Ġautobi ography
f irst
Ġcom r
ĠG ang
ĠGe a
Ġtor ch
insp ired
C he
Ġh ilarious
em bl
Ġv oc
Ġpro state
ere e
Ġcount ing
Ġcourt esy
Ġimm unity
ĠFow ler
R ight
Ġnot able
Ġpro stitute
ber y
Ġres erves
Ġcapt uring
Ar senal
rend ous
Ġhomosexual ity
g ay
Ġend uring
Ġsw ollen
J udge
Ġst ap
se at
ĠY ellow
Ġworth y
Ġh ills
ĠT ian
ĠSch neider
Ġoccas ional
Ġhur ting
Ġdisgr aced
Ġh ottest
ĠT oni
ie val
ĠV ic
ĠSp ot
Ġend ure
cent er
Ġswim mer
Ġnovel s
embr ance
d ated
Ġs idelines
ĠâĢ ¦
Ġimp osing
Ġdef eats
ential s
Doct ors
f ix
Ġb rawl
Ġbe gging
ri ans
ĠV ine
ves on
Ġ12 5
ĠM itch
ĠZ oe
bl ood
acc ur
Ġorient ation
B erry
ru ck
Ġfl ip
ĠNew port
Ġelect ronics
Ġgar bage
lec ito
ĠFut ure
r ine
Ġst yl
ĠIn j
Ġsm ok
Ġextrem ism
Ġprin ts
Ġinher it
in stein
ud ding
Ġroll er
L ook
l ade
ĠD A
ack i
ĠArab ian
Ġrevolution ary
ĠColumb us
ĠS alford
ĠF ay
be h
ĠAlb ion
Ġswift ly
Ġs wo
Ġre ef
od a
Ġcre ep
Ġmarry ing
ĠC inc
Ġch ic
ĠSt re
Ġsl avery
off icial
ĠMod ern
Ġcontem pl
H ad
Ġc ows
Ġmagn etic
Ġreven ues
ĠTan z
Ġgra ph
Ġrain fall
Ġtheat ers
Ġque ue
Ġmo ist
ĠMug abe
Ġoff ending
ĠOrgan isation
ĠBos nia
ĠCyr us
Ġvib rant
ĠF ear
Ġbeh ave
Ġgrad uation
Ġloyal ty
ĠDomin ican
Que en
Ġhe n
ĠK anye
Ġres il
Ġcar c
Ġinvest ing
Ġsw ord
ĠDown ton
Ġexha ust
S ays
f ood
ĠBar rett
Ġsever ed
Ġtack led
ĠKo h
Ġexplo itation
Ã ĥ
le ader
ĠI ain
Ġcl ay
ĠZ ach
reg ular
Ġclos et
ĠLy on
Ġ /
Ġinc omp
duct ive
Ġvolunt arily
6 3
f ol
Ġp add
os ity
ĠG omez
Ġless er
ĠSky pe
ĠF aith
ĠJ FK
ĠSt ore
Ġ9 4
Ġsil k
Ġver bal
Ġreun ion
ĠCarn ival
ĠM eth
Ġpress ures
Ġlif ts
ĠOffic ial
ĠDerby shire
M on
ĠN ice
Ġle an
og s
Ġpen et
Ġhabit at
ĠBark er
ĠHans en
ĠNep al
Ġdiox ide
p en
ust ers
Ġra ins
Ġjud gement
i ya
Ġeconom ist
Ġadministr ators
mid t
8 7
Ġm ocked
sh op
Ġcamp ing
Ġrecru iting
] .
ĠL ower
Ġadm ir
Ġred und
ĠTy son
Ġforg ive
ĠAut umn
ĠH app
ĠD ixon
Ġdyn amic
Ġadap ted
E m
ĠR other
Ġsl aying
Ġglob ally
Ġcolumn ist
Ġeval uation
Ġmath s
ĠGir oud
ĠPars ons
Ġb ailed
Ġsp at
ĠSt arr
ĠV IP
Ġinst inct
Ġhold ers
ĠSin clair
Ġg olfer
ĠPan ama
Ġut ility
Ġgadget s
c ourt
t urned
Ġcounter part
bu ilding
gi ene
ĠD h
ĠBl u
hol m
ĠVict ims
ĠNap oli
ĠPier re
ĠM anc
ain i
Ġschool boy
Ġtouch down
Ġru in
Ġencl osure
en os
Ġd aring
ĠS em
ĠWil kinson
Ġcycl ists
Brit ain
ĠF ind
ĠIn vest
ĠSp ect
Ġhold er
Ġheight ened
ĠMaur icio
ĠNeighb ours
Ġpostp oned
ĠGC SE
Ġc ove
ĠG ut
Ġcan al
ĠBar r
Ġsum mon
ĠRad amel
ĠStud y
Ġprol ific
ĠBron x
l ifting
ĠS ource
Ġwh ites
ĠDes ert
ĠDutch man
ĠAud i
Ġcler k
Ġseas ide
Ġrehe ars
f in
ĠPl ayers
Ġto e
ĠD iet
ĠJ agu
ins ky
Ġdemonstr ates
ĠChe ney
Ġconce aled
Ġen abled
oss ip
ĠEn forcement
Ġbur ger
Ġcast ing
ĠPear ce
Ġcand y
ĠSale h
Ġperf ormer
Ġcand le
Ġagre ements
Ġdevast ation
ĠKu wait
so ever
Ġcont ing
Ġte aches
Ġdef ault
Ġsit uated
Ġcommit ments
inn ati
ĠCare y
ĠHard y
Ġpredomin antly
ĠL oren
ress es
ib i
ĠCl ooney
Ġalle ging
Ġur ges
Ġexperim ental
re ported
ĠP i
Ġun earthed
Ġfore head
Ġemer g
ĠEth an
ĠCany on
il ty
ĠSt ones
ĠLe ah
Ġlist ing
Ġemb ro
Ġhonest ly
ĠDzhok har
t able
ĠAnd er
Ġeduc ate
Ġarrang ement
ĠShe pherd
ĠCl ive
ograph s
Ġself ies
Ġbreast feeding
Ġforth coming
ĠFall on
Ġwor ship
Ġfe ud
ĠDan i
ĠStef an
Ġpat ience
Ġment or
th an
Ġv ows
ĠEx change
ĠSol lecito
ĠOsc ars
Ġconclus ions
G erman
ar ter
ĠG ifford
Ġab und
ĠK ids
ah an
Ġden ial
Ġadvert is
Ġintention ally
Ġwire less
iec es
ĠUs ers
Ġdeleg ates
is i
ĠB ac
Ġbl ames
ov y
ene g
ĠOxford shire
Ġtur key
Ġoblig ation
s ocial
ĠH ell
ĠN ass
Every body
Ġevac uate
c ross
u i
Ġ9 7
Ġfre ak
r h
squ are
er k
Ġo ught
ĠP ra
red ict
Ġmod ified
Ġcampaign er
ĠWat kins
Ġout look
Ġcomment ator
ĠCam bridges
Ġshell s
re ement
ĠS aw
ĠH ir
ĠP roud
ĠG ear
ĠSouth wark
Ġmid st
Ġcross es
Ġhar bour
Ġmis erable
ĠDaniel le
Ġroll s
Ġded ication
ĠP ub
ĠF REE
ĠE ston
Ġser geant
ĠAl berto
Ġdet ection
Ġsque eze
ĠPhel ps
u ously
th am
Ġout going
Ġcur few
Ġdam ning
ĠIndian apolis
Ch ina
Ġprin ting
ĠLev y
Ġgren ade
N C
ĠS kin
ĠM eredith
Ġsur rend
Ġind oor
ĠSer bian
Ġpret ending
Ġstret ches
Ġcooper ate
abe u
Ġbol ster
ed e
is se
Ġrelax ing
âĤ¬ âĢĿ
Ġpneum onia
M en
ĠP ain
ĠL ough
Ġwhat soever
ster y
Ġplatform s
ĠCop y
Ġcomp elling
Ġd od
ĠH oms
Ġpart ial
Ġfin ale
Ġart istic
Ġhom ophob
ĠDar win
ĠBet ter
ĠBet ty
Ġcler ic
r ays
Ġday light
Ġbar ric
ĠBo at
ĠPoy et
l oss
ĠN ar
ĠPrem iership
Ġbid s
ĠCom pl
ĠCur iosity
Ġpension ers
h ou
Ġbr ig
Ġachie ving
Ġhandcuff ed
Ġhomeown ers
Ġexp orts
Ġpack aging
Ġunp opular
ĠSamar itans
n ock
Ġout let
Ġsurf ing
Ġang el
ĠP ors
ĠE ye
Ġinter act
eli hood
ield ing
ĠInc red
Ġsovereign ty
ĠR iv
Ġout bur
Ġover looking
Ġuns ure
ĠRick y
Ġserv ants
ĠFalk lands
m ist
ĠS ep
ĠD w
ĠSh ocking
ĠFor um
ĠVis itors
ĠT ests
ĠX I
ĠCit iz
Mus lim
R ec
S en
ĠE y
be it
ĠCup s
Ġsuper ior
Ġcorn ers
ĠStr at
Ġspons ored
ĠLuk aku
or os
Ġl aps
ĠD ancing
ĠN obody
Ġbl essing
Ġpur ported
Ġsatell ites
ĠSc iences
ĠZ ah
Ġtop ics
cept ions
Ġpin ned
Ġregul ators
t ures
ĠM orm
ĠH ig
ĠJ agger
k h
im an
Ġpro jected
Ġpred ators
Ġprotest ed
Ġbackground s
Ġl ured
ĠB ene
Ġinter action
ĠDam ien
b ol
Ġn ails
ire z
con n
Ġart illery
ĠSand ers
Ġthank ful
Ġcup s
Ġrecommend ation
Ġemp ower
Ġgradu ates
B eing
ĠN urs
ber ger
Ġdis asters
Ġp iano
Ġsl ice
Ġdep icted
Ġpar ish
Ġhy ster
icip al
Ġhandcuff s
Ġrevers ed
ar at
Ġde hydr
Ġpl ac
ond a
ĠMar ilyn
Ġsw ap
Ġposs ess
Ġval ley
ĠRh ode
Ġtu ition
ĠT omas
Ġres ource
ĠSyri ans
ĠKar im
ĠProt est
n ik
re ason
Ġst iff
ĠConf eder
ĠCinc innati
ĠS ne
ab ling
ant i
Ġstep father
Ġholiday makers
Ġconclud e
ĠS eth
oc us
Ġret ained
ĠAtt ack
iffer ent
b uster
Ġh obby
Ġh inted
Ġp iled
Ġsupp lier
Ġsupp lement
sh aring
Ġtrans mission
Ġign oring
Ġgest ures
Ġmotorb ike
Ġmog ul
ĠL ov
Ġiss uing
ĠPar ish
G eor
Ġres umed
Ġwork force
ĠClin ic
Ġlack ed
Ġf ist
Ġat op
ĠW ake
ĠG aga
Ġrock y
ĠHel mand
Ġt am
as ar
ĠK em
Ġwork out
ane ous
Ġdra fted
ĠCon nor
Ġsun light
ĠPart ners
Ġ :
Ġch anting
Ġapp le
Ġdra gging
ĠGav in
ĠM ental
Ġpar alle
In stead
Ġcru c
Ġwrest ling
C R
Ġcon vey
ĠLe y
Ġey el
ĠWy oming
Ġstim ulus
ĠS ugar
ĠC ould
ĠR BS
ens ing
Ġfr aternity
pe ace
GB T
Ġadminister ed
on ge
Ġc af
ig o
ru gg
Ġchar itable
angu age
Ġbudget s
Ġjur isd
Ġg ast
ol son
ĠM oor
ĠB it
ud dle
Ġno on
I F
or ity
ĠN ina
Ġshow case
Ġmil estone
Ġstra pped
Ġrecru its
K ahn
end o
Ġab normal
Ġpart isan
arent ly
Ġappl ies
ĠBulgar ia
U nder
ĠB le
ri o
act ory
aw ays
Ġstar ing
Ġend anger
ĠAll an
ĠClass ic
N obody
ĠM iley
ĠF i
Ġimp acts
Ġpo orest
l ake
ĠC D
ĠB uch
Ġsn ack
ĠB our
ort heastern
Ġinf licted
Ġhom emade
ON D
Ġsect arian
Ġplag ued
Ġm ouse
Ġcol oured
olog ically
cont rol
Ġelim inated
C ham
p oints
em ics
Ġpl ots
ash i
Ġfr on
l ights
ĠM ald
Ġsa ves
ĠU ber
ĠFred die
TS B
Ġkilomet res
Ġlik elihood
ĠDet ails
Ġenv oy
Ġfrank ly
ĠChor ley
l oved
in ental
ĠR aul
Ġcons c
Ġstrik ers
Ġtrib es
ĠC out
us ch
Ġr ows
Ġacc l
ĠRe y
ĠCl int
Ġed ited
ĠDid ier
Ġb isc
ĠS we
Ġtr unk
aj o
Ġsuccess ion
Ġtrad itions
Ġconn ecting
ĠRub y
Ġru ins
ĠIndepend ence
Ġregul ator
abul ary
ĠPoul ter
p resident
Ġt ill
ĠC ala
per fect
ys c
Ġtoug hest
Ġprecise ly
N D
Ġon lookers
ab ilia
Ġoff enses
ish ment
Ġext ending
do ors
ĠKaz akh
Ġembro iled
P at
ce ans
ĠF ant
uth an
Ġsub mer
ĠAngel ina
Ġund ocumented
ĠR at
Ġgr in
az y
ĠHar riet
Ġquick er
gen eral
Ġlearn t
n ames
Ġg ust
th y
ĠG and
Ġposs essions
Ġage ing
Ġcolle ges
Ġcred entials
ĠBur ke
ĠUl t
f at
ĠH ost
Ġdi arr
Ġcanc ers
J ames
Ġb acon
ĠC T
Ġtra gically
Ġem bed
ĠNews night
Ġwilling ness
ĠOliv ier
Ġoutc ry
v ic
ĠK um
ĠZ ur
Ġencoun ters
Ġdiscl osure
Ġt ablo
ĠS ave
Ġex agger
qu in
Ġgr ades
ĠRe ady
Ġten ure
ĠWell ington
Ġchat ting
ĠBrun o
ĠTowns end
L os
c overed
e u
Ġe ve
ah aw
Ġoccup ation
Ġalbum s
Ġcounsel ing
ĠVenezuel an
Ġsh ine
ĠTh ings
Ġpar aly
Ġkidn app
Ġlone ly
ing o
Ġj elly
ĠMil es
Ġwed dings
Ġgoals c
ĠMore no
Ġenh anced
ĠNair obi
ch a
act ic
Ġrespond ers
ĠBer cow
ĠStand ing
h s
m i
m l
Ġw ool
es are
et heless
Ġse ated
Ġtake over
head ed
Ġhun ters
ĠSher wood
ĠSant iago
ĠHung ary
Ġretal iation
ĠV ery
Ġmon ument
ĠNe g
ĠMid west
Ġbru ising
Ġcomprom ised
Ġinequ ality
ould er
Ġun manned
Ġqu ote
Ġeff iciency
room s
Ġobs ervation
Ġapplic ants
Ġengulf ed
H ope
Ġp ear
ad der
ang le
ĠNo ah
Ġaltern atives
Ġeyebr ows
Ġsquir rel
f ashion
Ġp enny
ĠL ip
ĠG ore
Ġatt ach
Ġsens or
Offic ers
Ġcaut ious
Ġabd omen
Ġout law
Ġcar er
uss ions
Ġobs erve
Ġkidn ap
Ġw isdom
am y
ĠBr ight
ĠWork ing
unning ham
Ġab ilities
ĠK ompany
Ġmess aging
p ies
ĠS lam
th odox
ĠG ul
Ġ20 22
rit is
ĠLaw yers
Ġescal ated
ĠAur ora
K e
Ġm att
her ic
Ġha v
Ġfound ing
Ġsm iled
char ge
ĠHy de
ĠIss a
ish ops
Ġcomp aring
Ġgr ay
ual ity
Ġsusp end
Ġdist urbed
Ġfat igue
ĠB og
ĠO val
Ġor b
Ġear ns
Ġsl apped
ĠSch alke
b ank
n on
ĠF lying
ten ham
ĠSe vent
Ġhar ness
Ġrum oured
har med
ĠLe veson
ĠMar ina
ĠTr ad
Ġens ured
Ġcont ention
Ġpart ying
app ointed
Ġup s
ĠiP od
clus ive
eff ective
ĠCu omo
ĠF ury
Ġdec lining
omin ated
Ġwel coming
Ġdomin ate
Ġad am
ĠPhot os
AS HING
ĠCorpor al
g reen
Ġm ature
ul ances
ĠGr ade
ĠBlack Berry
Ġpure ly
ple x
ĠMin utes
Ġsetting s
Ġmerch and
Ġm ant
ĠF E
ian ces
Ġwar fare
Ġcompet ed
ĠMor ales
ĠAg ric
Ġpsychiat rist
ĠT O
ĠGu ang
Ġmass age
ĠBut t
ĠPeters burg
Ġsou p
ome ter
Ġinter cepted
Ġsn aps
9 7
U Z
el in
ĠP ont
ret ion
ĠAm ir
ĠWat ts
Ġpries ts
Ġc udd
an throp
Ġas hes
ast ically
Ġtrans actions
ĠStr ict
p ost
ĠSav annah
Ġenthusi asts
ASHING TON
M ag
or ient
ĠC umm
ĠB ony
ip es
Ġran ch
Ġinfl ux
Ġcontroll er
ĠOpp osition
ĠCopy right
w ords
ĠP ablo
Ġab duct
Ġinter active
ĠSc out
let te
ĠSpe ed
Ġclean ed
iest a
ĠSlo ven
U R
ĠS afe
Ġby stand
ast air
Ġsp ear
Ġchar ter
Ġver ge
Ġmening itis
M o
ĠC omb
ĠL ost
ĠF ifty
Ġsequ ence
Ġfisher men
ing le
it ical
ot ter
Ġup ro
Ġres id
Ġsc rapped
bl ower
Ġpen insula
m ay
Ġun healthy
cl ock
Ġst akes
ĠH anc
Ġex em
we iler
Ġac cepts
ck er
Ġey ew
Ġver ify
Ġintox icated
g art
ĠT alk
ut ical
Ġha il
Ġr ash
Ġbel ly
Ġtrans mitted
Ġadv ises
ĠVal erie
Ġsand wic
t ails
at able
ĠA fford
ĠC H
In c
hold er
ĠSn ap
Ġorph an
V I
ur able
ĠD iaz
Ġinvestig ative
Ġtact ical
ĠChan el
a que
ĠR as
ĠHe at
Ġdisp atched
ĠLuk as
l io
Ġt elescope
im on
ĠD art
ĠF ew
Ġinc umb
Ġcons ulate
ĠFor rest
ĠFl ores
Ġeconom ics
bor o
At t
ĠTer esa
Ġdiamond s
ĠRef eree
re ach
ĠC ly
ĠF ac
ĠF resh
Ġcl ue
ĠLe go
com es
ĠMont real
Ġintimid ation
Ġl ads
Ġv ibr
iz ard
Ġstre ak
Ġpeace fully
Ġfix tures
ĠHeb do
z man
us k
ĠP ensions
ĠShe ll
Ġund oubtedly
ĠKas em
ĠMig uel
v ia
ard i
fore st
Ġcreat ivity
ĠFoot age
Ġf olk
ĠT igers
ĠF ighting
ĠAl leg
Ġsl og
Ġmag ical
Ġur anium
Ġrap ist
Ġmechan ism
c ock
ĠB oss
Ġwh oles
Ġdis respect
Ġprot ocol
Ġsight ings
Ġto uring
oll o
per ial
Ġpri zes
Ġseek ers
Ġansw ering
Ġmotor ist
Ġtall est
Ġstro kes
ĠViol ence
L ife
Ġ vert
is man
Ġv on
Ġsp ite
ĠPat erson
Ġexpect ation
Ġadvert ised
Ġrans om
Ġr ushing
ĠY ale
Ġasp iring
Will iam
Ġsemif inal
D onnell
S B
ch at
ne apolis
ĠSh op
ĠFl owers
Ġrall ies
l ast
ag ging
ink a
Ġcerem onies
tr ue
umber land
ĠFel ix
quir ies
ĠWozni acki
Ġinfect ious
t aker
ĠA ires
Ġst al
Ġattend s
Ġsens ible
ĠPlan et
ĠNash ville
et on
illion aire
amb led
raw led
ĠFab io
ĠSadd am
ar cer
Ġin k
ĠH udd
ect omy
Ġlack ing
Ġb ored
un ks
ult y
ĠSc he
Ġcollect or
Ġdeterior ated
Ġdies el
D em
ri ors
ĠJ ihad
ful l
Ġgl oss
Ġform at
Ġesc aping
ĠBur ger
Ġgentle man
st ill
Ġr ug
Ġab ol
Ġforg ot
EA D
ĠVen ice
Ġvigil ant
Ġservic emen
Ġl ig
Ġst all
ĠG ate
ĠK ee
Ġcons ulting
ĠChel tenham
Ġmigr ant
ĠCoul son
d riving
ĠM au
ĠR um
ĠR acing
Ġunder m
Ġground ed
ĠOld ham
Ġbrut ality
Ġqual ification
Ġtraum at
Ġerup tion
Ġla undering
Ġlun ar
C omes
is closed
ĠC PS
ĠJ in
omm on
Ġsim ult
Ġcommun ist
Ġsn acks
worth y
G l
f ur
ĠD ust
ĠAn ger
lo ving
ĠBren nan
ian i
ĠDe e
Ġcou ch
Ġpop ped
Ġtoler ate
W ar
ĠT oul
Ġst umbled
ĠF a
ace utical
Ġbre aching
ĠPat terson
Ġeth ical
Ġadvis ory
4 50
R ob
ur ous
ĠYan uk
Ġp int
Ġpr one
Ġget away
ĠJohannes burg
Ġd oping
Ġfin ishes
ĠSy lv
Ġvol atile
ĠBern abeu
Ġadj our
ĠParalymp ic
c lear
Ġs idel
Ġy elled
ĠR aw
Ġbirth s
Ġphys ics
Ġcult ures
ĠHot sp
Ġbot hered
Ġconsequ ence
ĠAZ UZ
n atural
Ġp ork
as ive
ham pton
Ġfaith ful
Ġswitch ing
Ġintrud er
ĠAfford able
Ġres usc
Ġent ers
Ġpen ned
ĠThom son
ĠBenz ema
ĠRother ham
A ct
m ary
Ġ iv
il ot
Ġl in
Ġg reed
et e
ĠH D
iv est
own er
Ġass et
Ġphys i
ĠLy dia
ĠDog s
Ġamput ated
ĠCambridges hire
ock et
Ġprov isions
Ġconcer ts
Ġfore sts
ush ima
Ġbed side
Ġmat hem
Ġstret ching
Ġscre ened
Ġp ent
ĠT ul
ĠS ure
Ġfilm maker
for man
ĠiPh ones
Ġboun ce
Ġm ush
Ġd airy
Ġve ts
ĠDen is
ĠProsecut ion
C ons
ic ia
Ġan a
ĠL il
ĠG iants
Ġinter rupted
Ġrel ied
ĠAnn ie
Ġentreprene urs
ĠUnivers al
Ġd oses
âĢ ĵ
ble m
Ġpop ulated
Ġav al
Ġconfir ming
ĠInter state
Ġcommer c
enh agen
ĠUr ban
Ġculp rit
e ven
Ġt ed
Ġapp rehend
Ġsub d
Ġcand les
ĠOver all
Ġexplo it
ĠBeat rice
Ġl ending
ĠD und
Ġall er
ric ate
Ġtw isted
ĠEv a
ĠRel ief
Ġmos qu
Ġdepos it
e ve
Ġc akes
ĠW id
ĠL ucky
ĠHun ting
Cham ber
d et
ag ine
ĠN ortheast
Ġcar p
Ġra ft
ĠPat el
Ġattract ions
Ġfault y
ĠBuckingham shire
c amp
ul in
ĠJohn s
Ġfore casters
Ġste ering
Ġfresh man
Ġarr ange
ĠKer r
Ġdeton ated
ĠGuatem ala
pt ons
ood y
Ġcustom s
Ġimpl ant
Ġhook ed
ĠNa omi
ĠClay ton
Ã ¡
ĠC unningham
Ġbre w
ĠHar bour
ĠPl aza
Ġlif elong
Ġgreen house
Ġuns afe
j e
ĠM olly
art a
Ġi T
ĠMill ions
ĠRem ember
b ottom
f al
g ary
er ting
Ġbroadcast ing
Ġkiss ed
Ġconfisc ated
Ġr hyth
Ġup grade
ĠAcc used
Ġaccur acy
ĠAT P
ĠFell aini
inc ome
Ġboost ed
d an
m ont
Ġs upreme
oot ing
Ġcons ists
Ġgl ow
cons cious
Ġemphas is
Ġprolong ed
ĠMin neapolis
Ġextrad ited
m ain
st ated
Ġpat ri
Ġcool ing
Ġfrequ ency
ĠPear l
L ab
S er
re ally
Ġo ath
us ions
Ġremain der
Ġfix ing
Ġinstall ation
b les
ar us
Ġbl ade
Ġcol ony
ĠMcC l
Ġax e
deep ly
Ġsidew alk
b ably
ĠM az
Ġsh am
Ġprev al
Ġbro ker
ĠDavid son
Ġslow ed
b at
s i
ĠA K
ĠH ab
Ġr uth
Ġsh ifted
iv ik
Ġass embled
Ġprom in
ĠBu enos
Ġmort ality
Ġinsurg ency
ĠNCA A
er ness
ĠR udd
Ġinj ust
Ġdi ets
ĠWilliam son
Ġsol ved
Ġtrust s
ĠVan essa
Ġpal m
ĠElect ric
ĠGay le
Exper ts
Ġt ender
ur r
Ġcomb ine
Ġport ions
Ġcha otic
Eur ope
it ants
ĠH utch
ain ing
ct ica
ĠK urt
ĠV ent
ĠAnd ers
Ġposs ibilities
Ġperform s
Ġoccur ring
Ġlength s
Ġlav a
lar gest
ĠPors che
w hen
Ġp enc
Ġl ure
am ation
ĠA FP
ĠW ine
um ption
Ġdis par
7 2
ĠV ers
Ġ4 50
Ġinf ring
Ġdead liest
Ġpictures que
ĠRam irez
Ġfare well
Ġt in
Ġr ant
per ate
ĠCl iff
Ġpolic emen
lim ited
Ġintellect ual
Ġl am
Ġj umper
Ġdiv isions
ĠFin land
ĠSum mit
ĠRh odes
Ġo we
ry n
Ġmis under
Ġbi as
ĠBat man
ili ating
ĠTon ight
Ġindefin itely
Chamber lain
ting u
Ġrem inis
ĠHar old
ĠAd vent
Ġking dom
Ġfortun es
9 2
Ġn a
Ġwe pt
Ġsk ysc
for ced
board ing
ĠMajor ity
Ġt apes
Ġb end
Ġr ude
ĠY az
Ġsub tle
raz y
ĠZh ang
ĠEug en
Ġt aped
Ġin adequate
al p
ur ring
ri ven
ĠL em
ĠFranc o
ien ne
ĠDou ble
ĠP ew
ĠP esh
ĠG us
Ġv iable
Ġsp ike
Ġblack s
Ġtechn ically
work ers
ĠCor respond
Ġpack s
Ġwarr ants
, âĢĿ
Ġg ifted
ĠC ell
Ġal beit
ĠD ob
Ġinter f
ĠDe al
ĠCar ole
Ġannoun ces
Ġcompat riot
ir ational
ĠN ato
Ġen roll
Ġimp orted
ov ie
Ġbo ast
Ġprocess ion
Ġsuspic ions
Ġremark ably
W ASHINGTON
ro ke
Ġcon cess
ĠG erald
ĠTr ue
Ġshare holders
Ġlik ened
ĠWol ver
u j
Ġre j
ĠL GBT
Ġinc arcer
Ġinj ected
Ġsw earing
Ġalcohol ic
ĠPan etta
Ġgal axy
ĠPam ela
ĠW ald
Ġcampaign ed
Ġcirc us
ĠM um
ĠN iss
Ġcl ause
atch i
ĠAt kinson
g ged
p res
ine es
ocr acy
Ġfatal ities
ĠLar ge
ĠD over
ber ra
Ġun harmed
Ġprov incial
Ġpot ato
ĠEm manuel
ĠOf sted
ĠNat asha
Ġt ends
Ġc rem
at ri
Ġp ie
Ġd azz
ĠS asha
ad ic
Ġad orable
ĠSt op
Ġgen et
ĠGr ammy
Ġcor ps
Ġpot atoes
Ġhor rendous
Ġorigin ated
Ġske pt
ĠFur ious
Ġdistr acted
prising ly
s es
Ġad verse
Ġun av
Ġund isclosed
Ġprosp ective
Ġprovoc ative
u h
Ġaw ake
Ġfr idge
ĠZ ak
Ġhor rifying
Ġconsum e
Ġlaugh s
ĠAntar ctica
O ut
at hetic
it ably
Ġin accur
ist ically
Ġsoc ks
weet ed
yc led
ĠRoll s
ĠHM RC
Ġant ics
Ġtask ed
Ġtact ic
w right
ĠM TV
ĠWar ning
Ġrisk ed
OR E
ĠVen us
Ġenthusi astic
Ġcons ensus
Ġsl opes
Ġstr ay
ĠGu ards
Ġlo ads
Ġpred icts
ĠEgypt ians
Ġdecre ase
Ġrec ycling
ĠRe ver
ele cted
Ġoper a
Ġagric ultural
c oin
Ġb ark
Ġre ct
Ġcr ush
ĠAn s
ĠCl imate
Ġstand off
Ġz omb
Ġign or
Ġmemor abilia
Ġneckl ace
Ġvide ot
ĠSu ccess
ĠNob le
Ġcaution ed
Ġreconst ruction
Ġf old
st rom
ad os
Ġsa us
ĠR out
ĠHam id
Ġaccompl ice
Ġnomin ations
irm ary
Ġborrow ing
Ġf rog
ent e
ag han
Ġchild care
Ġsl umped
ĠPh ys
Ġunus ually
Ġaggress ively
Ġcous ins
ĠBuff alo
Ġl ur
ĠD ol
ĠG ina
Ġdis ad
Ġqu otes
ĠOx lade
ĠHor izon
ĠE agles
Ġpe an
Un ited
Ġtherap ist
E E
Ġre lying
ĠS ina
ĠH ospitals
ĠPar ks
Ġkil og
ĠCommun ications
ĠLatin os
p sey
re cy
Ġr ational
Ġobst acles
ĠRover s
Ġcongrat ulated
Ġinterpret ation
le man
Ġprof iles
Ġsens ational
Ġprogress ive
Ġsymb olic
Ġsolid arity
Ġdemol ished
complete ly
op en
Ġdec omp
Ġret rieve
ĠDe le
Ġprob able
ĠRos en
Ġassoci ates
Ġcorpor ations
Ġparach ute
Ġl iability
ĠSt acey
ign e
Ġsafe guard
ĠFil ip
ĠBeh ind
Ġperpetr ators
ĠHotsp ur
Ġhe ars
ol ics
ĠN TSB
ry s
Ġind igenous
Ġlit ter
Ġcompet itor
viron ments
ĠCons ervation
ĠRyan air
Ġg rain
ĠN am
ĠG wyn
out heastern
ĠV ern
ĠWill is
Ġlabel ed
Ġinaug ural
8 6
R oy
Ġen rich
Ġstud ios
Ġviol ently
ĠAfric ans
ĠEv an
Ġchem istry
Ġjack ets
ĠFuk ushima
ĠTanz ania
U T
ir med
Ġmon keys
ins ki
Ġkind ness
Ġrall ied
Ġbl end
Ġinf ants
Ġ11 1
ĠHod ge
ĠCop enhagen
Ġreass ure
Ġextrav ag
ĠS weet
ch t
Ġgen ius
Ġsuper model
Ġhon oured
Ġcontest ant
Ġreward ed
ĠShir ley
ir ky
ĠH ours
oy a
Ġpred ictions
Ġbow ling
Ġbe ans
os y
Ġex tingu
Ġsp rayed
Ġup hold
Ġcomp uls
ĠJohn ston
Ġport fol
ĠWal ton
f old
i ations
w icks
Ġ âĢĻ
Ġfor ged
um atic
Ġcomp osed
ĠBre ivik
Ġgren ades
Ġaccompany ing
ĠD I
Ġafter ward
ĠWh atever
ĠMag ic
und ry
ĠRo ose
Ġamb ulances
Ġplun ge
ĠFull er
ĠControvers ial
Ġw ary
Ġw aking
Ġb ureau
Ġe uthan
ĠTh ink
ĠDe ila
Ġtrans fers
Ġaccount ability
ĠBlack s
Ġdispat cher
? âĢĿ
m ac
Ġch im
Ġlaw maker
ĠRe eves
ĠCo ff
Ġorche str
Ġres orts
Ġsupp lying
Ġer ected
ĠLy nd
A D
Ġmar ching
ĠBreak fast
ĠEthiop ia
S am
s ix
am ount
iv ic
Ġro oft
ang ar
ĠNick y
ĠSl ovak
Ġstress ful
Ġsup rem
Ġrecip ient
gener ation
ĠRol and
Ġc ares
ĠT rain
ĠP ater
os lav
oc ese
Ġexp osing
Ġconsider ably
Ġhistor ically
Ġancest ors
Ġlandl ord
ad ows
Ġe ats
Ġins ect
Ġsl aves
Ġext inction
ĠMail online
Ġweak ened
D ec
r ament
at isf
ĠC reat
ĠiP ads
ĠFle et
ĠGat wick
Ġbarrel s
ĠAbr am
ou fl
ĠBr an
Ġrest oration
ĠCan berra
**** *
ĠThrough out
Ġreiter ated
Ġcr ater
lo ads
Ġconce al
Ġd amp
ant ically
Ġdis rupted
Ġdown stairs
ĠIraq is
met re
Ġtast es
Ġdesp air
ĠPel osi
forman ce
A lex
v ian
Ġst alking
Ġher s
ink y
Ġten ants
Ġcit es
ĠIm perial
Ġperm its
ĠE to
Ġfl ock
ĠJo ey
Ġdel ivers
ĠCourt ois
b ra
ab al
ĠAl astair
ham s
ĠPresident ial
Ġide ology
Ġattr acts
ĠFern and
Ġgro in
ex per
ĠRo jo
ĠFar ah
ĠRick ie
Ġinaug uration
Ġfug itive
ĠF it
ist on
Ġbeing s
Ġorig ins
Ġhy giene
or ate
ter man
ors hip
Ġbre aches
Ġsun k
ĠMel anie
Ġmedic ines
ĠHard ing
ĠPo ole
Ġpedest rian
ĠVi enna
m n
ad oes
am ework
ĠH BO
Ġadv ising
Ġscar f
ĠSev illa
Ġsubmer ged
m ass
s hed
Ġin ability
ab a
ĠK w
Not hing
ĠiT unes
C or
Ġt ires
ĠL ith
Ġsh ores
Ġsn iper
Ġtum or
ĠB ates
ist ing
ren al
Ġres on
Ġcur riculum
L U
M ex
Ġher d
Ġun author
Ġrel ies
ĠCar rie
ĠMay fair
Ġbad ge
Ġturn out
Ġ196 1
ĠWood ward
Ġfuel ed
Ġflu ids
Ġb io
ĠL ump
ĠG DP
Ġmob il
ĠGreen wich
Ġ195 3
ĠQuest ion
F ace
che ck
ĠVict ory
G irl
Ġl ymph
Ġle isure
Ġqu izz
Ġinvest or
Ġer ad
ĠCle ment
Ġspl ash
ĠHS BC
Ġth read
Ġl akes
ĠD ata
ĠK C
Ġen vironments
ĠMar ion
ĠMon k
ĠHam burg
ĠJon ny
Ġgall ons
Ġdischar ge
wicks hire
ĠP ole
th on
Ġcont ender
Ġsc ales
ev il
Ġ17 0
ĠChief s
ĠArch ae
Ġag on
ĠEv idence
Ġcontroll ers
ĠPhilipp e
ĠS NP
ĠA R
ĠK ap
Ġdef iant
Ġdri ft
rop he
ĠAp ollo
Ġoptim ism
ĠR onnie
Ġle ase
lud e
Ġcoast line
Ġoblig ations
Ġaccord ance
ĠM og
Ġsk illed
het amine
B o
ĠA qu
ĠSt rip
Ġrel ay
Ġri p
ĠHen ri
Ġingred ient
ĠM ong
ie ve
Ġins ec
Ġworld s
Ġcre ations
fig ure
ĠIM F
Ġst itches
ĠR if
Ġch in
qu ality
Ġcr unch
any a
Ġviol ate
Ġheavy weight
Ġhik ing
ĠCala is
Ġc av
ĠC ul
ĠUn ite
Ġevent ual
ĠWeb ster
ĠIr vine
ĠHay ley
Ġb ent
Ġp ant
less ness
Ġmerc y
Ġwand ering
kill ers
D id
Ġl ashed
ĠN ut
qu is
Ġdraw ings
Ġsurf aces
z uk
Ġl ia
ĠS lim
ill es
ul ator
Ġdep arted
Ġprogram ming
reg n
Ġreact or
Ġmicro sc
Ġmamm oth
z el
ĠW ik
ĠW iggins
ĠMo D
Ġaccess ed
cript ions
ĠWait rose
C all
ĠC aught
ĠC orey
ĠHe avy
Ġchar m
Ġaccount ing
Ġpred ator
Ġmal icious
Pro secut
f u
Ġmed ieval
ĠSte el
ĠMil ton
ĠRw anda
w y
Ġan nex
Ġcr icke
Ġter ribly
Ġadm issions
Ġveget able
Ġaller gic
u ating
Ġal ight
Ġsp ed
Ġdis belief
Ġsupp lements
irl ing
Ġdeep est
Ġhe ights
ĠC roy
ĠI RA
ĠHar bor
ĠEurope ans
ĠNich olson
Ġburgl ar
Ġcogn itive
O ff
ĠS ig
ra v
Ġskin ny
Ġupset ting
ĠSudan ese
ĠRedd it
F l
S uper
ar f
ic ity
ĠF aw
Ġabs urd
Ġswe ets
Ġlock er
ĠA EG
ĠH icks
ĠW ick
est ab
Ġsp illed
Ġun well
aren ce
ĠJo anne
ester ol
form ed
Ġjack pot
Ġstrateg ies
Ġquarant ine
he a
an ity
ic he
wit z
Ġendors ed
ĠEri ks
Ġumbrell a
Ġb ore
ct ional
ĠO g
Ġar bit
Ġfun ctional
ĠTom linson
Ġflo at
bu ild
Ġpatrol s
A M
N L
f ighting
Ġab us
Ġche ers
ĠRest aur
J ones
ĠC indy
ĠE agle
Ġexp elled
Ġdep icting
Ġwa its
ĠK athy
Ġpresent ers
Ġthrow s
L aw
Ġsc rew
man i
ied ad
Ġunder est
Ġinf ilt
ĠAs cot
Ġimag ery
ĠUA E
ĠMon is
Ġhun ter
Ġcrack s
Ġfier y
Ġincent ive
c igaret
Ġto es
Ġsomet ime
Ġpar as
ĠWat ford
icken ham
ĠFal con
Ġid ol
Ġmamm als
B el
m ember
ĠB oo
ment ed
Ġcar avan
Ġpass ers
Ġh int
ch y
Ġv ou
ib a
Ġte e
Ġass ail
me ter
pro portion
Ġdig est
ga ard
Ġregul atory
Ġvolcan ic
d ollar
in el
ĠIslam ists
ĠKo ch
ĠGib ral
Con nor
ĠAntar ctic
ĠLizz ie
ĠGifford s
ĠS ah
ĠC oc
and an
ens ity
ĠSp irit
Ġhead ache
Ġter r
Ġlo op
Ġnation ally
Ġreb ell
ĠSl oot
Ġhur ts
Ġske let
ĠSent encing
Ġnavig ate
ĠKur ds
ĠCoron ation
ĠStrict ly
ĠA x
ĠM ap
ĠK ass
Ġinter section
ĠGl oria
Ġvac ant
Ġunp redict
Ġcoord inator
Ġreconcil iation
b ons
ĠC emetery
Ġinter ference
Ġcomfort ably
ĠVer on
rank ing
h ouses
w ere
ent on
ĠG am
Ġcont enders
ĠV inc
aun ting
sm ith
Ġfer til
Ġadam ant
Ġn ap
ĠE ff
Ġex h
Ġind o
ĠSe lect
ĠMil ner
ĠKind le
ĠMiche le
u ity
Russ ia
Ġrecip es
Ġf eder
ĠSh ades
ĠCl ippers
ĠMcD onnell
ĠDrag on
Ġbaff led
ro ots
us ra
Ġsur real
ov o
ĠTitan ic
d ig
Ġto pless
ren ched
ĠGr im
Ġgra pp
Ġcontact ing
Ġdangerous ly
C ou
ĠG ian
ĠAs hes
Ġhar med
ĠEver est
Ġroy als
ĠGall agher
Ġtur f
ĠMedic aid
Ġsh ade
Ġab rupt
ĠV augh
ĠLe aders
Ġmiss es
amed ic
go al
Ġaccus ation
Ġmistaken ly
ĠM ist
ĠM LS
Ġinv is
Ġadd icted
Ġpublic ist
Ġseason al
ĠSa atchi
i ates
ke es
em i
ĠN orton
ĠG one
ĠG rove
Ġdis reg
Ġblank ets
Ġknock out
c ost
Ġs ack
Ġre wards
Ġter race
Ġbill ed
Ġcharacter istics
Ġinstit ute
Ġtim eline
Ġcease fire
Ġp iv
Ġe cl
Ġch imp
gh ans
Ġout doors
Ġro gue
Ġill icit
ĠMo z
ĠIran ians
Ġaud it
ĠBul g
Ġcheap est
ĠAld i
osa urs
ĠO ri
Ġlit re
ĠGra eme
Ġacqu is
ĠNiss an
ĠH ann
ĠW en
Ġbl o
enn ium
Ġsimilar ities
ĠCle ver
Ġstead ily
ĠKro os
ĠHanc ock
W atch
s omething
Ġc apped
ĠT ell
ĠI B
Ġass ure
Ġstr icken
Ġcop per
Ġexerc ising
Ġcommand ing
Ġroomm ate
ĠEston ia
b in
ĠShe n
Ġent ries
ik t
ĠSu k
Ġdisplay ing
Ġfraud ulent
ĠInf irmary
Ġreop en
ĠCroy don
Ġn onsense
ĠG amb
Ġinc omes
Ġrob otic
Ġbag gage
Ġslog ans
d ist
ar ians
ĠS ales
ĠCh in
Ġprev ents
Ġthr ill
Ġfulf ill
Ġpund it
ĠDund ee
I ON
Ġres ur
io let
ĠMc In
Ġpub s
Ġcell phone
Ġcat hedral
8 1
ol er
ter ies
ĠK yr
Ġacc ounted
Ġen rolled
Ġdown loaded
Ġcorrid or
e als
Ġ vel
Ġth umb
ke ley
Ġobtain ing
tar io
Ġn ortheastern
ul ing
ĠTre k
Ġw ickets
Ġm aul
ty pe
Ġpun ches
star ter
Ġbond s
ĠTw ickenham
ĠZur ich
Ġsp ouse
Ġser vant
Ġset back
Ġrob bers
or us
Ġh us
ad r
ec es
vel t
Ġprov inces
ols ki
Ġestablish ing
Ġcooper ating
Ġabort ions
Ġb ins
ĠSy m
ĠBu zz
-- --
comm un
Ġchol esterol
Ġc otton
Ġsh akes
Ġad oles
Ġsc o
Ġra v
Ġexp ired
Ġjud ging
ud s
ĠK ou
ell ini
ĠSt okes
ĠV as
Ġtrans mit
ĠCourt ney
Ġremote ly
Ġut il
ĠC az
ĠL id
ĠProfess ional
Ġadjour ned
Ġw ax
Ġl ace
ĠA A
ĠB ased
ĠDem psey
ĠSch midt
Ġsal ute
Ġpromot ional
Ġtroub ling
Ġsubsid ies
ĠHuff ington
ĠC B
Ġv ag
rib ed
ov sky
term ined
Ġbra kes
Ġagric ulture
6 1
Ġf a
Ġhe fty
ur ances
Ġst aging
ĠP A
Ġcon fer
ĠF ifth
Ġar rivals
Ġgr ants
ĠSh ore
br al
ĠBatt alion
t orn
ĠC ode
ch urch
ĠW er
em er
ĠN ear
ĠG uests
tain ly
He y
ĠOn tario
ĠMay er
Ġhar rowing
ĠMos es
f ax
Ġag ing
ĠSt ella
Ġtake away
Ġauction ed
Ġvacc ines
Ġmini ature
ĠBarn ett
ĠSac rament
P arents
s n
â Ħ
Ġt resp
Ġm alf
Ġdri ed
Ġobserv ations
embl ance
t ub
en y
Ġth riving
Ġg el
ĠA ly
ĠG iving
Ġso ber
Ġmin es
ey e
ĠNe ed
Ġlimit ations
Ġfab ulous
Ġdistr action
G iven
l ength
Ġbe ast
Ġal umin
ĠE ss
Ġbar n
ĠFam ous
ĠPict ure
ĠAn onymous
ĠLe ading
ĠAf ghans
ĠGo al
âĦ ¢
ol ley
ĠM ush
Ġ" (
Ġsk ate
ĠSoc iedad
Ġfunction ing
ut ting
ĠA be
Ġcr ane
ĠGer ry
the tic
Ġdiplom acy
ĠSat urn
Ab out
ĠRoch dale
i ren
Ġin nings
Ġl id
Ġg ays
ur an
gr owing
Ġmilit ias
Ġclear ance
ĠAct iv
as so
ĠU nd
Ġk its
Ġcolor ful
Ġsib ling
ĠRever end
Ġd ared
ans w
Ġball ots
ĠPl at
ĠKing ston
Ġcompon ent
Ġconsp iring
ĠMorm on
ĠHe ights
Ġland marks
ĠWal t
ĠTer rit
Ġchef s
Ġnut ri
Ġcul min
an as
Ġpract icing
Ġpsych ology
Ġtoss ed
ĠCalder on
ĠS outheast
ĠThe o
ong o
Ġsc out
ĠKe eping
Ġconc ussion
ĠBern ie
ĠTam ara
affe ine
est ation
Ġsh ifting
Ġchar ming
ĠCl arence
Ġgl orious
Ġbenef ited
Ġposition ed
ER S
Ġexplo ited
Ġtub es
Ġc ents
ĠT rier
im et
ĠB C
ib e
ĠSc outs
Ġsw at
Ġcomple tion
Ġnegoti ated
Ġunve iling
Ġharass ed
fe it
Ġw oes
Ġd are
ĠN RA
ĠCh ang
Ġfe eds
ple asant
Ġcor pse
ĠGu ild
ĠSil icon
Ġtow el
Ġbru ised
Ġbunk er
ĠD O
ĠBook ed
Ġscholar ship
ĠTh irty
Ġjourney s
lu ent
ĠSty les
Ġclutch ing
Ġatroc ities
Ġcove ted
ĠPater no
d oes
ĠA uss
ĠP E
ĠY oun
iz oph
Ġins ulting
Ġdep rived
ĠWar wickshire
Ġemploy s
Ġproduct ive
ĠBu y
ĠBarb ie
Ġmuseum s
Ġpleas ant
om on
Ġwh ip
ab el
Ġstat s
Ġhum iliating
unt ary
Ġadj acent
Ġundert aken
Mal iki
ĠBritt any
Ġportfol io
Ġto ast
Ġn ause
ĠT ate
ĠB ag
ĠO il
ist ical
ĠHar ley
Ġmir ac
Ġlunch time
ĠJournal ist
ĠGibral tar
k us
it ives
un ned
ĠR ene
ĠJ oin
Ġsecret ive
ĠMaj esty
ene gal
Ġdest ined
Ġpret end
Ġbrief ed
Ġrival ry
oren t
Ġincon ven
izoph ren
ĠO pt
Ġhigh s
ĠDirect ion
Ġgroom ing
Ġn it
ĠM aps
Ġe co
ĠW anted
Ġex empt
Ġout ing
Ġsec recy
Ġco ats
ĠChr on
Ġref urb
Ġtechn ological
Ġathlet ics
Ġnut rit
ĠCas illas
educ ated
M ed
ĠK on
ĠSt yle
Ġsurve ys
ĠJac obs
ĠKir by
arch y
ĠPul is
Ġsuic idal
ĠTrev or
id as
st aking
Ġsp iders
ant as
Ġmental ity
Ġrestrain t
ĠMove ment
Ġtablo id
Y oung
Ġinv iting
Ġmar itime
Ġsl ipping
Ġpay out
Ġhum id
ĠFl ower
agn a
Ġcirc ulated
Ġmicro phone
Ġrein force
Ġendors ement
Ġflaw ed
ĠC ool
os ures
ĠW u
ĠL if
Ġar rog
Ġrec ounted
Ġread er
ĠSoc cer
Ġtor rent
Ġcraz e
ĠBrom wich
ĠChile an
U I
d ate
ĠC ress
Ġwh opping
ĠCol bert
Ġenter prise
Ġhug s
Ġparalys ed
B ack
ĠM ind
ĠM EP
ĠC pl
ĠW earing
Ġcam oufl
ĠTob y
m or
om ayor
Ġsec ular
ots w
ĠIslam abad
Ġunc ommon
Americ a
Ġpedest rians
Ġapplaud ed
Ġo un
ĠT ucker
Ġle opard
Ġsupp ose
Ġspect acle
ĠBor ough
Ġtight ly
Ġdiscipl ined
Ġdys f
Ġlandsl ide
ĠLump ur
b enc
ĠGen er
Ġir responsible
Ġcalm ly
Ġpoison ed
storm s
8 2
F riend
Ġo ceans
ĠE ld
ĠK uala
Ġover sh
Ġright ly
Ġsit com
head s
ĠDem onstr
ĠNottingham shire
Ġcontam ination
ĠHey wood
ĠSak ho
b irth
Ġin und
ĠH ors
Ġch anted
Ġpl aster
Ġcr acking
ĠPro per
ĠAll ison
ĠBur berry
Ġtum ours
ĠFle ming
Ġmarg inal
ĠLuck ily
O p
p our
Ġcont end
oy ds
Ġstaff ers
ĠOf com
Ġsettle ments
ĠSacrament o
S ch
g ressed
ot hes
Ġst alled
Ġgu ides
Ġfail ings
Ġhall way
achel or
Ġw itch
Ġh ipp
ĠS tern
ro gen
Ġcon gest
rou ch
Ġins ufficient
ĠMur der
Ġpan icked
ĠEll iot
ĠCath olics
ĠRub en
Ġprompt ly
ĠFro ch
Ġpione ering
Ġarchae ologists
en o
Ġp orts
ier ry
Ġvis ibly
Ġsever ity
Ġsing led
ĠSim mons
Ġliber ty
Ġstrongh old
ĠT uc
ĠT raining
ad an
Ġst alk
ĠD mit
ĠL odge
Ġex ile
Ġdisc retion
Ġdev il
Ġsens itivity
ĠMag gie
Ġsett ling
F ive
ic ulous
Ġn ets
ĠT ennis
ag ain
ĠK ash
Ġche ated
Ġsl ower
ĠKrist ina
ĠVo ice
spr ing
9 6
h on
Ġr ust
uss en
uck land
Ġurg ently
Ġdent ist
Ġmerchand ise
M ark
Ġt ales
Ġc erv
ĠT roy
Ġst ocks
Ġres emblance
ĠSh ab
Ġcare taker
sp ot
Ġbal let
ĠMors i
ĠJagu ar
Ġb oring
es is
Ġre acts
ĠN OT
Ġout put
Ġres emble
Ġinc oming
ick y
Ġdet ached
Ġshort ages
ĠReg ister
D is
ĠT ree
ĠL ED
Ġen abling
ull en
Ġel bow
Ġrespond s
ĠComp et
izz y
Ġacknowled ges
Ġtorn adoes
Ġvoy age
ĠRoose velt
Ġr ays
od d
Ġun sc
ĠMar l
Ġlim b
Ġcock tails
Ġpredict ing
ĠLeg end
on ents
ĠHam m
Ġradio active
Ġsav age
Ġbats man
ĠFig ures
Ġmelt down
ahaw ks
Ġb ou
Ġf ares
ĠI C
ount y
Ġapp ropriately
au f
Ġflex ibility
Ġiv ory
Ġw icket
Ġf uss
im ity
Ġdo omed
Ġad vers
ĠY as
orm ack
ĠSp ears
Ġfront man
ĠIns urance
Ġbe e
Ġinv ention
Ġconsum ing
ĠBes ides
Ġdrown ing
Ġsandwic hes
Ġaval anche
M in
ut ches
ĠP ric
Ġj ar
ime ter
af a
Ġblood shed
Ġchallen ger
ĠChe v
Ġfre el
rec ord
Ġtex ted
ovy ch
Ġhus bands
o gh
ĠD orn
Ġme g
Ġtr aded
Ġmin us
Ġmar ble
ĠSe pp
ĠCo ach
ĠEm my
ĠPenn y
greg ate
Ġfisher man
ĠBrown e
Ġthr ust
Ġterrit orial
ĠWorces ter
ĠSof ia
Ġl odge
Ġint est
pl ing
ens ual
ĠHam za
Ġsuper hero
Ġunfair ly
Ġtopp led
Ġpain killers
ĠRoc hester
Ġpresum ably
P C
v ict
ĠC ats
Ġch ill
Ġfig ured
ĠMy stery
ĠHart ley
erg ies
ĠLabor atory
Ġembed ded
g rove
in to
Ġc rawl
or f
Ġg inger
and ra
ĠO sw
Ġche at
Ġexpect ancy
play ed
Ġspir al
Ġplummet ed
g ard
ĠS ikh
im ming
ell ers
ord in
ip ing
Ġport able
Ġdisg usted
ĠSot omayor
Ġcomr ades
t ile
Ġc yn
ĠT ac
Ġg aps
Ġprev iew
ĠJu arez
Ġinsp ections
Ġexc luded
ĠPre viously
ĠSad ly
Ġfer oc
ĠBeaut iful
Ġd umping
Ġfr amework
ĠBe g
Ġbit es
Ġfract ures
Ġrebu ilding
ĠCow boys
Ġnotor iously
E ST
ol t
ild a
Ġapp alled
ĠLe ver
Ġunw illing
Ġseparat ist
Ġincumb ent
H D
ĠT iff
ĠR ac
Ġcall er
Ġdest ructive
Ġ195 9
Ġapprec iation
Ġdolph in
ĠS or
Ġj azz
Ġpers ist
Ġmanufact ured
Ġtear ful
Offic ials
ĠCorrespond ent
ad ona
ĠA stron
au ff
ĠWal cott
ĠTy phoon
spec ified
Ġd umb
le w
ĠT rent
Ġmeas les
sex ual
âĤ¬ âĦ¢
Ġ77 7
r ill
Ġha uled
Ġprop ose
ĠCan al
St ate
Ġslow ing
Ġcasual ty
Ġbutt ons
Ġreminis cent
l ies
Ġg ossip
Ġon board
Ġv ain
Ġj ockey
iz able
Ġfl ick
Ġadm ired
ĠSuz anne
1 25
x x
ĠS enegal
Ġsp ar
Ġam assed
Ġext ortion
Ġeffect iveness
Ġped iatric
ĠObs er
Ġpreced ent
ĠHistor ic
ĠBuddh ist
reason able
h istor
y en
ĠB atter
ĠMay a
Ġinsp irational
Ġsun set
Ġpig e
ĠWool wich
Ġsurrend ered
G O
Ġto ured
ic ism
im i
ĠH ak
au kee
sh ould
Ġsol itary
Ġinjust ice
Ġsu ited
ant on
Ġcool er
ĠLo ft
Ġstrict ly
Ġdict ators
ĠChap el
G ermain
o ise
Ġth ugs
st ars
ĠA uckland
Ġan them
ĠE asy
Ġcl aw
Ġun int
Ġno ises
ĠMcC ull
ĠPat ients
Ġoverse eing
Lou is
Ġc odes
Ġtr actor
att a
ĠAc ross
Ġbenefic ial
7 6
C r
p riv
ĠG ior
ok ia
ĠMo ving
Ġbarr acks
ĠO F
Ġres ent
Ġ19 14
ĠSp a
Ġmar row
ĠDes cribing
ĠBer t
ari os
Ġcollect ors
ĠWars aw
Ġembark ed
d irect
Ġl ing
ft en
Ġprot ects
Ġste ak
Ġdiss ent
writ ing
Ġoverc row
9 4
ĠB R
ĠL ima
ĠN ord
ĠBer keley
Ġow ning
ĠWhe eler
V ER
ĠB ella
Ġsex ist
Ġvolunte ered
Ġcon gregation
Ġv ivid
Ġcl amp
ĠInd ians
ĠHay den
Bl ue
Ġpupp ies
Ġauthentic ity
ĠF lynn
ĠN est
ount ain
Ġext ends
Ġbreath taking
Ġaccur ately
Ġsurrog ate
Ġbog us
Ġar th
Ġind uced
Ġintegr ated
ĠBah amas
Ġphil anthrop
l ost
t el
Ġin ad
Ġre duces
ĠAr lington
aut ions
Ġdeliver ies
Ġattend ees
ĠDon caster
ĠWeb ber
Ġdefin itive
Ġconce ived
ĠM uk
Ġcont ra
Ġcompl iment
lo o
ĠStep h
Ġring ing
Ġcollaps ing
respons ive
f ight
Ġre ne
ĠS pl
ĠC afe
Ġour s
Ġcard board
Ġaffil iated
Ġrefere es
ĠNY C
Ġcheek y
viol ent
orent ina
v ised
ĠShar pton
ĠCall um
Ġdisag reed
isp here
Ġl asts
ur ities
ĠL ay
ĠR ita
Ġpro gressed
ĠK ell
Ġcan vas
Ġus age
ĠIm ages
sec urity
ic z
ĠC esar
ĠB end
ĠP ow
ĠF ortunately
ĠV ie
Ġthem es
Ġdisc ont
Ġview er
Ġembr acing
ĠT ru
ĠS ears
ĠC oca
ĠD olph
ĠF an
Ġra ging
ĠAng ry
Ġinsp ect
ĠSch war
ĠRock y
Ġhug ged
Ġgrat itude
es p
ĠC ory
Ġgun shots
St ation
Ġbrand ing
ĠLo ch
ĠManc ini
ĠDele ving
P re
aw r
ĠJo anna
ĠRoss i
Ġrig orous
Ġparaly zed
Ġinvis ible
z or
Ġc ush
ĠL oss
ĠWe ir
Ġpar an
Ġpain ter
Ġbank ers
Ġpurch asing
Ġtent h
Ġincl usion
ĠSurv iv
Ġbe am
ĠH oney
ri ott
Ġen listed
Ġrem anded
ĠInd ex
ĠDaniel s
ĠNas ri
Ġhaird ress
W ork
Ġout comes
Ġpr ow
Ġro ok
ocr atic
Ġexc uses
Ġlic enses
Ġd ough
Ġg y
ĠB aines
ĠP aren
Ġinc ap
ĠSh ak
ĠZ am
ball s
rag ue
Ġet c
OND ON
ĠH in
Ġres isted
ĠMan ila
At l
Ġdomin ance
Ġburg ers
ĠSocial ist
Ġspin ning
ĠR i
Ġqu irky
ĠAl ps
Ġbr icks
Ġdel icious
ĠSe ahawks
ĠÂł Ġ
Ġtouch line
Ġsac red
ĠLl oyds
ĠLut on
D onald
ib el
rie ved
Ġprox imity
ĠM ell
ame ter
ĠLux em
ĠBach mann
ĠEugen ie
ĠH ul
ĠD uck
up ta
Ġsp ate
Ġmid term
Ġill um
Ġhy d
Ġarch ive
Ġshel f
ĠRec ent
Ġir regular
ĠFour th
ĠTown ship
col oured
ĠAgric ulture
ĠJ ed
Ġtra ils
Ġreg ards
ĠDar ling
Ġsick ening
Ġrecre ational
ĠP av
Ġcomp r
ang o
Ġsl ap
Ġstand ings
Ġcor on
ĠDam on
Ġla undry
ĠMath ieu
ĠHav ana
ĠInit ially
Ġgymn ast
Ġp ony
ĠM ut
ĠL ille
ĠN O
Ġbo oming
Ġsw apped
Ġavail ability
Ġwild ly
Ġbull ies
Ġinterven ed
ĠPod olski
" )
S cient
m ake
in ement
ĠH ast
ĠP og
ĠMar quez
Ġhand written
Ġcal orie
Ġcounter terrorism
ĠDeleving ne
Ġg ir
Ġfr antic
ĠSam i
ou f
up iter
app ro
Ġreal ising
Ġsk et
ĠEven ing
alys is
ĠHon or
u ber
Ġ7 50
Ġbuild er
With out
ĠStock holm
Ġstere otypes
en i
ig ate
Ġcompl iance
An n
Ġlegit im
ĠKazakh stan
ĠYanuk ovych
st art
ra pe
ĠL one
ĠG lam
ier i
Ġimp acted
ĠCar rick
Ġfront line
Ġhero ic
ĠUp on
Ġpump s
in ous
Ġb ounced
is ly
ir able
Ġcr ushing
Ġdr ills
ĠDay ton
Ġspr int
ĠKit chen
ĠTas man
Ġt ended
Ġfor wards
ch anged
th or
ĠGood ison
Ġwood land
Ġcin em
Ġgradu ating
Ġsemif inals
/ /
C ourt
i q
r ir
Ġe agle
ĠC ain
air d
Ġtrad ers
Ġearthqu akes
ĠPlay boy
ĠDanger ous
Ġrelent less
ĠMeth od
P M
R ober
id is
ang ling
In vestig
ĠEx am
ha ired
ĠEri k
l if
in ley
os itive
gr ading
Ġsw am
yl ie
ĠRel atives
ĠCraig s
Ġto uted
ob le
Ġvis as
ĠSch ult
Ġhy brid
Ġsch izophren
ĠKy i
ĠBrig ade
Ġgast ric
l iv
Ġun expl
ĠV az
rit z
osp ice
rent ice
Ġgas oline
Ġmanifest o
Ġun specified
Ġimp erson
Ġcontrib utor
Ġfear ful
Ġenc ry
Ġhij acked
Ġsmok ers
h oe
Ġn ec
ĠH aven
Ġfl ipped
ah i
hel p
aid a
Ġwear able
Ġvar ied
Ġunve il
ĠOper ations
L a
am on
per atures
ll a
Ġconcentr ated
M E
f amily
n ian
s uit
w aukee
im ens
Ġch oked
Ġblock buster
ĠJer ome
ĠWalk ing
Ġinev itably
ĠEp stein
J et
S ix
Ġt ucked
ĠAri el
occ up
Ġhydro gen
ĠCraigs list
Ġw olf
ĠY ates
ah ino
Ġaff luent
Ġgar nered
Ġsne ak
m is
ĠF is
Ġad renal
Ġman eu
ĠTh ur
Ġdef raud
Ġbul ld
7 8
ĠM ert
ĠC in
ĠAn im
ĠYork ers
ĠCol lection
ĠRom ero
asc ular
ĠHind u
ĠBot ox
L P
ĠT ough
ĠB ri
ĠK ut
ib o
com p
ĠBe ast
Ġbuild s
Ġ37 0
Ġparent al
Ġcopy right
Ġuncon stitutional
Ġsummon ed
ivest ock
re a
Ġtr olley
Ġbet ray
Ġgr asp
Ġarrest ing
ĠChristian ity
Ġscr ambled
in ting
ft ime
Ġgl owing
ĠJeff s
Ġg ently
Ġst igma
ĠWe ight
Ġinst ability
Ġhor izon
Ġconvers ion
Ġrat io
Ġsmugg led
ĠStat en
Ġborrow ed
ĠMes ut
d riven
el come
ĠAd mir
i enced
t ank
is able
ĠT erm
Ġup market
ĠV it
fic a
ĠJordan ian
Ġmer it
Ġsteroid s
1 60
Ġcl own
ĠMar adona
Ġem ailed
ĠCon v
ĠDra ke
Ġbung al
Ġthe fts
ĠG ren
ĠTh ierry
ĠCr is
Ġcomment ators
ĠVal le
Ġcontest ed
Ġsuperv ised
Ġelev ated
ĠC el
ts man
ost al
." '
ĠCon rad
ĠDon ovan
Ġimplement ation
ĠM oody
ie gel
ek ah
Ġind ications
Ġtar mac
Ġpersonal ities
Ġspread s
Ġsky d
Ġhack er
Ġaspir ations
Ġconsc ience
ĠSloven ia
osy stem
Ġh alls
Ġsa ga
ĠH ers
ĠLe ad
Ġneg lected
Ġconn ects
Ġpath s
ĠOper a
Ġadvent ures
ent ric
ĠA man
ear y
ĠR aid
Ġaw ait
Ġins erted
Ġcoun selling
Ġbath tub
g ia
Ġm ould
Ġfor k
Ġdoor step
Ġtransl ated
Ġcoord inated
ĠPep e
Ġoverlook ed
ĠHast ings
E ar
s im
Ġw ipe
ar go
Ġg uru
ĠR ound
ink le
ĠMon th
ĠAll ah
quar ium
tra ined
ĠLeg ion
ĠMick elson
Ġash ore
Ġhazard ous
ĠBh ut
7 4
H ouse
Ġbe es
Ġch unk
Ġfl are
Ġchar ism
Ġpass er
aff ected
Ġhur led
Ġdistrib ute
Ġcondemn ation
Ġarra ignment
end ant
ph a
Ġpil es
ĠLuxem bourg
F oot
Ġl iner
ĠB omb
ĠL ama
Ġcl oth
ure en
ator ial
ĠGre ig
Ġlegisl ators
Ġextravag ant
L ONDON
Ġsp urred
are a
Ġcons ulted
Ġpar amedic
Ġpract ically
Ġfu elled
S ir
ist air
art ime
Ġk ay
Ġthird s
ĠRef uge
Ġsimult aneously
Lab our
ĠS amp
Ġsp ont
Ġab dom
Ġmar vel
Ġstock p
ĠNich ols
Ġintens ified
ĠTrier weiler
Ġc affeine
ĠC yn
Ġrec ons
ĠRe fer
Ġtow ed
ĠWr ite
ve illance
ĠS ul
ol ajo
ĠB B
ĠIn quiry
Ġmed ically
Ġwear er
ĠShar ia
Ġcommemor ate
ĠPast or
Ġfru its
ĠJ upiter
Ġam end
ĠAn ch
Ġsl iding
Ġdeterm ining
Ġastron omers
er get
ĠC ech
ĠP addy
Ġinter fer
Ġref r
Ġtechn ician
Ġmot ors
Ġterrit ories
Ġreflect ing
Ġconstitu ents
ĠDim it
: //
N ever
ri vers
ĠG upta
ult an
ĠAs k
ĠStephen s
Ġjurisd iction
i ens
ĠG ig
ĠHam pton
Ġstret cher
Ġmeasure ments
tr ans
Ġmel ting
ĠCay lee
A w
C ity
ĠJ ailed
Ġbl oc
ĠMar r
med itated
ĠChar ity
Ġcomment ing
Ġtraff ickers
ĠGar ry
erm o
Ġstamp s
ĠYan kees
Ġgovern ance
Ġprejud ice
T om
Ġth rive
id able
ad ish
im o
ĠW are
ĠO c
old en
Ġres h
Ġconven ient
ĠLer ner
A ir
J esus
Ġf ried
id an
st ore
ĠC ody
ĠW ess
Ġbo asting
Ġvis ibility
ĠRou hani
Ġrab bit
9 3
Ġl iable
ĠP ath
Ġch oking
Ġhom ework
Ġclass ical
ĠOr t
Ġhighlight ing
Ġprosper ity
B ron
j ar
Ġc ensus
Ġp ushes
Ġn ud
Ġman ual
Ġen quiries
Ġimp aired
az ir
Ġlim iting
Ġhistor ians
fashion ed
g ral
Ġg rop
Ġha irc
ĠHe in
Ġcomm ands
Ġco ached
Ġcontin ually
ĠMal aga
Ġhal ftime
Ġrobber ies
Ġsubs crib
Ġovert urn
3 80
f ounded
ol ves
Ġsc ent
aw ar
Ġfl ashing
Ġmake over
ĠGeoff rey
ĠSach s
Ġc od
ĠK ep
Ġgr ams
ĠSu u
Ġclos es
ĠCle an
o ist
ar ling
ĠM atic
ĠH ale
de ath
Ġoverwhelming ly
Ġreign ing
Any one
ed ge
ĠS ens
Ġg raz
ĠI CC
ĠP rague
Ġcur ved
Ġpain staking
Ġbar bec
Ġprotect ions
Ġqual ifications
ĠBra ve
ĠNav ar
ĠEngine ers
Ġunst able
d est
ĠL akes
Ġint ricate
Ġcont ag
Ġconf using
Ġdesign ing
Ġbab ys
str icken
ĠPet ro
Ġinund ated
E v
Ã Ń
Ġp aired
ĠH ogan
ĠV a
reat h
ath lon
Ġmar ital
Ġpan or
Ġsyn thetic
% )
w d
us ement
ĠK ham
Ġneed le
Ġpast a
Ġlight ly
ĠApp eals
Ġattend ants
ĠNeighb ors
Ġcolon ial
ĠLine ker
w ild
Ġp anda
ĠNe ander
reg or
Ġconst able
ĠBre aking
Ġtor so
U D
Ġt ick
ĠE D
Ġch oke
ĠV ale
ĠArgent inian
Ġroyal ty
Ġmir rors
Ġfinger prints
Ġpip es
ĠThorn ton
Ġv ile
ast rophe
Ġlit igation
ĠWar nock
ĠTal ent
Ġenfor ced
Ġanonym ously
wa ite
Br ide
Ġquant ities
Ġhumil iation
ĠLaud er
Ġc ad
Ġth umbs
ĠAm id
Ġsell er
Ġpack ing
ĠKn own
ĠCath y
Ġresist ing
k ov
Ġt igers
ĠB od
Ġper il
Ġavoid ance
Ġapolog ies
Ġmort ar
Ġpill ow
Ġrecip ients
Ġcere bral
Ġo live
os ion
ĠE gg
ĠK an
Ġret rial
Ġpat ches
Ġden ounced
Ġow es
Ġforg iven
D et
b ay
w ent
Ġun just
uch y
ĠZ one
form ing
ĠBro ck
Ġkey board
isl av
ĠFin ance
qq a
ĠTiff any
B en
Ġc asket
Ġf res
hip s
Ġheart felt
hol es
Ġdemonstr ating
Ġuns ett
Ġsight ing
Ġhorm ones
ĠHew itt
l uck
ĠN okia
Ġv ine
ĠMar ian
Ġdef ied
ĠChi ellini
f urt
Ġun ravel
Ġpol ite
Ġpre acher
Ġdef ect
Ġdr astic
Ġob jected
raz en
eck er
Ġfreed oms
ĠEr nest
Ġremind s
spec ial
Ġclar ify
Ġfren zy
Ġskept ical
Ġb inge
ĠP asc
Ġal erts
ĠBer ahino
ĠGill ard
Ph il
usch witz
G roup
f alls
im er
ĠG ust
IS IS
Ġself ish
oz a
Ġvir gin
ĠMill ie
ĠWes ley
ĠFi orentina
H igh
g ments
Ġe ch
ĠN ile
Ġsh ades
Ġstat ute
ĠMil waukee
Ġscen arios
Ġstruct ural
ĠCard inal
ĠOw ens
ĠM ile
ĠO S
Ġdes erted
Ġgen ital
Ġdi ameter
Ġinterview ing
Ġhon ours
ĠTe achers
Ġsymb ols
Ġbehead ing
esare an
m il
or gh
om enal
ĠT otal
Ġle agues
Ġbel ls
ĠLe ighton
Ġrequest ing
ĠInter view
Ġheav iest
ĠTibet an
Ġsp ies
ĠAl cohol
Ġencoura gement
Ch ildren
Ġdark er
ĠCrow ley
Ġfrag ments
Islam ic
Ġannoy ed
ĠKirst y
Ġunpredict able
p ay
Ġw ishing
ĠMar riage
br inging
Ġsy nd
ĠTra il
Ġpositive ly
ĠParliament ary
ĠTou ch
ĠNever theless
ĠRah man
Ġcatal ogue
ib al
Ġdown ed
Ġdrug ged
ĠFl ood
Ġinsp ected
ĠSome one
mar ried
Ġfashion able
Ġvir uses
Ġapprec iated
ĠPolit ics
Ġunexpected ly
ĠKob ane
Ġswall owed
w ishers
Ġb ald
ĠS omething
Ġg ases
Ġdirect ing
Ġfall out
Ġfav oured
ĠWel come
Ġguarant ees
ĠAdeb olajo
Whe ther
1 10
re b
Ġreg ulate
Ġcommun icating
Ġsoc ially
Ġwild erness
ĠGeorg ian
Ġoutbreak s
Ġerup t
l os
Ġf art
ĠP oppy
ok s
Ġ19 39
ĠAl istair
ĠRe eva
Ġdem ise
Ġlack s
ĠUnder ground
ĠAv iv
Ġstrateg ist
8 3
ĠI rene
Ġun pleasant
Ġback stage
ĠSer ious
Ġ24 0
Ġ78 7
Ġch ancellor
Ġinv aded
Ġadm ire
ĠMc Queen
lev ard
Ġfavor ites
p ublic
ĠB ooth
ĠShe ila
ĠAd olf
Ġwond ers
ĠMu eller
Ġsculpt ures
ĠIndust ry
ĠBulg arian
ĠM ob
ĠC ON
ĠF ly
oun cing
Ġsc ooter
Ġplay maker
Ġend e
ĠTrans cript
ĠBall on
P I
j ev
ĠF ey
ĠÂ Ń
port ant
Ġadv ancing
Ġsac rific
Ġlobby ing
Ġhumil iated
Sem itic
T er
c ity
i i
or ously
ĠA uschwitz
ĠP AC
ass ies
Ġdef eating
Ġdisc arded
Ġav id
ĠWill ie
ĠPro duc
ĠChe m
âĢĿ .âĢĻ
Ġcontent ious
ĠHait ian
ĠDor othy
K ing
p rop
le gal
ĠT aj
ĠB ec
Ġex terior
ite z
ign o
Ġam nesty
Ġboost ing
ĠMax well
Ġinflamm ation
count ry
s aid
ar er
ort ing
Ġun responsive
Ġim aging
Ġam ounted
ĠAm azing
Ġaccount ant
Ġunc ont
Ġclos ures
rim inal
Ġprec autions
Ġvary ing
Ġruth less
Ġhand y
ax ies
ĠZ amb
Ġspec ulated
Ġdist ances
Ġfra il
ĠNor ris
ĠCatal an
ĠCommer ce
ĠRestaur ant
in ers
om fort
ĠD ressed
Ġcl ergy
Ġdown turn
Ġsuccess es
ĠNA S
ĠMot ors
Cl aims
Ġec osystem
Ġquizz ed
E ver
th ia
ĠY u
Ġtr am
ĠMar se
ĠSh ock
Ġext r
ĠNorth umberland
Ġliter ary
tt p
Ġcert ified
ĠAN D
ĠIP CC
ĠAnaly sts
ĠTuc son
d ers
l ived
at ches
Ġhe ck
Ġnot ices
ong s
Ġdis proportion
amp hetamine
ĠWil fried
ĠClaud ia
names e
n ation
ot hel
ĠA gent
Ġ' (
ĠJ ude
ess e
Ġbr ass
gr ily
Ġinj unction
ĠAd m
ĠMad off
Ġimpl icated
ĠRet ired
Ġhaun ted
Ġinterf ere
Ġabdom inal
ru ly
per or
Ġcr am
te ga
Ġspec ulate
ĠBl ock
Ġactiv ated
Ġhon ors
ĠCarol yn
Ch ris
Ġurg ency
ww w
Ġrecre ate
ĠRams ay
Ġmun icipal
Ġhomophob ic
awr inka
Ġch ambers
Ġbl ister
Ġconf ess
Ġpass word
ex c
Ġjoin ts
Ġste er
Ġep ile
Ġscr ub
ĠGi ul
Ġbehead ed
Ġindo ors
F rench
Ġb atch
Ġass ists
Ġrun off
Ġrest rained
fess ional
Ġfo am
ar ry
Ġl enders
ĠC A
ĠC V
ĠG orman
ĠK iss
Ġreg ained
Ġ11 5
ĠRich ie
Ġassist ants
ĠCust omers
Ġdepos its
p oke
ion age
Ġup wards
ĠY o
ĠKend all
7 3
8 4
en za
il ic
Ġpre fers
Ġpass words
ĠWed ding
Ġdin osaurs
ĠJur ors
Ġarth ritis
cl ad
ator ium
Ġaband oning
ĠBed ford
U N
Ġwas ting
ĠV I
Ġen ables
ex am
Ġsw ear
Ġforg iveness
ĠKick starter
ĠWag ner
ĠLov ren
b c
Ġs outheastern
as ure
ĠL ara
Ġen erget
ĠSp ider
Ġsl ides
ush i
ĠGra ves
mans hip
Ġgru elling
B ook
ĠS it
ĠH P
ĠW ins
Ġse am
br other
Ġmid day
ĠCop a
cot ics
Ġbout ique
Ġreserv oir
Ġstew ard
F ather
J an
M ur
x ia
ĠG y
Ġout right
Ġass urances
ung ing
Ġhands ome
Ġmult im
ĠKe ys
ĠPlay Station
y ne
ĠHe idi
Ġpol o
aw ned
Ġconf inement
Ġequ ity
Ġpoll ed
Ġdecor ations
acer b
F rank
I ran
h un
Ġt ant
ĠW ear
ĠCh a
Ġsk ip
Ġsk irts
Ġfore casts
ĠNe uer
Ġpo ignant
ĠNig ella
Ġcontrac eption
ĠD ud
ĠE is
ĠAl ves
Ġpres umed
ĠAm elia
Ġthr illing
Ġdin ers
ĠMa ureen
ĠT reatment
ĠC ann
ĠP iers
ĠN an
art en
Ġfr ames
not hing
ĠEm otional
ĠOp ening
ĠFrank ie
Ġguard ed
Ġconclud es
Ġacad emics
ĠKrist en
Ġdistress ing
ĠReb ekah
Geor ge
Ġg igg
ac ens
ro ads
ĠZ l
Ġdom ain
Ġchick ens
l anguage
ĠH Q
ĠF en
ĠJ eb
Ġfil ter
ĠHar lem
Ġmor ph
Ġrev oked
ser ving
Ġsod a
Ġp ine
ĠT it
ad io
ĠW I
Ġsub stit
aut iful
Ġcreat ors
Ġthr iller
rec ogn
Ġcoinc idence
Ġoutp ouring
Ġhav oc
Ġw ig
ĠT ube
if ficult
ĠHer bert
ald o
ĠMal ia
ĠHealth care
h u
j en
ac as
ers ed
ĠR ing
Ġcl uster
ĠHar rington
Ġprof iling
den ly
ĠRec ently
run ner
Ġcondem ning
Ġreact ors
Ġdisorder ly
ĠRav ens
c roft
ĠS ang
ĠU d
iv o
ĠQu ick
ĠPalest ine
Ġkiss es
azz i
F I
a a
ĠW itness
ĠK and
Ġsl ated
ĠBe yond
Ġpir ate
Ġreceip t
r ings
t i
Ġ2 20
ĠG ol
ge ons
Ġme ga
reat ing
Ġresearch ing
Ġpromot er
Ġproceed ed
ĠJacqu eline
b as
ĠS out
ĠI A
orn s
ĠWest on
Ġaccess ory
ĠBen fica
Ġfair ness
ĠArt ist
Har ry
Ġdisgu ise
Ġted dy
ĠWolver hampton
or la
Ġp ause
Ġl ivestock
Ġe cc
ĠB irth
ĠL ans
ĠL iter
Ġbel ts
ĠMar riott
Ġcover t
amb a
urt les
ĠSher man
Ġtail ored
Ġtattoo ed
Ġw it
oc aly
Ġover ly
ĠMal ta
ĠBro s
Ġsatisf y
ĠMey er
Ġarra igned
Ġforb idden
Ġbrig ade
Ġbisc uits
1 40
Ġp oo
Ġm ish
ĠM am
ĠC oming
ĠP f
Ġan grily
ag ra
ĠJ ared
Ġle mon
Ġtr an
Ġins urers
hel an
Ġinit iated
Ġbehav ed
Ġcris ps
Ġrelie ve
Acc ording
Ġsalv age
H el
w ives
Ġar c
zh ou
Ġplaint iffs
ĠConcord ia
zek o
ch ant
Ġfe athers
Ġgl it
Ġsuper intendent
Ġsat ir
Ġrev ised
Ġprotest ors
ĠHills borough
bus iness
k ara
r us
id o
Ġins ulin
ale b
Ġve il
ĠMan or
ma res
Ġcow ard
ĠProp het
Ġoverth row
ĠH R
ĠW awrinka
Ġar tery
ĠBar row
ĠTra ffic
Ġescal ating
Ġmaid en
d rug
n ard
Ġan al
Ġcar ers
ĠShe en
rib ution
Ġyour s
Ġheav ier
ĠHaw kins
Ġpromot es
tra umatic
histor ic
ĠA bs
et z
ĠR anch
Ġimp ending
Ġart if
Ġconv ict
ĠMus k
Ġdin osaur
Ġswim mers
ĠCorn ell
Ġchat ted
Ġtoler ated
ĠGas co
ĠSold iers
ut o
ĠD ue
ĠBen itez
Ġice berg
Ġharm less
ĠMas sey
spe aking
Ġlapt ops
Ġd y
ĠB ord
ĠW yn
ĠU V
Ġcomp ounds
ĠOr tega
ĠIS S
ĠSent inel
Ġresemb les
ĠLoren zo
ikt as
ĠM RI
ĠH uck
ĠSh o
Go ogle
h ne
ol ars
ĠP oor
Ġan gu
ist ine
Ġfl ows
Ġhand les
Ġcust od
Ġstra ined
ĠPer kins
Ġwild fire
ĠStud ios
Ġstadium s
ĠRa qqa
Ġinte gral
Ġcann on
ĠViet namese
Ġadapt ation
Ġt apped
Ġin h
ul ative
ĠL ac
Ġwe ights
Ġoff spring
ne eded
uc as
iz ers
Ġbu ys
alif ax
inc luding
Ġrh ino
ĠT ut
Ġins iders
Ġmin erals
ĠEn t
ĠSh awn
ĠTe vez
ĠFre in
Ġgal axies
ĠCumm ings
ic ist
ri ous
ĠR idge
Ġne on
Ġme ter
Ġdon ating
Ġform idable
Ġspot ting
ĠVeter an
ĠRic ci
ĠTerm inal
n umber
ĠL ap
ap est
Ġad rift
Ġdis qualified
ov irus
ĠMal ik
ĠRos a
Ġkit ten
ĠTy r
Ġ195 7
Ġs ar
ĠEm m
Ġmum s
oug hed
ĠLoft us
B re
E M
en ary
ĠJ enson
ĠPh one
Ġpot ent
Ġhands ets
Ġmag istrate
Ġoutbur st
I ts
L N
n eck
le ged
Ġr anges
ĠG rowing
add ington
Ġclim bers
Ġax ed
Ġradi otherapy
gor ith
ĠChron icle
b ird
Ġw artime
Ġp umped
ĠM anson
ĠSe ym
gu ided
ĠRam adan
ĠHor ror
ĠSoph ia
ĠDy ke
Ġrhyth m
Ġb anners
ĠL ing
Ġwrong ful
Ġpret ended
icks on
Ġmal aria
Ġhang s
Ġkidney s
ĠKum ar
Ġunav ailable
ĠAdmir al
P H
S al
l aki
ĠC rouch
ĠD zeko
op les
Ġsh ack
ĠJ ab
Ġbl ess
Ġser vers
rib es
ĠHer man
Ġserious ness
ĠPhil p
Ġprior it
Af ee
Ġfasc inated
ĠChand ler
Ġparalle l
Ġrook ie
C rit
Ġw oken
Ġp est
Ġd ess
ĠS ime
ĠSt art
Ġall ig
Ġcomp ares
Ġins ane
Ġdisc omfort
Ġver ified
Ġbeautiful ly
Ġenthusi ast
T w
l off
m oor
il ight
ad owed
Ġv oid
ich i
Ġcond oms
ĠQ antas
Ġcor al
Ġclass ed
ĠMor an
ĠInter est
Ġoccup ants
Ġb aking
Ġb aked
Ġhe y
ĠH alifax
Ġr acked
ret te
ĠNorth west
Ġsum mary
Ġcondition ing
ĠFrances ca
Ġkilog rams
G reat
c oun
l ittle
Ġre jection
ir ut
Ġsl ash
ĠCl aims
Ġwealth iest
sec ret
Ġcateg or
ĠPres ley
H ome
ĠB eng
red o
Ġsnow fall
ĠLeices tershire
Ġdimin ished
R ich
ĠB orders
ĠN ish
Ġch ron
ĠV aux
Ġsw ine
Ġed ges
ĠGood win
gra ve
Ġadopt ive
Ġcurren ts
m ere
n ational
Ġev angel
Ġqu itting
Ġfact ions
Ġtro oper
ĠOs lo
Ġexpress ions
Ġsymp athetic
ĠCher ry
Ġmol ested
ĠRou ge
ĠLor raine
Ġcripp ling
W il
f eller
el man
ous ed
Ġcons ensual
ĠCo ch
Ġemb assies
ĠRec overy
bro x
Ġdemol ition
ĠPick les
ĠP ry
Ġsh ining
Ġex acerb
ĠSt ap
Ġdep icts
Ġoper atives
aul ts
ĠCol chester
ĠAll ied
ĠMad d
Ġnom inees
h ours
as is
as ers
eng ine
Ġpoor er
Ġmix ing
ĠBob bi
ĠDam ian
ĠRow e
Ġsail or
ilit ating
ĠChen g
Ġinad vert
ĠT ask
ot ive
ĠK ab
ick i
Ġbl adder
enn ial
Ġobject ions
Ġcompar able
Ġanticip ation
Ġpharm aceutical
adish u
ĠC ros
ĠP on
if teen
ĠN aj
ll i
Ġquestion able
ĠSw ind
Ġbroad band
ĠAv on
pat rick
Ġapprehend ed
Scient ists
ĠH es
Ġcapt ors
ĠCan nes
Ġcontract ing
7 1
Â ½
or ers
ime e
Ġcou pled
ĠPar amedics
ĠMic key
Ġchap el
ĠWol ves
p ath
Ġs q
ĠJ ag
ĠRe form
Ġess ay
Ġess ence
ĠCass idy
Ġpenc il
Ġdisreg ard
m atic
Ġf ung
al ks
ĠD ot
Ġsc i
Ġplay ful
Ġsing ers
ox ide
Ġ26 0
play ing
ĠJenn a
Ġ194 8
ĠSchult z
s kin
re asing
op ardy
ĠN ote
Ġpl unging
Ġup right
ier rez
Ġem ulate
Ġcomb ines
Ġprin ter
ĠLet terman
ĠId ol
Ġprivile ged
Ġg au
ĠI brox
Ġst ellar
Ġcomm ute
Ġext inct
Ġcontin uous
Ġgl ance
Ġworks hop
Ġpul se
Ġbra ke
ĠWat ers
Ġcry st
Ġfant as
ĠIsab ella
ĠCaz orla
he v
Ġfr amed
ĠPar ade
Ġstraight forward
ĠCop eland
Ġje opard
Ġsqueez ed
F ire
G overnment
Ġo ven
ĠR an
Ġpr ayed
Ġsc alp
ĠRe venue
aun t
Ġblack mail
ĠGu zman
Ġbright ly
Ġpump ing
Ġportray al
kus en
Ġv ague
av or
Ġcomm uter
ĠPr act
Ġpost c
Ġsw inging
ny der
ĠStr ate
ĠIb iza
Ġexceed ed
ĠThor pe
Ġbrows er
Ġmasc ot
Ġb ugs
an ies
Ġl end
ĠT all
ut ors
Ġle aning
ip se
ĠV idal
cl osure
ĠGr ac
ĠBase ball
Ġenerget ic
f ed
k iss
ou ched
Ġd uration
ot ally
ac ist
ers field
Ġman ned
ĠUn iverse
osp ace
ĠBe e
Ġemer ges
umb l
Ġpack et
Ġver b
dy ch
ĠFE MA
Ġsidel ined
Ġin put
ĠM ovie
Ġinter course
Ġmed ian
ĠGu ide
Ġill usion
ĠGre ens
Hope fully
w ave
Ġo uster
Ġ1 000
Ġde fer
Ġham pered
Ġlie utenant
L ove
U SA
ĠW helan
ĠR EAD
ip ers
ĠY OU
ek ing
Ġcent ered
ĠBar low
Ġrest oring
oper ation
Ġbull s
Ġsequ el
ĠExt ra
t ax
Ġp aus
ĠM IT
Ġbefore hand
Ġrem n
Ġrece iver
Ġpat rons
ĠSm alling
Ġfemin ine
M il
Ã ¶
ĠG ru
Th anks
ĠHun ger
Ġmeteor ologist
ĠLamb orgh
J u
at hed
le ased
Ġe ased
ĠG iles
Ġtheir s
Ġsc aled
ĠV all
Ġadd icts
ĠEar nest
App le
ĠVern on
ĠVeron ica
d ead
ĠM D
Ġtra its
Ġfra gr
ĠFro zen
G H
Ġal gorith
Ġra zor
sh ocked
ĠFl an
Ġfore front
Ġaud ition
ĠCam den
Ġbom bed
eman ja
Ġcourage ous
ĠBrid g
Ġdepth s
ĠBes iktas
ĠOrt iz
B oy
l inked
ĠD UI
ĠN ag
Ġinter cept
Ġ194 2
ĠKath ryn
Ġhorn s
ĠG ive
att i
ator ies
Ġreason ably
ĠRet ail
Ġbrace let
asar ay
ĠFant asy
Ġpiv otal
ĠLever kusen
C omp
Ġh oard
ou m
am ins
ĠF ocus
Ġun in
vel ope
Ġdin ners
Ġrap es
Ġacqu ire
Ġ195 5
Ġpor ch
ĠWorces tershire
Ġpersecut ion
Ġtran qu
Ġt ying
in qu
Ġs ectors
ĠSe ason
Ġcompar isons
Ġsmugg le
ĠMull en
Ġwors ened
ĠGwyn eth
ar raf
ou ble
et ed
ĠH ang
Ġdec eption
ĠBr at
.. .'
ĠPr ide
ĠMc Le
Ġdeb ated
par able
ij i
Ġg um
am ics
ĠP end
ak ery
ĠV id
augh lin
Ġdel ic
Ġstart ling
Ġbul ly
ĠCal um
Ġloud ly
ĠNorm andy
F ox
Ã ¨
at asaray
Ġb ree
ĠM orton
Ġle wd
Ġup graded
Ġdec ap
Ġdon ned
Ġpo em
Ġpubl ishers
Ġpir acy
ĠPrinc eton
ĠSeym our
c ond
ĠN eal
Ġall ied
ĠDe en
ĠNo el
ĠBer dych
Ġ194 1
ĠRic ardo
ĠPret oria
Ġnause a
Ġfreel ance
Ġt ier
Ġm ocking
om is
Ġe ater
Ġch ats
ĠLe vel
Ġ10 5
Ġbi ology
Ġsky line
Ġmort g
ĠHope fully
Ġgriev ous
ĠSina i
ĠVaux hall
ĠZ en
Ġsn ub
Ġtru ce
ament ally
Ġoverse e
y ans
re f
Ġin hal
Ġall ergy
rit ical
Ġsl ick
Ġsocial ite
ĠEl aine
Ġlo oming
lev ant
Ġadop ting
Ġpra ising
ĠSol o
Ġrenew able
Ġundert ake
Ġpals y
Ġecst asy
Face book
f lying
h uge
ĠR us
Ġper ver
Ġpre ference
ĠSh ay
Ġinform ant
Ġdeb uted
rid den
ĠX VI
ĠFrank furt
ĠAle j
rank ed
urr le
I O
Ġt earing
Ġa we
re ction
os ur
Ġad or
Ġstem ming
ĠChamp agne
ĠHung arian
Ġrecl aim
ĠDig ital
Cou ple
Ġf aded
ĠO y
ph ys
ven ge
Ġind isc
Ġgener ating
Ġdig it
Ġacqu aint
Ġrefr iger
s ided
w aves
ĠE ly
ber ries
Ġsc athing
Ġorgan izing
Ġlegisl ature
ed o
Ġb ri
ĠT owers
ut ory
ĠL un
ĠL acey
Ġfil ters
ĠMc Afee
Ġban ana
Ġanim ation
Ġsol icit
ĠMe et
Ġpregn ancies
Ġstre wn
ĠSol ar
Ġintegr ation
Ġemphas ized
ĠfiancÃ© e
ĠR ash
ĠMc Bride
Ġ195 8
ĠPers ian
Ġtermin ated
ĠPog ba
ĠC otton
Ġfor c
et ooth
Ġcur ve
AT CH
18 0
izz ard
ĠBM I
Ġswall ow
ĠLen o
ĠHos ni
ĠCitiz ens
ĠOsw ald
9 1
A h
K K
T op
ĠW H
Ġher ald
over ished
Ġpar adise
Ġbar rage
Ġentertain er
ĠLev i
lar ge
ĠLux ury
ĠDin ner
Ġstair case
ĠBoliv ia
Ġupro ar
ĠT eb
ec on
ain able
ak ov
ĠSt ay
Ġfound ations
Ġimp orts
Ġlit res
ĠSm oke
Ġphys icians
Ġtransport ing
Ġbow ler
Ġdread ful
Ġs cept
ur istic
ĠRe yes
Ġlisten ers
Ġpione er
ĠScar lett
ĠHil ary
ĠSnap chat
P ort
he by
Ġf aint
ĠT B
ĠC hed
ĠW ight
ĠL ak
aut ical
ĠKh alid
Ġunle ashed
ow itz
Ġj unction
Ġso ar
ib les
rup ting
ĠMass a
Ġblog s
ĠJod ie
U C
Ġd anced
ĠR ot
ĠF ears
Ġstat ues
Ġmet ab
Ġshut ting
idel ity
Ġdisappear ing
ĠResp onse
ĠPhilp ott
ĠT LC
ĠC ort
Ġcan ine
Ġtw enty
ĠCur ry
Ġquant ity
Ġflank ed
Ġstyl ist
ĠMog adishu
' '
E nd
m ajor
ĠC aval
ĠL ines
Ġv ap
ord ination
ĠRe vel
Ġspec ify
Ġdist inction
ĠBy r
ĠBur ma
Ġtrend y
Ġrein stated
ĠMcK enzie
Ġtransl ates
ĠPier ce
ĠSiber ia
ĠGior gio
Ġa ce
Ġw ards
or ig
ra red
Ġle apt
ĠAd vis
ĠOr thodox
sw orth
Ġbomb arded
Ġvar ieties
Ġmach inery
Ġmax im
Ġmiscar riage
Ġup bringing
Ġed itors
Ġexecut e
Ġmot ives
Ġtend ency
ĠPhilipp ine
Ġmel ted
ĠBou levard
Ġsin ister
ĠMS NBC
Ġincomp et
ĠGut ierrez
ĠKep ler
S ky
p op
ob e
ĠAl ready
its ch
ĠWin ner
ĠVik ings
Ġsa iled
ĠH ock
Ġsh rug
Ġpre meditated
Ġfinal ists
Ġhor rors
Ġdest abil
ĠSch we
Ġcat astrophe
Ġtow ering
stant ial
Ġinaccur ate
on ut
ĠS nyder
Ġsu ites
Ġpr icing
Ġass ignment
ĠBr as
uis ance
ĠRevolution ary
ĠMarse ille
ĠB oots
Ġjust ification
Ġter rific
Ġty res
ĠPeter borough
udd in
ĠSl ater
CA R
ba o
Ġunl ucky
Ġinhab itants
Ġecc entric
ĠA part
Ġst ub
ĠW is
ĠR iot
Ġpro port
Ġun true
ĠV AT
ĠWe eks
Ġgen itals
Ġread ily
work er
ĠPaul ine
ĠMill ennium
Ġobst ruction
ĠSystem s
Ġp our
im ental
and ing
Ġor n
Ġhead teacher
Ġprot e
ĠMon etary
Ġexpl ode
Ġdevelop s
ĠAugust a
Ġaut istic
oe uv
ĠMcD aniel
ĠMom ents
Ġcater ing
ĠGasco igne
H ave
h man
ic ans
ĠH ello
Ġha zing
ĠOb viously
Ġclass mate
Ġindivid ually
Ġdism ember
ĠHudd ersfield
ĠAbram ovich
he ed
ĠG ale
Ġsh aved
Ġmed all
ĠCl aus
Ġtranspl ants
f an
ĠA ra
ĠB ury
ĠP iper
ĠR ising
Ġbet rayed
Ġinvol untary
ĠSch wart
Ġmeth amphetamine
Ġoverse es
Ġcook ies
a ic
ĠM ikh
if iable
Ġch rist
Ġinter actions
ĠÂ ¿
Ġschool children
He alth
att ack
ĠJackson ville
char ged
ĠFood s
Ġflav our
Ġassert ion
ĠM ix
us a
Ġse als
ach o
ĠSp okes
Ġinst ruction
Ġren ting
ĠHear ts
Ġsmugg lers
Ġcamoufl age
Ġm apping
ĠH ick
Ġas c
Ġatt ire
ĠBut ter
ĠSe bel
Ġmor ale
Ġrepl icate
Ġemb argo
Ġgar ment
Ġimplement ing
M T
m ur
in um
us cept
Ġ" [
ĠO N
Ġsp ur
ĠU se
Ġun h
Ġconflict ing
Ġyouth ful
ĠIv y
dis g
vol ta
ĠHous ing
D ep
ĠS au
ĠMar in
rid ges
ĠGold berg
ĠQat ada
Ġpartnership s
Ġairstri ke
Ġwhistle blower
ĠAdeb ayor
Ġmatt ress
ip her
Ġsl ope
ĠEd mund
Ġgener osity
ĠReg ard
ba um
ĠB ain
ĠP izza
ĠE ck
ĠG ent
Ġcom for
ĠU FO
Ġpl aque
ĠV onn
Ġen velope
Ġdown hill
ah ar
ĠBer gen
Ġver te
Ġhun ted
ĠBra vo
Ġcliff s
Ġlect urer
Ġvandal ism
ĠMush arraf
Ġd well
Ġl aud
ĠS ana
em ate
ĠEur os
Ġcho ir
Ġtrad er
Ġcirc ulation
Ġhy dr
ĠPoll ard
Ġhelm ets
Follow ing
Ġcricke ter
T H
c ul
g re
s ight
ĠIn stitution
Ġover r
oy ant
ĠSc hettino
ina pp
ung a
ĠJen ner
Ġinsurg ent
ĠDy er
Ġphen omenal
ĠSebel ius
r ath
ĠF ine
Ġro pes
Ġcirc ulating
Ġapart heid
ĠDisney land
Ġslaughter ed
Ġwholes ale
ĠCyn thia
umbl r
6 50
ĠC andy
ĠB ug
ĠP red
Ġpro c
Ġbusiness men
Ġeconom ically
ĠEx c
Ġcat ches
Ġcop ing
Ġtransl ate
at ical
ĠG RA
Ġhospital ised
Ġsn iff
ĠPro duct
ĠEnglish man
ĠShar if
Ġintent ional
ĠFro st
ĠSep ar
C omm
ag eway
ust omed
ook ed
are l
ĠV and
Ġplay off
Ġfac ulty
Ġstep mother
ĠIr win
Ġgam ers
Ġacquis ition
S im
Ġw re
at ement
Ġb ask
ent ies
Ġdown s
month s
Ġshr ine
Ġreserv ations
ĠSusp ect
Y eah
en es
Ġwh ipped
Ġpol es
ach im
Ġnight mares
Ġhospital ity
Ġlight weight
ĠMed ved
Ġfair y
ĠFin als
ĠDal ai
Ġ2 30
ĠBrit ney
Ġblood ied
Ġquarter finals
Ġspl ashed
ĠGill ian
Ġstap le
ĠKem p
ad ays
Ġimp overished
ise xual
ĠPl ant
Ġconsult ants
Ġintrig uing
ĠKimber ly
S m
Ġwh it
ĠF emale
Ġsh adows
Ġso f
Ġback up
Ġgr isly
ĠMc A
ĠEd ge
Ġmass es
Ġopt ing
ĠGray ling
ĠSot heby
Ġpard on
ut al
ĠC obb
Ġy eah
ĠD ance
ĠL it
Ġv ans
Ġj ugg
Ġcl arity
ang a
Ġhapp iest
Ġexplo its
Ġcraf ted
Ġunanim ously
Mex ico
Ġcerv ical
ĠSwind on
Ġwe aker
um bers
ĠK un
Ġbr ighter
Ġprofession ally
Ġrebu ilt
et tle
ult on
ĠSc ol
ax man
Ġadm iration
Ġprop osing
Ġeduc ators
ĠLiber ation
Ġliber ties
Ġobst acle
ĠSerge y
Ġpean ut
B u
d led
Ġc ig
Ġh ay
Ġp act
ĠB elt
Ġrep eating
Ġday time
ĠEl le
Ġrepl ies
ĠGood ell
Ġmic row
ĠMey ers
Ġincent ives
c irc
Ġs uscept
Ġc aves
or o
Ġn urt
ol ia
ĠM ORE
ĠC ed
ĠW ither
em ite
Ġch ore
ĠCh ong
Ġcr ust
Ġimp art
ĠBar ber
Ġclear er
ĠChar ged
CH Q
N Y
Ġb umper
ol y
Ġar senal
Ġany time
ĠSh rop
ĠPer fect
ĠFar row
Ġdefin ing
Ġverd icts
Ġ194 7
ĠVol unte
Ġeval uate
Ġturb ines
Ġfu els
k owski
re qu
ĠB enson
ĠBe irut
Ġscr um
ĠEric a
Ġder ail
Ġclassroom s
ĠPeru vian
U k
ĠK illed
te f
ik o
Ġdev ote
Br own
Ġmasterm ind
z an
Ġd addy
Ġl amp
Ġl azy
ĠS leep
Ġsh outs
ath am
Ġorgan ize
sw ell
ĠSch urrle
Ġoffer ings
Ġoppos es
ĠInter pol
ĠWel ch
Ġsuffer er
aze era
ĠHold en
Ġstem s
Ġramp ant
ĠCou ple
Ġdecre ased
l iving
ĠP and
ra ved
ĠW orks
ĠW TA
um bed
ĠSc reen
Ġter rier
Ġexpl ored
ĠCount ess
Ġsell ers
ĠCharl eston
Ġrespect ful
ĠSW AT
Prosecut ors
answ ered
Ġcontag ious
B aghdad
r ador
Ġa ided
ou ane
ĠT aser
iv iano
Ġbl under
Ġchar red
Ġdem ographic
velop ed
ales e
Ġrisk ing
Ġcompan ions
ĠBel arus
Ġwood ed
ĠDug gan
ĠKash mir
ĠS ic
ver al
ra ising
um aran
Ġtra iling
ĠAng els
Ġstra ins
ĠGal atasaray
d u
in atory
ĠT alking
ĠD aly
ĠAr men
Ġind irect
com pl
Ġvill ain
Ġconfron ting
vet te
R od
ĠW it
ul ence
ĠN H
Ġwhe at
au ld
ĠBr anch
Ġcle ans
Ġart ic
Ġmot el
Ġcharacter ized
ĠSav age
Ġwreck ed
Ġthin ner
Ġawa its
ĠLim ited
ĠLaz io
Ġmortg ages
M C
Ġin herent
ĠM i
ĠP ig
Ġun real
og ged
ĠSp itzer
Ġref res
ĠEl ena
Ġaccess ing
itt ens
Ġresist ant
ĠEug ene
C om
k il
Ġa iling
ĠN emanja
Ġam usement
Ġexp end
Ġrul er
Ġtack les
ĠSpace X
ĠTrib ute
su icide
oros henko
Ġjelly fish
v i
Ġd wind
ĠB rain
Ġag gregate
ik er
Ġrest ed
Ġemb attled
ĠSuper man
ĠVer izon
Ġunderm ined
C ola
G ov
Ġb ishops
up erv
Ġun for
ĠY am
ann i
cl aim
Ġalleg iance
ĠCarl isle
ĠLeg isl
Ġconced e
Ġcord oned
B razil
Ġw ires
ill on
av ia
ool s
Ġche eks
ĠDev ils
ĠBou chard
ĠK T
Ġass uming
Ġstop page
be e
ĠEd u
Ġheart beat
ĠDes perate
Ġbroad ly
St ep
ĠFore nsic
Ġvo ic
ĠGre gg
Ġo ct
ow ay
Ġr upt
Ġsh red
ack ers
ĠWar wick
Ġpri zed
ĠRod ger
Ġjud iciary
Ġfierce ly
ĠAlv arez
ĠMedved ev
m issions
ĠCh ung
Ġarchit ects
Ġfract ure
ĠShrop shire
ĠN ug
ib u
ĠLondon ers
Ġpack ets
Ġneglig ent
ĠObser ver
Ġlegitim acy
n ar
v ous
he e
ĠC learly
ĠL um
ne e
Ġcomp osition
ough lin
ĠAb ed
ĠDo ha
Ġble ak
Ġdisturb ance
Ġdisg ust
ĠBil bao
G C
p ur
ĠB ub
Ġneed les
Ġgen re
Ġpat rolling
ĠMo ammar
Ġsle ek
ĠSea World
Ġhall uc
Ġnavig ation
ĠJas mine
ĠLamborgh ini
C ong
S ever
Ġc urs
ĠT orn
ĠS agna
im age
ĠR IS
Ġnot ify
Ġse ating
ost a
ĠGreen land
fl ies
Ġic ons
ĠAld er
ĠNik ki
Ġinvent or
Ġfestiv als
Ġseaf ood
Ġaccl aimed
ĠC oke
ĠMin ority
Ġsol ving
pro fessional
Ġwarm th
TS D
Ġcongrat ulate
Ġdeterior ating
s ch
ĠS ung
Ġbr othel
ven ir
Ġlevel ed
Ġfav ored
ĠMad uro
Ġcerem onial
Ġflo ated
pp e
ĠG iant
Ġres idency
Ġbl oss
Ġfl ocked
ĠAr c
Ġwr ists
ĠQ uality
Ġtank er
ĠBroad cast
ĠLA PD
ĠRow ling
ĠBanks y
Ġinstrum ental
Ġconsol id
ĠLad ies
ĠStrat ford
l aden
ĠF O
qu ins
Ġman ic
ĠTh under
Ġreg ulated
can o
Ġtom atoes
Ġmos ques
bag s
ĠKit ty
ĠAlv aro
Ġhairdress er
f ired
r int
Ġb akery
ĠH ib
ĠP oroshenko
iv able
Ġcomp elled
Ġsl ay
Th rough
aj a
ĠSe as
Ġmarket place
Ġz ip
ĠGreen peace
Ġarm oured
Ġult ras
ĠBu ild
ĠTour ism
Ġporn ographic
ĠMot o
Ġfoss ils
Ġparan oid
L ee
h l
Ġall ergies
Ġen acted
Ġbl ades
ĠAn war
ĠMar itime
ĠMon ter
Ġpress ured
che on
vent ional
ĠD ickson
Ġfl urry
ang led
ĠGu ilty
Rep ublic
Ġvent il
Ġstream s
onna issance
inter est
Ġtrigger ing
ĠAlf ie
Ġfacilit ate
M I
R em
es ha
st own
ĠT ak
ĠJ al
ll ie
Ġsw ell
Ġgun point
ĠWar rington
ĠTra volta
ĠRad ar
Ġanaly se
Ġthank ing
ĠBurn ham
Ġtum ble
Sec ond
Ġbungal ow
w ald
Ã ¼
Ġs orrow
at ters
ĠF rey
ew ater
ĠTh reat
ĠV il
Ġairl iner
Ġfro st
Ġassass inated
h icle
m oving
m oral
Ġdeb it
lin ers
Ġcho oses
Ġcheck points
Ġphotograph ing
ĠSar acens
Ġrif e
Ġscar red
ĠBook er
ĠVik tor
ĠSimilar ly
Ġt uck
Ġl ashes
st aff
Ġon coming
im en
Ġacc ol
Ġfil thy
ĠFl ag
Ġcertain ty
Ġmater nal
ĠCal vin
Ġ195 2
R L
j ah
Ġb ass
ĠA head
ĠP ill
ret ched
ĠBur k
Ġmeth ane
ĠWolf sburg
ĠBlu etooth
C learly
m g
ec ca
ond o
Ġar ist
ger ald
ĠMart ian
prov oked
Ġfestiv ities
ĠSchwar z
c ases
Ġc uis
Ġst acked
ĠB ae
Ġj aws
ĠCh oud
ĠAl ess
Ġfr antically
Ġtre ad
ĠWood y
quir er
Ġscrut in
d al
Ġt ug
ĠM ash
Ġst are
Ġgo all
Ġinform al
int endo
Ġharass ing
Ne il
ĠLav rov
did n
ĠCompl aints
ĠDmit ry
Ġh ut
st een
ĠW ord
ĠAl ways
Ġtem pted
ĠTy nes
ĠMod i
Ġnotor iety
ĠJak arta
C are
b ath
s afe
Ġc ull
ĠT ud
ĠB irds
ĠR oot
qu ite
ile m
Ġlive ly
ĠAss istance
ĠCarl a
Ġgreet ing
ĠMerc ury
N T
b oth
Ġt oned
ĠC ork
ĠD ocum
Ġcl ad
ays on
Ġbr ushed
Ġbo ge
chair man
ĠLes ley
ĠVol ks
Ġmalf unction
Ġech oes
Ġb razen
Ġd ot
Ġy ach
ĠE CB
Ġv ind
ĠTh ib
ĠLe Bron
rest ed
person al
ĠRh ys
Ġfool ish
Ġcompuls ory
re cted
Ġd itched
Ġsoc ieties
ĠTV s
Ġfra gment
cri pts
ĠEvery body
Ġdepart ing
ĠTop shop
arre al
Ġinherit ance
Ġpent house
ĠAuss ie
Ġrecons ider
on en
Ġbe ams
ĠT il
ĠC rom
ro ds
ĠB ard
Ġwith stand
ĠN uclear
Ġviol in
Ġmom s
che t
ĠEv ra
ĠGar rett
ĠSur veillance
Ġ195 4
pat ient
ĠShield s
Ġcomfor ted
t ier
ĠL und
ĠSt al
Ġtime ly
ob a
Ġair ing
ĠX avi
ĠRos em
Ġrain bow
Ġplot ted
Pr ot
Ġguitar ist
Ġincl usive
j ana
Ġh ips
ĠO u
aw ah
Ġpop ping
ĠHM P
Ġtransl ation
Ġunsuccess fully
ĠWake field
Ġbri bery
c orn
ĠA imee
Ġj ab
ĠK ol
Ġun im
ĠSc and
Ġ10 3
Ġperf ume
ĠAm ish
Ġsouth western
ĠRod man
ĠDar fur
Ġmechan ic
high ly
ĠRoc ke
Ġlip stick
3 20
g os
est ly
Ġrec ycled
Ġtra inee
Ġperf ection
ĠMet eor
ĠMir iam
employ ed
Ġdistrib uting
ĠAndre as
Ġovers aw
Ġloot ing
Ġstrengthe ning
Ġauton omous
N ING
T E
ĠC lear
ĠC redit
el ka
ĠH iggins
ĠD ell
pl aces
Ġra ged
Ġspl itting
ĠCas ino
ĠMorris ons
ĠBrid get
ĠVick y
Ġgoalsc orer
Ġpatri otic
P ac
S uch
ĠCh is
Th ousands
Ġorgan ise
ĠHigh land
uk i
ĠHispan ics
Ġcraf ts
Ġrooft op
Ġh atch
ic ates
Ġan ten
oc ols
Ġfl ares
Ġstar ved
Ġsl ump
Ġtrans action
Ġorgan ising
cy cl
ĠIrish man
Ġoutp ost
" ,'
B et
H ill
P L
T y
ĠC rew
el u
ill ions
em ail
oc ating
ĠAl tern
Ġear rings
Ġwin es
int ro
joy ed
Ġcell ar
Ġmonarch y
Ġhomeown er
Ġcancell ation
L B
Ġt urtles
ie ved
ĠAn alysis
Ġinform ing
Ġrev ival
Ġscen ery
Ġbacter ial
Ġcosmet ics
Ġpuzz le
Ġconfer ences
S w
i ress
m os
Ġb ests
al most
ĠH LN
ate au
ĠK ai
Ġout line
ĠAfter wards
Ġunf old
ĠItal ians
udd ed
ĠKar achi
ĠTrib utes
Ġphr ases
Ġrebell ion
Ġnutri ents
ĠZl atan
f ill
g ae
ĠM ats
ĠN em
Ġbl at
ĠAl icia
Ġexp ires
Ġhand ler
Ġsym pt
Ġpled ges
Ġadvent urous
ĠiRep orter
Ġcorrespond ence
ĠProgram me
Ġrug ged
Europe an
Ġcorps es
P ar
S chool
ĠT win
irl o
ept ive
Ġide ological
ĠNe ur
ĠSun shine
ĠMag uire
ĠUruguay an
Ġexception ally
Ġpharm acy
amil iar
ĠScol ari
O D
s usp
ĠS onia
ĠM ine
Ġpol io
Ġbl u
ĠCar men
Ġdet rim
Ġdeal ings
Ġcompet ent
ĠPl ans
Ġsen iors
Ġsens eless
Ġbal ancing
Ġign ited
ĠMcG regor
ĠScient ology
Ġcompassion ate
ĠH ands
ĠD eng
res cent
ĠK iller
Ġoff side
Ġro oted
Ġstar ving
In ter
ĠBer m
Ġfat ty
ĠT umblr
ĠV oy
ĠAut o
iped ia
ĠTah rir
ĠFitz gerald
ĠFreder ick
Ġdehydr ation
Ġfart her
b ase
ĠW inc
ĠR ox
Ġdisc onn
Ġred uctions
Ġvulner ability
Ġassess ing
Ġhonor ary
Ġextensive ly
Ġintimid ated
ĠBit coin
ĠG CHQ
ĠSt iviano
ĠMar ino
ĠFl ash
Ġball istic
ĠSal is
ih u
Ġgirlfriend s
Rep ort
Ġlandsc apes
Ġsubstant ially
ĠJama ican
inapp ropriate
w agen
it ism
ra per
Ġsh iny
ĠSt arting
Ġins ults
Ġleg ends
Ġel usive
ĠRoy als
Ġcamer aman
ĠDef ending
Ġsquad s
ĠTim ber
Ġpath ologist
ĠDev astated
Ġpoet ry
ĠT ran
am ptons
ig ail
Ġair s
Ġesp ionage
cal iber
Ġvert ical
M att
T rent
ĠC ater
ach ment
ĠCl a
ĠFor ster
ĠAd ele
Ġterm ination
Ġpin point
ĠBull s
Ġintimid ating
Ġabsor b
re x
op ath
ew s
Ġwor sh
oin ed
20 12
oura ble
mit t
Ġcart oons
Ġdiscover ies
Ġairpl anes
Ġrevol t
ĠDI Y
W A
es acker
Ġh ier
ĠT weet
Ġsk ating
ĠHar man
Ġep it
Ġtim et
Ġfinger print
ĠArch it
ĠBos nian
ĠTri ple
Ġrenov ation
Ġsuic ides
ĠCris is
e aux
ĠD ul
ĠL ug
ĠE PA
ĠO sp
ĠK ag
Ġapp les
be autiful
Ġacknowled ging
ĠCant or
seek ers
ĠOwn er
Ġstrengthe ned
ĠTynes ide
ĠRocke feller
is ky
Ġbe friend
ĠB ake
ĠP ix
ĠD ane
Ġsp un
ak is
ĠK ra
Ġman oeuv
oll aston
Ġpr ic
ĠV ac
ĠV ital
ons on
Ġcr ad
ĠBrit ann
Ġair borne
Ġdisapp ro
Ġamb ush
Ġfinanc ing
St aff
Ġwra ps
ĠMik el
ĠFein stein
Ġabund ance
Ġorphan age
ĠAnim als
C amp
ĠT we
ot ers
Ġfl att
ah on
gg ie
Ġsk ier
ĠWill s
ĠMcC oist
ĠPet ra
Ġhug ging
ĠLoc als
amptons hire
m ins
Ġl ent
Ġn uisance
ĠL imb
ĠR ip
ag i
Ġcomm od
sh a
ĠZ aha
Ġtest ament
unt a
Ġdocument ation
ĠCom edy
Ġhood ed
Ġreleg ated
ĠBud apest
Ġdazz ling
ĠBhut to
as se
Ġd aunting
[...]
